<unk>	0
<s>	0
</s>	0
்க	-0
்த	-1
ம்	-2
ன்	-3
ல்	-4
▁ப	-5
▁க	-6
க்க	-7
்ட	-8
▁வ	-9
▁ம	-10
த்த	-11
்ப	-12
▁த	-13
▁அ	-14
ும்	-15
ர்	-16
▁ச	-17
ிய	-18
ள்	-19
▁இ	-20
ரு	-21
ந்த	-22
து	-23
ப்ப	-24
ில்	-25
ட்ட	-26
▁ந	-27
▁எ	-28
ைய	-29
ங்க	-30
ாக	-31
ிற	-32
ன்ற	-33
▁உ	-34
டு	-35
ிர	-36
ிக	-37
க்கு	-38
ற்	-39
ண்ட	-40
ள்ள	-41
்ச	-42
ற்ற	-43
ார	-44
த்து	-45
▁ஆ	-46
ின்	-47
ில	-48
▁செ	-49
▁மு	-50
டி	-51
ான	-52
ார்	-53
ர்க	-54
▁வி	-55
லை	-56
தி	-57
வி	-58
ட்டு	-59
ந்து	-60
ரி	-61
ிரு	-62
▁கு	-63
ப்	-64
▁ஒ	-65
வு	-66
ால்	-67
ளை	-68
▁செய	-69
▁போ	-70
▁கொ	-71
▁இரு	-72
ின	-73
க்	-74
▁அவ	-75
ல்ல	-76
ச்ச	-77
▁மா	-78
று	-79
ன்று	-80
▁கா	-81
ன்ன	-82
▁ர	-83
த்	-84
த்தில்	-85
ாய	-86
▁அத	-87
▁பெ	-88
▁இந்த	-89
ான்	-90
றி	-91
ையில்	-92
ளு	-93
ஸ்	-94
டை	-95
மை	-96
▁வே	-97
ுக	-98
▁தொ	-99
க்கும்	-100
ண்	-101
னை	-102
ம்ப	-103
ுவ	-104
ர்கள்	-105
னர்	-106
ங்கள்	-107
ற்க	-108
▁வெ	-109
ாவ	-110
ன்ப	-111
மி	-112
▁கூ	-113
ாத	-114
ப்பு	-115
▁ஏ	-116
▁ஒரு	-117
டிய	-118
ால	-119
ண்டு	-120
▁உள்ள	-121
ிறது	-122
கு	-123
ாள	-124
▁என	-125
▁தே	-126
ளில்	-127
வே	-128
ரை	-129
ாம	-130
ிக்க	-131
மாக	-132
ப்பட்ட	-133
ற்ப	-134
ாம்	-135
றை	-136
▁தெ	-137
்கள்	-138
▁நட	-139
▁1	-140
▁பு	-141
▁மற்ற	-142
ச்	-143
த்தை	-144
▁மே	-145
ழு	-146
ட்ச	-147
▁பிர	-148
திய	-149
▁இத	-150
▁பொ	-151
▁பா	-152
ிட	-153
ரிய	-154
ளுக்கு	-155
▁-	-156
டுத்த	-157
்த்த	-158
வர்	-159
▁வரு	-160
மான	-161
▁பே	-162
▁2	-163
ையும்	-164
▁செய்த	-165
▁மற்றும்	-166
்ய	-167
▁என்று	-168
ரும்	-169
ின்ற	-170
▁வழ	-171
▁நா	-172
ணி	-173
ப்பட	-174
▁கோ	-175
வும்	-176
▁நீ	-177
▁என்ற	-178
்வ	-179
ற்று	-180
▁வா	-181
டுக	-182
▁தொட	-183
▁ய	-184
▁ஜ	-185
ரா	-186
ரச	-187
ண்ண	-188
ள்ளது	-189
வை	-190
ட்	-191
ண்டும்	-192
டன்	-193
வில்	-194
ளி	-195
மா	-196
தாக	-197
ிகள்	-198
▁நில	-199
▁(	-200
்கு	-201
▁முத	-202
ிட்ட	-203
கள்	-204
னு	-205
ப்பட்டு	-206
▁சு	-207
மு	-208
▁சே	-209
னி	-210
▁வீ	-211
▁செய்ய	-212
▁அரச	-213
ோது	-214
ளின்	-215
▁வை	-216
மிழ	-217
▁ட	-218
▁திரு	-219
▁கே	-220
▁மூ	-221
▁என்ப	-222
சி	-223
▁து	-224
தை	-225
டைய	-226
னால்	-227
▁சொ	-228
▁ல	-229
▁அதிக	-230
▁நிற	-231
▁கட	-232
▁தமிழ	-233
▁"	-234
▁பல	-235
▁மீ	-236
ையை	-237
▁பய	-238
டுத்து	-239
▁சிற	-240
▁வருக	-241
▁இது	-242
▁சி	-243
ியில்	-244
▁குறி	-245
▁பட	-246
ும்ப	-247
▁பார	-248
▁வேண்டும்	-249
வர	-250
லி	-251
▁அமை	-252
▁தெரி	-253
ணை	-254
▁கொண்ட	-255
▁அந்த	-256
ஞ்ச	-257
▁நே	-258
..	-259
▁தலை	-260
▁அறி	-261
▁பி	-262
ளிய	-263
▁ஆக	-264
வா	-265
டிக்க	-266
நில	-267
ார்கள்	-268
த்தின்	-269
ங்கள	-270
ிருந்த	-271
திர	-272
ாய்	-273
▁இருந்த	-274
்ப்ப	-275
▁நி	-276
ியு	-277
ிக்	-278
▁'	-279
ிற்கு	-280
▁வந்த	-281
▁கி	-282
ங்கு	-283
▁இருக்க	-284
ற்கு	-285
ட்டி	-286
ிலும்	-287
▁.	-288
ய்	-289
மே	-290
▁ஏற்ப	-291
த்திய	-292
▁தெரிவி	-293
மைய	-294
▁வெளிய	-295
ள்ளார்	-296
ஸ்ட	-297
▁கார	-298
ிருக்க	-299
ரோ	-300
▁இய	-301
களை	-302
▁இர	-303
வத	-304
▁ஓ	-305
▁இட	-306
▁அவர்	-307
்க்க	-308
லம்	-309
▁தீ	-310
▁உட	-311
ங்களை	-312
ூர்	-313
▁கூற	-314
ேன்	-315
ியை	-316
▁என்ன	-317
▁முதல்	-318
▁இந்திய	-319
ங்களில்	-320
க்கிய	-321
னா	-322
வர்க	-323
00	-324
லக	-325
▁ஊ	-326
▁3	-327
ற்றி	-328
▁மேல	-329
நா	-330
▁பண	-331
லாம்	-332
▁வர	-333
ழை	-334
▁சா	-335
▁மக்க	-336
ிறார்	-337
பு	-338
▁எதிர	-339
ர்ந்த	-340
தும்	-341
பெ	-342
லு	-343
சிய	-344
▁உய	-345
கா	-346
▁போல	-347
பி	-348
▁செய்து	-349
ழி	-350
வாக	-351
ருக்கு	-352
▁சில	-353
வர்கள்	-354
ர்ந்து	-355
ளும்	-356
▁பின்	-357
▁சம	-358
▁அப்ப	-359
டுக்க	-360
▁பிற	-361
ாது	-362
ாமல்	-363
த்தி	-364
▁ஹ	-365
▁தன	-366
▁கரு	-367
ழ்	-368
▁திர	-369
ெய	-370
▁வழங்க	-371
▁முன்ன	-372
ோம்	-373
ந்	-374
வது	-375
வ்வ	-376
லா	-377
▁பகு	-378
க்கி	-379
ரம்	-380
▁பொரு	-381
தா	-382
ட்சி	-383
▁மிக	-384
லில்	-385
ப்படுக	-386
த்திர	-387
ர்த்த	-388
பா	-389
▁மாவ	-390
▁ஆனால்	-391
▁முடிய	-392
▁அரசு	-393
ப்பி	-394
ங்	-395
▁முடி	-396
▁நடை	-397
▁மாவட்ட	-398
ப்படும்	-399
▁5	-400
▁தா	-401
ர்ப	-402
▁விர	-403
▁சந்த	-404
ொரு	-405
வில்லை	-406
சார	-407
ஷ்	-408
னம்	-409
▁அனு	-410
ணம்	-411
ங்கி	-412
▁இருந்து	-413
▁ரூ	-414
▁அது	-415
ாலும்	-416
ினை	-417
▁ஈ	-418
போ	-419
▁அள	-420
மும்	-421
▁ஐ	-422
in	-423
▁தோ	-424
▁கொண்டு	-425
ரிக்க	-426
▁மரு	-427
த்திற்கு	-428
▁ரா	-429
▁மேலும்	-430
ியா	-431
ரில்	-432
▁தான்	-433
ல்க	-434
▁அனை	-435
ருக	-436
▁எழு	-437
ப்பா	-438
▁20	-439
▁கை	-440
த்துவ	-441
▁ஆகிய	-442
▁மக	-443
ியாக	-444
▁பர	-445
ப்பட்டது	-446
முக	-447
▁4	-448
▁பூ	-449
▁சீ	-450
▁கல	-451
▁உள்ளது	-452
விட்ட	-453
▁சூ	-454
மெ	-455
ிருந்து	-456
டும்	-457
ட்டை	-458
தம்	-459
▁விள	-460
ல்லை	-461
ினார்	-462
ட்க	-463
▁கால	-464
ியின்	-465
▁நோ	-466
▁கடந்த	-467
▁கண	-468
ிடம்	-469
▁தி	-470
▁கட்ட	-471
ினர்	-472
சு	-473
ின்றனர்	-474
▁நிறுவ	-475
ின்றன	-476
▁நடைபெ	-477
▁சொல்ல	-478
▁அல்ல	-479
ேய	-480
▁அவர்க	-481
▁நெ	-482
ஸ்த	-483
தல்	-484
▁இப்ப	-485
கம்	-486
▁கிர	-487
ாளர்	-488
கவ	-489
▁மோ	-490
ியல்	-491
ட்டில்	-492
க்கம்	-493
தால்	-494
்ச்ச	-495
▁மாண	-496
▁உண	-497
▁இருக்கும்	-498
தே	-499
▁நிலையில்	-500
▁குழ	-501
▁போலீ	-502
ாவது	-503
ர்ச்ச	-504
க்கொ	-505
ப்பட்டுள்ளது	-506
▁பொது	-507
ையா	-508
▁t	-509
ன்னை	-510
▁என்பது	-511
▁குறை	-512
▁திட்ட	-513
an	-514
▁இல	-515
ந்திர	-516
ரே	-517
கை	-518
▁இருப்ப	-519
▁பத	-520
றைய	-521
திக்க	-522
▁தமிழ்	-523
▁உத	-524
ளாக	-525
▁புக	-526
▁நான்	-527
திக	-528
ர்த	-529
▁வரும்	-530
▁வாழ	-531
er	-532
டித்து	-533
விர	-534
ாவில்	-535
ள்ளனர்	-536
ங்களுக்கு	-537
▁உரு	-538
ப்படுகிறது	-539
▁கொள்ள	-540
ோர்	-541
▁தொழ	-542
வன்	-543
▁காண	-544
சை	-545
தியில்	-546
▁ஆய	-547
▁டி	-548
ோத	-549
▁பதி	-550
▁பெற்ற	-551
▁உறு	-552
▁தற்ப	-553
மன்ற	-554
▁இன்று	-555
▁குறிப்ப	-556
▁அதி	-557
ாரி	-558
றிய	-559
▁உலக	-560
ந்தை	-561
ந்தது	-562
த்தார்	-563
▁தூ	-564
ர்வு	-565
தான்	-566
▁அவர்கள்	-567
▁சம்ப	-568
▁தய	-569
▁வரை	-570
▁கிடை	-571
த்துக்கு	-572
▁தொடர்ப	-573
▁வில	-574
on	-575
ப்படுத்த	-576
▁வந்து	-577
▁கூட்ட	-578
▁நிக	-579
ிழ	-580
சா	-581
▁சட்ட	-582
▁சேர்ந்த	-583
▁இல்ல	-584
வீ	-585
ுகள்	-586
▁ஆண்ட	-587
▁ஆர	-588
▁மூலம்	-589
▁போன்ற	-590
ிறார்கள்	-591
▁விசார	-592
▁பார்த்த	-593
ாள்	-594
▁6	-595
▁தெரிய	-596
▁பயன்ப	-597
▁பெய	-598
▁போட்ட	-599
▁வருகிறது	-600
▁அடி	-601
டம்	-602
▁நக	-603
ெல்ல	-604
▁தெரிவித்து	-605
▁தனது	-606
▁மொ	-607
▁தமிழக	-608
▁அல	-609
▁மன	-610
ம்ம	-611
ிகளை	-612
ீர்	-613
ராக	-614
▁ஸ்	-615
▁தொடர்ந்து	-616
▁வள	-617
ென	-618
க்கான	-619
▁மக்கள்	-620
ோடு	-621
▁வேண்ட	-622
▁மாநில	-623
▁ஒன்ற	-624
▁அமைச்ச	-625
தில்	-626
▁எல்ல	-627
வரும்	-628
ோக	-629
▁அறிவி	-630
ப்பை	-631
வுக்கு	-632
▁இல்லை	-633
▁ஆண்டு	-634
▁பரி	-635
▁புதிய	-636
▁தகவ	-637
▁நடிக	-638
▁தற்போது	-639
வச	-640
▁பழ	-641
▁அண	-642
றும்	-643
ிலிருந்து	-644
ல்ப	-645
ையே	-646
▁போது	-647
▁முக்கிய	-648
ாவின்	-649
ரின்	-650
▁மணி	-651
▁நேர	-652
▁முதல	-653
வன	-654
▁காரண	-655
▁வாய	-656
▁குறித்து	-657
at	-658
es	-659
▁7	-660
▁செல்ல	-661
▁வய	-662
▁எந்த	-663
▁பேச	-664
▁சென்ற	-665
▁வக	-666
வ்	-667
ட்ப	-668
▁வெளி	-669
▁வார	-670
▁எடுத்து	-671
ியது	-672
▁எப்ப	-673
க்கள்	-674
ட்டும்	-675
▁இந்	-676
▁அல்லது	-677
▁மருத்துவ	-678
▁கூட	-679
▁தர	-680
ற்கொ	-681
▁வைத்து	-682
டித்த	-683
மார்	-684
▁T	-685
்ப்பு	-686
▁என்றும்	-687
▁வேலை	-688
ளையும்	-689
ணைய	-690
▁என்	-691
ரீ	-692
ல்வ	-693
களில்	-694
▁நல்ல	-695
▁ராஜ	-696
▁எண்ண	-697
▁மட்டு	-698
வடிக்க	-699
வரை	-700
▁நீங்கள்	-701
▁நடவடிக்க	-702
▁கண்ட	-703
ர்க்க	-704
▁கீ	-705
ஸ்ப	-706
க்கூ	-707
ிற்க	-708
ங்கே	-709
▁அதிகார	-710
ப்பில்	-711
▁நிறுவன	-712
முறை	-713
க்காக	-714
டுப	-715
ையின்	-716
▁பட்ட	-717
விட	-718
▁சென்று	-719
▁தேதி	-720
▁பெரிய	-721
▁பெரு	-722
▁பாது	-723
▁அதை	-724
▁S	-725
▁நீதி	-726
▁நிலை	-727
க்த	-728
சிக	-729
நிலையில்	-730
▁திற	-731
▁மெ	-732
▁பால	-733
▁பள்ள	-734
போது	-735
ன்க	-736
▁நினை	-737
▁அவர	-738
▁பாதுகா	-739
▁நிலைய	-740
▁வச	-741
ள்க	-742
ித்த	-743
யம்	-744
▁ஆத	-745
ிருப்ப	-746
▁மீது	-747
சார்	-748
வேறு	-749
▁அதன்	-750
ாதார	-751
▁சென்னை	-752
ாகி	-753
▁குட	-754
▁அணி	-755
▁10	-756
றுக	-757
▁தேர்த	-758
▁நிகழ	-759
▁அம	-760
ராஜ	-761
he	-762
ேயே	-763
ியும்	-764
▁இன்ன	-765
▁இதில்	-766
▁ஸ்ட	-767
▁மத்திய	-768
▁நடத்த	-769
▁இதனால்	-770
ஜி	-771
▁ஷ	-772
▁லட்ச	-773
தற்க	-774
ைப்பட	-775
வெ	-776
▁இணை	-777
வம்	-778
▁நடவடிக்கை	-779
▁பல்	-780
ar	-781
ினி	-782
யா	-783
▁உள்ளிட்ட	-784
▁கட்டு	-785
▁திரும	-786
▁தன்	-787
ிற்	-788
▁இரண்டு	-789
▁குழந்தை	-790
ையாக	-791
▁8	-792
்தான்	-793
ச்சை	-794
▁விடு	-795
ஸ்க	-796
or	-797
▁இற	-798
ிகி	-799
▁மாற்ற	-800
▁தொடங்க	-801
▁அக	-802
▁தலைவர்	-803
▁அவரது	-804
▁மாத	-805
ச்சு	-806
தான	-807
ூக	-808
ளா	-809
▁பிறகு	-810
▁நிர்	-811
ெட்	-812
வற்ற	-813
ிறேன்	-814
டியாக	-815
ிருக்கும்	-816
▁பாட	-817
▁விட	-818
ன்றி	-819
மர்	-820
னித	-821
தற்கு	-822
▁தின	-823
▁காவ	-824
▁அனைத்து	-825
▁முக	-826
▁மேற்கொ	-827
ித்து	-828
▁பெரும்	-829
▁அடை	-830
ளுடன்	-831
னே	-832
en	-833
விட்டு	-834
த்தர	-835
▁முய	-836
▁நம்ப	-837
▁விரு	-838
it	-839
...	-840
▁பல்வேறு	-841
▁அருக	-842
ரோனா	-843
▁அழை	-844
▁செய்வ	-845
ழக	-846
▁நேற்று	-847
வரு	-848
▁இந்நிலையில்	-849
ழுவ	-850
ாளர்கள்	-851
தாகவும்	-852
al	-853
▁வீர	-854
▁அதே	-855
▁பெற்று	-856
க்கப்பட்ட	-857
சிர	-858
ப்பட்டுள்ள	-859
ர்களை	-860
ாறு	-861
▁நாம்	-862
▁விஜ	-863
▁கலந்து	-864
▁மிகவும்	-865
ியுள்ளது	-866
மது	-867
▁குடும்ப	-868
்து	-869
▁வைத்த	-870
▁போரா	-871
▁பின்னர்	-872
▁பயன்படுத்த	-873
▁இவ்வ	-874
டுப்ப	-875
▁போலீசார்	-876
ங்கை	-877
▁வழி	-878
▁அளி	-879
▁19	-880
ையு	-881
▁பார்க்க	-882
▁ஈடுப	-883
ou	-884
▁கடை	-885
▁தேவ	-886
ியர்	-887
▁முறை	-888
னுக்கு	-889
▁எம்	-890
▁நூ	-891
▁தனி	-892
▁என்பதை	-893
▁விட்ட	-894
ஸ்ட்	-895
▁அடுத்த	-896
ில்ல	-897
ா்	-898
கொ	-899
▁வருகின்றனர்	-900
▁குற்ற	-901
ேச	-902
ட்டம்	-903
▁நாட	-904
is	-905
▁சமூக	-906
▁,	-907
வான	-908
▁சங்க	-909
▁விசாரணை	-910
னும்	-911
படி	-912
ளுக்கும்	-913
ல்வி	-914
▁A	-915
வில	-916
▁முன்	-917
்ட்	-918
▁அப்போது	-919
ர்களுக்கு	-920
யில்	-921
▁பெண	-922
ும	-923
▁வழக்கு	-924
த்தம்	-925
ல்கள்	-926
ர்ம	-927
▁இருக்கிறது	-928
ையான	-929
▁9	-930
பதி	-931
▁அரு	-932
▁சோ	-933
▁இதை	-934
▁எடுக்க	-935
▁கட்ச	-936
வாத	-937
▁நிறை	-938
▁பிரி	-939
▁ஏற்படுத்த	-940
ிட்டு	-941
▁முன்ப	-942
▁பேர்	-943
▁முடியும்	-944
ார்ப	-945
▁உங்கள்	-946
ாவை	-947
பர	-948
▁எனவே	-949
▁உயிர	-950
▁நிய	-951
நக	-952
ளம்	-953
ந்தி	-954
▁மர	-955
▁அங்கு	-956
ப்படு	-957
விய	-958
▁!	-959
▁மீண்டும்	-960
il	-961
ர்கள	-962
▁அனும	-963
▁அலுவ	-964
▁விஷ	-965
ec	-966
▁புது	-967
▁மறு	-968
▁பற்றி	-969
▁முழு	-970
▁ஆர்	-971
ச்சி	-972
▁கொரோனா	-973
த்துடன்	-974
▁ஒன்று	-975
▁:	-976
▁ஆயிர	-977
▁தங்க	-978
▁வாங்க	-979
▁மது	-980
▁விட்டு	-981
பர்	-982
ாங்க	-983
ளவு	-984
ிகளில்	-985
ற்றிய	-986
▁நடைபெற்ற	-987
▁விழ	-988
மையான	-989
▁அதில்	-990
ாச	-991
▁தவ	-992
▁பொறு	-993
கி	-994
▁வாக	-995
▁பிரச்ச	-996
▁பகுதியில்	-997
▁துறை	-998
ில்லை	-999
▁மின்	-1000
▁உத்தர	-1001
ுக்கு	-1002
ினால்	-1003
▁வழக்க	-1004
▁சிவ	-1005
▁செயல	-1006
மார	-1007
▁காரணமாக	-1008
ஷ்ட	-1009
ிற்ச	-1010
▁உண்	-1011
▁201	-1012
றையில்	-1013
▁இவர்	-1014
▁ரசிக	-1015
ிலேயே	-1016
▁இயக்கு	-1017
ிற்ப	-1018
ர்ப்ப	-1019
ப்போ	-1020
▁ஆல	-1021
▁மனித	-1022
▁வெற்றி	-1023
▁மட்டுமே	-1024
▁செயல்ப	-1025
▁ஃ	-1026
▁படி	-1027
▁ரூப	-1028
▁டெ	-1029
am	-1030
வசாய	-1031
▁நிகழ்ச்ச	-1032
▁மதி	-1033
▁ஒவ்வ	-1034
ர்ச்சி	-1035
▁சுவ	-1036
ப்பெ	-1037
நீ	-1038
▁விவசாய	-1039
ஆம்	-1040
ின்றது	-1041
▁சிகி	-1042
▁வகையில்	-1043
ப்பாக	-1044
▁நான	-1045
▁வல	-1046
வரி	-1047
க்கா	-1048
▁அமைச்சர்	-1049
▁பணி	-1050
த்தையும்	-1051
தல	-1052
நிலை	-1053
▁பிரத	-1054
▁கிராம	-1055
ிறோம்	-1056
ார்த்த	-1057
▁உருவா	-1058
ண்ப	-1059
▁செலு	-1060
▁வேறு	-1061
யில	-1062
▁மல	-1063
▁ஆம்	-1064
கள	-1065
மெரிக்க	-1066
ய்வு	-1067
▁இருந்தது	-1068
ிருக்கிறது	-1069
▁நாள	-1070
▁s	-1071
ியுள்ளார்	-1072
க்கோ	-1073
▁எஸ்	-1074
20	-1075
▁போக	-1076
▁நம்	-1077
▁தொகு	-1078
ெல்லாம்	-1079
▁விளையா	-1080
▁முடிவு	-1081
▁படம்	-1082
▁தகவல்	-1083
▁சிறப்பு	-1084
▁கல்ல	-1085
▁அமெரிக்க	-1086
▁கைது	-1087
டுகள்	-1088
ப்புக	-1089
ர்களின்	-1090
▁N	-1091
▁மட்டும்	-1092
▁in	-1093
▁விலை	-1094
ாரம்	-1095
▁யா	-1096
ியன்	-1097
்டர்	-1098
▁தொழில்	-1099
ார்க	-1100
▁எதிர்ப	-1101
om	-1102
▁அரசியல்	-1103
▁பெற	-1104
▁வெளியே	-1105
le	-1106
மீ	-1107
▁தேசிய	-1108
▁உரி	-1109
▁a	-1110
▁அதிகரி	-1111
ன்னு	-1112
ரிச	-1113
▁வட	-1114
▁மி	-1115
த்தும்	-1116
▁ஆரம்ப	-1117
▁விற்ப	-1118
வர்களுக்கு	-1119
▁இயக்க	-1120
▁15	-1121
▁அதற்கு	-1122
▁அட	-1123
▁கன	-1124
தியை	-1125
▁முயற்	-1126
▁பதிவு	-1127
ிகளுக்கு	-1128
▁அம்	-1129
▁c	-1130
வின்	-1131
ப்பது	-1132
▁குறிப்பிட	-1133
▁மனை	-1134
▁ஏற்பட்ட	-1135
ாயக	-1136
▁கண்ண	-1137
ோச	-1138
▁எனக்கு	-1139
▁சொன்ன	-1140
ாகும்	-1141
▁the	-1142
▁நாள்	-1143
▁வைக்க	-1144
▁கருத்து	-1145
▁கொடுத்த	-1146
▁வெள்ள	-1147
▁கேட்ட	-1148
▁தயாரி	-1149
ேக	-1150
▁விரும்ப	-1151
▁கேள்	-1152
▁பாதி	-1153
▁சிகிச்சை	-1154
ிக்கை	-1155
▁சத	-1156
த்தது	-1157
▁நிர்வாக	-1158
▁முழுவ	-1159
▁உறுப்ப	-1160
▁தேர்வு	-1161
ாட்ட	-1162
▁D	-1163
▁M	-1164
ங்களின்	-1165
▁என்க	-1166
▁பிரப	-1167
ம்பு	-1168
▁அங்க	-1169
▁பேர	-1170
▁பார்த்து	-1171
▁ஒவ்வொரு	-1172
ண்டி	-1173
▁12	-1174
த்தால்	-1175
▁கோடி	-1176
னின்	-1177
த்தா	-1178
▁எப்படி	-1179
ிரி	-1180
லுக்கு	-1181
ப்ட	-1182
ுள்ள	-1183
▁திரும்ப	-1184
▁பெண்	-1185
▁இதன்	-1186
▁மூன்று	-1187
ையடுத்து	-1188
ினும்	-1189
▁கவ	-1190
மையில்	-1191
▁ஜெய	-1192
மையாக	-1193
▁தமிழ்நா	-1194
▁விரை	-1195
த்துறை	-1196
▁சிறு	-1197
▁இரண்ட	-1198
ைகள்	-1199
▁நிர	-1200
▁ஆன	-1201
நி	-1202
த்திற்க	-1203
டியோ	-1204
தியாக	-1205
த்தக்க	-1206
▁வாழ்க்க	-1207
▁நு	-1208
▁தவிர	-1209
▁மண	-1210
▁குழு	-1211
▁தெரிவிக்க	-1212
▁காங்க	-1213
▁உடல்	-1214
ியுள்ள	-1215
▁இந்தியா	-1216
ருக்க	-1217
▁மருத்துவம	-1218
▁அவரை	-1219
ion	-1220
▁தொழில	-1221
▁சாத	-1222
ஷ்ண	-1223
▁வாகன	-1224
ெக	-1225
▁கண்டு	-1226
▁பாதிக்க	-1227
ைக்	-1228
▁இன்னும்	-1229
ed	-1230
▁நீதிமன்ற	-1231
▁செல்	-1232
▁விமான	-1233
▁ஆசிர	-1234
வதற்கு	-1235
▁திரைப்பட	-1236
▁நிறு	-1237
▁பகுதிக	-1238
ண்ட்	-1239
▁கொடுக்க	-1240
▁பாதுகாப்பு	-1241
ட்டின்	-1242
▁இன்	-1243
ிக்கொ	-1244
▁படை	-1245
ew	-1246
ாட்டு	-1247
ியான	-1248
▁மேல்	-1249
வக	-1250
▁காய	-1251
த்தக	-1252
ங்கும்	-1253
▁P	-1254
▁நாட்க	-1255
▁பயண	-1256
▁கூறினார்	-1257
▁செய்யப்பட்ட	-1258
▁காலை	-1259
▁இணைய	-1260
▁வேண்டிய	-1261
▁அர	-1262
வதாக	-1263
),	-1264
▁உணவு	-1265
ீர	-1266
▁மாதம்	-1267
▁ஆண்டுக	-1268
ார்க்க	-1269
ிருந்தார்	-1270
▁காங்கிர	-1271
▁துணை	-1272
▁கலை	-1273
▁இறு	-1274
▁சார்ப	-1275
ஜ்	-1276
ங்களும்	-1277
களுக்கு	-1278
ர்த்து	-1279
ோதனை	-1280
▁பார்	-1281
▁அவ்வ	-1282
▁ஸ்ரீ	-1283
000	-1284
▁உற	-1285
▁ராம	-1286
▁உள்ளன	-1287
ிகள	-1288
கிறது	-1289
மொ	-1290
ழிய	-1291
▁பக்க	-1292
க்கை	-1293
ன்கள்	-1294
்த்து	-1295
டா	-1296
▁C	-1297
▁இப்போது	-1298
▁கட்சி	-1299
▁மைய	-1300
▁வடி	-1301
▁கல்வி	-1302
▁நடந்த	-1303
▁202	-1304
▁தீவிர	-1305
▁மூல	-1306
லின்	-1307
▁ஒரே	-1308
த்தனர்	-1309
▁அருகே	-1310
▁வைர	-1311
ாக்	-1312
▁செய்யும்	-1313
க்கல்	-1314
▁இனி	-1315
ஞ்	-1316
ve	-1317
▁அவன்	-1318
▁படத்தில்	-1319
ியம்	-1320
▁சர்	-1321
▁தேவை	-1322
பே	-1323
▁ஜன	-1324
▁இதனை	-1325
▁புற	-1326
▁கிட	-1327
ழுது	-1328
▁என்றார்	-1329
ிருந்தது	-1330
ிலே	-1331
▁ஏற்க	-1332
▁தலைமை	-1333
▁சுக	-1334
▁தேர்தல்	-1335
▁ஒருவர்	-1336
த்திலும்	-1337
மையை	-1338
டைந்த	-1339
▁தண்ண	-1340
▁வருகிறார்	-1341
ic	-1342
ஞான	-1343
▁பரிச	-1344
▁முடியாது	-1345
as	-1346
த்தான்	-1347
▁30	-1348
▁பொருள	-1349
ைக்கு	-1350
ஷன்	-1351
வாய	-1352
த்துக்	-1353
ானது	-1354
▁யார	-1355
ம்பெ	-1356
▁ஆய்வு	-1357
▁R	-1358
▁மேற்ப	-1359
▁o	-1360
ரன்	-1361
▁கேட்டு	-1362
▁முழுவதும்	-1363
ியார்	-1364
்களை	-1365
▁இழ	-1366
▁நிறுவனம்	-1367
ங்கா	-1368
ராட்சி	-1369
▁சரிய	-1370
▁செல	-1371
▁கெ	-1372
▁அறிமுக	-1373
▁சர	-1374
▁p	-1375
ாரா	-1376
▁காட்ட	-1377
மூ	-1378
திகள்	-1379
வதற்க	-1380
ங்கிய	-1381
▁மாவட்டம்	-1382
த்தின	-1383
▁நோய	-1384
▁இன்ற	-1385
▁இப்படி	-1386
▁சரி	-1387
▁கொள்க	-1388
மோ	-1389
ப்பிர	-1390
▁ஆதர	-1391
னில்	-1392
ைப்	-1393
▁நடிகர்	-1394
ள்ளி	-1395
▁சுற்று	-1396
▁அளிக்க	-1397
ிருக்கிறார்	-1398
▁அவருக்கு	-1399
▁பாத	-1400
▁11	-1401
ews	-1402
▁கூறிய	-1403
ing	-1404
ீடு	-1405
▁டிர	-1406
▁இடைய	-1407
ென்ற	-1408
▁தள	-1409
வேண்டும்	-1410
▁அலுவலக	-1411
ந்துள்ளது	-1412
▁பொதும	-1413
▁கல்லூ	-1414
▁வயது	-1415
சம்	-1416
▁I	-1417
களின்	-1418
▁ப்	-1419
▁கூறுக	-1420
▁சார்	-1421
▁ஒப்ப	-1422
▁ஸ	-1423
டியே	-1424
தற்காக	-1425
வோ	-1426
▁இள	-1427
▁இவ்வாறு	-1428
க்கில்	-1429
▁புல	-1430
பை	-1431
▁பக்த	-1432
▁w	-1433
தன்	-1434
தோ	-1435
ாண	-1436
▁சிக்க	-1437
▁வகு	-1438
டக	-1439
▁to	-1440
எஸ்	-1441
▁ஜி	-1442
▁குறித்த	-1443
▁விப	-1444
▁நடித்து	-1445
▁சக	-1446
▁என்றால்	-1447
▁உறுதி	-1448
▁தங்கள்	-1449
ிகு	-1450
▁வாக்கு	-1451
ீர்கள்	-1452
ிகளின்	-1453
▁தல	-1454
▁லட்சம்	-1455
க்கொண்ட	-1456
ங்கில	-1457
▁நாங்கள்	-1458
▁d	-1459
ிலான	-1460
▁உயர்	-1461
▁அடிப்பட	-1462
▁பிரதமர்	-1463
பால	-1464
செ	-1465
ந்தார்	-1466
▁கண்க	-1467
▁நீர்	-1468
▁கள	-1469
▁ஆட்ச	-1470
லும்	-1471
த்துள்ளது	-1472
▁இந்தப்	-1473
▁முன்னாள்	-1474
▁ரூபாய்	-1475
▁பிரபல	-1476
▁விற்பனை	-1477
▁இதற்கு	-1478
ப்ர	-1479
▁காங்கிரஸ்	-1480
▁திருப்ப	-1481
▁நடி	-1482
▁மறை	-1483
▁நடத்தி	-1484
▁சிறந்த	-1485
▁தொலை	-1486
▁மழை	-1487
▁தான	-1488
▁விழு	-1489
▁போக்கு	-1490
வின	-1491
ரிக்கை	-1492
கோ	-1493
▁நாடுக	-1494
▁தொடர்பாக	-1495
▁கொள்	-1496
ல்களை	-1497
▁h	-1498
▁அன்ப	-1499
▁பயிற்ச	-1500
னையில்	-1501
ும்போது	-1502
▁சம்பவ	-1503
ளே	-1504
▁கொடுத்து	-1505
க்குள்	-1506
▁காரணம்	-1507
சாமி	-1508
▁முன்பு	-1509
ந்த்	-1510
▁பள்ளி	-1511
ட்டத்தில்	-1512
▁நடந்து	-1513
▁வந்தது	-1514
▁துவ	-1515
▁விஷய	-1516
ொட	-1517
▁வீட்டில்	-1518
▁தெரிவித்தார்	-1519
வித	-1520
ாகு	-1521
our	-1522
ருக்கும்	-1523
▁r	-1524
▁ன	-1525
▁காவல	-1526
▁f	-1527
▁இங்கு	-1528
▁நேரம்	-1529
ையாள	-1530
▁தடை	-1531
▁அடைய	-1532
▁குடி	-1533
ரான	-1534
சன்	-1535
▁படத்தின்	-1536
▁சை	-1537
ாடு	-1538
▁கூறி	-1539
க்களை	-1540
).	-1541
▁பீ	-1542
▁விஜய்	-1543
▁உதவி	-1544
▁அதனை	-1545
▁நேரத்தில்	-1546
▁பாஜ	-1547
ிருஷ்ண	-1548
தலை	-1549
ருவ	-1550
▁இலங்கை	-1551
▁வீடியோ	-1552
▁அப	-1553
▁அற	-1554
▁முறைய	-1555
நாயக	-1556
▁மை	-1557
சே	-1558
▁இரவு	-1559
▁செய்க	-1560
▁அதிகாரிகள்	-1561
▁நண்ப	-1562
▁செயல்	-1563
களும்	-1564
▁வாய்ப்பு	-1565
ின்ன	-1566
ன்மை	-1567
▁தயார	-1568
க்கிறது	-1569
புரம்	-1570
ட்டர்	-1571
▁கிள	-1572
▁ரோ	-1573
▁அளவில்	-1574
ுடன்	-1575
ிகா	-1576
▁நல	-1577
ளுக்கான	-1578
▁போல்	-1579
ீப	-1580
▁இதற்க	-1581
றித்து	-1582
▁n	-1583
▁கடி	-1584
ent	-1585
▁குறிப்பிடத்தக்க	-1586
ுமா	-1587
▁உட்ப	-1588
▁ஜோ	-1589
▁நகர	-1590
ர்த்தி	-1591
▁வண	-1592
▁சார்பில்	-1593
▁வீட்டு	-1594
▁வேண்டு	-1595
நாத	-1596
ென்று	-1597
ay	-1598
▁கீழ	-1599
ப்பான	-1600
க்கே	-1601
▁உயிரிழ	-1602
ப்புகள்	-1603
▁ஆகியோர்	-1604
▁வேல	-1605
▁போட்டு	-1606
▁இடம்	-1607
▁18	-1608
மைச்ச	-1609
▁பண்ண	-1610
ிலோ	-1611
▁பேசிய	-1612
▁சுமார்	-1613
▁b	-1614
ம்பர்	-1615
▁0	-1616
த்தைப்	-1617
வார	-1618
▁அண்ண	-1619
▁சினி	-1620
றுத்த	-1621
ியே	-1622
நர்	-1623
▁கால்	-1624
வர்களை	-1625
செய	-1626
▁திமுக	-1627
▁அவற்ற	-1628
ாயம்	-1629
▁கார்	-1630
▁பங்கே	-1631
▁14	-1632
ol	-1633
▁இடங்களில்	-1634
▁இல்லாத	-1635
ுடைய	-1636
ாளு	-1637
▁ஆயிரம்	-1638
▁அச	-1639
▁முதல்வர்	-1640
▁இன	-1641
வதை	-1642
▁மேற்கொள்ள	-1643
▁உற்ப	-1644
▁இளை	-1645
ிகை	-1646
▁வேக	-1647
நு	-1648
▁உண்ட	-1649
▁எவ்வ	-1650
▁ஏன்	-1651
▁அனுப்ப	-1652
▁கத	-1653
▁வரலா	-1654
▁கதை	-1655
▁கேள்வி	-1656
▁எல்லாம்	-1657
▁கூடு	-1658
▁எது	-1659
▁எடுத்த	-1660
▁அதன்ப	-1661
▁கேட்க	-1662
▁வியா	-1663
ிலை	-1664
னைய	-1665
ணுவ	-1666
▁ற	-1667
▁கர	-1668
▁ஜூ	-1669
▁200	-1670
லர்	-1671
▁மாலை	-1672
▁வங்க	-1673
▁நிதி	-1674
ம்பி	-1675
ியோ	-1676
▁நடைபெற்றது	-1677
ப்பே	-1678
▁வரவே	-1679
▁கிடைக்கும்	-1680
க்கூடிய	-1681
ரிடம்	-1682
▁புரி	-1683
ரும	-1684
▁அறிவு	-1685
▁சென்ன	-1686
▁உடன	-1687
▁சொந்த	-1688
ig	-1689
▁அவை	-1690
தாவது	-1691
தள	-1692
ாளுமன்ற	-1693
▁இடை	-1694
▁சிர	-1695
ுத	-1696
ாளி	-1697
and	-1698
னாக	-1699
▁B	-1700
▁செல்வ	-1701
மிட	-1702
க்கொள்ள	-1703
▁பாஜக	-1704
ெய்	-1705
ாப	-1706
▁பெண்கள்	-1707
▁ஏற்று	-1708
▁மணிக்கு	-1709
▁வித	-1710
ராஜ்	-1711
விட்டது	-1712
ிற்று	-1713
▁இளைஞ	-1714
தேச	-1715
▁திட	-1716
ாலி	-1717
▁குறிப்பிட்ட	-1718
▁கீழ்	-1719
ூட	-1720
ய்ய	-1721
▁அழக	-1722
▁இதையடுத்து	-1723
▁மண்ட	-1724
ஞ்சி	-1725
▁m	-1726
மானது	-1727
▁நாக	-1728
▁E	-1729
▁சூழ	-1730
க்கிர	-1731
▁உறுப்பின	-1732
▁அச்ச	-1733
▁50	-1734
▁மனைவி	-1735
வர்களின்	-1736
ur	-1737
▁ஆன்	-1738
▁ஏற்பட்டு	-1739
வுடன்	-1740
வற்றை	-1741
▁பணிய	-1742
ந்துள்ள	-1743
▁F	-1744
ப்பின்	-1745
▁மகிழ	-1746
லாக	-1747
▁உள	-1748
▁பணம்	-1749
வராக	-1750
ிழமை	-1751
▁உப	-1752
▁மேற்பட்ட	-1753
நாள்	-1754
▁ஆட்ட	-1755
▁வெளியிட்டு	-1756
▁போன	-1757
▁ட்	-1758
ரிக	-1759
▁செய்தனர்	-1760
▁இவ	-1761
▁25	-1762
▁சதவீ	-1763
ங்குக	-1764
▁பகுதிகளில்	-1765
▁பிறந்த	-1766
▁சம்பவம்	-1767
▁சக்த	-1768
டுக்கும்	-1769
த்தைக்	-1770
▁போக்குவர	-1771
▁அமைக்க	-1772
▁மத	-1773
▁ஆகும்	-1774
ர்களும்	-1775
▁வாழ்	-1776
க்கெ	-1777
ந்திய	-1778
மல்ல	-1779
▁தடுப்ப	-1780
▁அனுமதி	-1781
▁நடிகை	-1782
▁என்னும்	-1783
ிடையே	-1784
▁ஈடுபட்ட	-1785
▁அளவு	-1786
▁உச்ச	-1787
▁அறிய	-1788
▁சுகாதார	-1789
▁அழ	-1790
▁அதனால்	-1791
ப்படி	-1792
▁எல்லா	-1793
▁தமிழகத்தில்	-1794
▁13	-1795
▁of	-1796
▁சேர்த்து	-1797
▁பெயர்	-1798
▁வகை	-1799
▁மாணவ	-1800
▁தமிழ்நாடு	-1801
▁அனுப	-1802
▁நப	-1803
▁இந்தியாவில்	-1804
▁மன்ன	-1805
▁உள்ளனர்	-1806
▁புகைப்பட	-1807
▁விளை	-1808
▁எதிராக	-1809
▁கேர	-1810
▁ரெ	-1811
▁விண்ண	-1812
▁தாக்கு	-1813
▁இதுவரை	-1814
▁கூடிய	-1815
▁கவன	-1816
▁வருட	-1817
▁கடு	-1818
▁திருமணம்	-1819
▁யு	-1820
▁தீர்	-1821
ட்டா	-1822
▁மாட	-1823
▁வெளியாக	-1824
ணா	-1825
▁சாலை	-1826
▁மாவட்டத்தில்	-1827
▁பெறு	-1828
▁சமீப	-1829
▁எனவும்	-1830
▁ஆணைய	-1831
▁முதலில்	-1832
ஸ்திர	-1833
▁ரசிகர்கள்	-1834
▁அரசாங்க	-1835
மக்கு	-1836
▁கோவில	-1837
▁மேம்ப	-1838
▁யார்	-1839
▁சேவை	-1840
▁காட்ச	-1841
▁தனியார்	-1842
ப்பர்	-1843
▁ரி	-1844
ங்களையும்	-1845
▁16	-1846
▁அதிகமாக	-1847
களையும்	-1848
▁வலை	-1849
▁ஒது	-1850
▁சொல்லி	-1851
்ச்சி	-1852
கே	-1853
ர்வ	-1854
▁கொலை	-1855
▁கோவில்	-1856
க்கார	-1857
▁செலுத்த	-1858
▁பதில	-1859
▁செல்லும்	-1860
ஷா	-1861
▁காலத்தில்	-1862
▁1.	-1863
ர்ட	-1864
▁u	-1865
ளுடைய	-1866
▁காவல்	-1867
▁அதிமுக	-1868
விழ	-1869
▁இதுகு	-1870
▁நடந்தது	-1871
▁குடிய	-1872
▁ரயில்	-1873
▁மனு	-1874
▁என்னை	-1875
ஸ்தான்	-1876
▁கிழ	-1877
போல்	-1878
▁நடிக்க	-1879
▁பெண்ண	-1880
▁நாளை	-1881
▁ஆவ	-1882
▁இப்பட	-1883
▁பை	-1884
ளிடம்	-1885
ிட்	-1886
▁y	-1887
▁ஸ்டால	-1888
ிகளும்	-1889
▁விழா	-1890
▁அவர்களுக்கு	-1891
சன	-1892
▁உண்டு	-1893
▁இல்லாமல்	-1894
▁இத்த	-1895
ாட	-1896
▁போலீஸ்	-1897
▁அவர்களை	-1898
ுங்கள்	-1899
▁செயலாளர்	-1900
▁உங்களுக்கு	-1901
▁அவர்களின்	-1902
▁மாதிர	-1903
ாலை	-1904
▁குர	-1905
ப்படை	-1906
▁பொருளாதார	-1907
▁பகுதி	-1908
▁பற்றிய	-1909
▁அன்று	-1910
▁நடித்த	-1911
▁கிடைக்க	-1912
ation	-1913
▁ஆப	-1914
▁எதிர்க	-1915
லே	-1916
▁இதே	-1917
நோ	-1918
▁விதி	-1919
ளிக்க	-1920
▁தண்ணீர்	-1921
ீஸ்	-1922
னவே	-1923
▁வாய்ப்ப	-1924
▁இவை	-1925
▁கழி	-1926
வார்கள்	-1927
ra	-1928
ற்றம்	-1929
▁வான	-1930
டுகிறது	-1931
▁கூறப்படுகிறது	-1932
▁டீ	-1933
▁தொற்று	-1934
▁அப்படி	-1935
ட்கள்	-1936
ட்டிய	-1937
▁மோடி	-1938
மாறு	-1939
க்குப்	-1940
▁அழு	-1941
ிலுள்ள	-1942
el	-1943
ப்பிட்டு	-1944
▁புகார்	-1945
▁வரி	-1946
▁வெளியிட	-1947
▁ஏற்படும்	-1948
ட்டார்	-1949
த்தல்	-1950
பார	-1951
▁திருமண	-1952
▁அதற்க	-1953
நீர்	-1954
▁இறை	-1955
▁ஆறு	-1956
▁இடம்பெ	-1957
▁ஆலோச	-1958
▁நீண்ட	-1959
▁யூ	-1960
▁உதவ	-1961
▁குறைந்த	-1962
ிர்	-1963
வரின்	-1964
▁இடத்தில்	-1965
▁குரு	-1966
க்கொண்டு	-1967
▁தொடங்கி	-1968
எல்	-1969
டியில்	-1970
குதி	-1971
▁பின்ன	-1972
▁ஸ்மார	-1973
▁அழைத்து	-1974
▁குண	-1975
ிறு	-1976
த்தைச்	-1977
▁அதிகம்	-1978
மண	-1979
▁நிறைவே	-1980
▁கொண்டிருந்த	-1981
▁வாச	-1982
▁டெல்ல	-1983
▁அடிப்படையில்	-1984
▁திருவ	-1985
ருடைய	-1986
▁அவள்	-1987
வுகள்	-1988
▁மோச	-1989
யூ	-1990
▁புர	-1991
▁உரிமை	-1992
ாஸ்	-1993
▁எங்கள்	-1994
க்கூட	-1995
▁பலர்	-1996
▁உர	-1997
▁ரீ	-1998
▁சால	-1999
▁பெண்க	-2000
▁போட்டியில்	-2001
▁காவல்து	-2002
▁எளி	-2003
▁தெளி	-2004
▁தாம	-2005
▁சேர்க்க	-2006
▁நான்கு	-2007
த்தே	-2008
▁கம	-2009
ாவும்	-2010
தையும்	-2011
▁இதுகுறித்து	-2012
ியுடன்	-2013
▁மாநக	-2014
,000	-2015
▁அவசிய	-2016
ளால்	-2017
▁பார்வ	-2018
▁மற	-2019
▁தண்ட	-2020
திர்	-2021
▁வெற்ற	-2022
▁நன்ற	-2023
▁காட்டு	-2024
▁அரசின்	-2025
▁பிள்ள	-2026
▁மதுரை	-2027
▁பதவி	-2028
ப்பதி	-2029
ய்வ	-2030
▁17	-2031
ூரில்	-2032
▁வலியு	-2033
வதால்	-2034
▁மூன்ற	-2035
▁வடிவ	-2036
▁ஊழிய	-2037
▁நாடு	-2038
▁விமர்	-2039
ப்த	-2040
ென்	-2041
▁உருவாக்க	-2042
▁எனது	-2043
▁சின்ன	-2044
▁அம்ப	-2045
▁அனைவரும்	-2046
▁மாணவர்கள்	-2047
▁கொஞ்ச	-2048
ையால்	-2049
▁இணைந்து	-2050
▁பொதுமக்கள்	-2051
▁பஞ்ச	-2052
ுவது	-2053
▁உருவாக	-2054
ரக	-2055
▁ஆட்சி	-2056
▁போட்டி	-2057
▁தாய	-2058
▁விஜய	-2059
▁சிறி	-2060
மைச்சர்	-2061
▁குறிப்பாக	-2062
▁நோக்கி	-2063
ேஷ்	-2064
க்ஷ	-2065
▁அடிக்க	-2066
▁கவி	-2067
▁கிரிக்க	-2068
▁மருத்துவமனை	-2069
▁ஏற்கனவே	-2070
▁விரி	-2071
ங்களிலும்	-2072
ter	-2073
சித்து	-2074
▁உடை	-2075
ப்பாளர்	-2076
டுகளை	-2077
ருடன்	-2078
க்கண	-2079
ோர	-2080
▁நமது	-2081
ce	-2082
▁செய்தி	-2083
▁போட்டிய	-2084
பிர	-2085
▁ரஜ	-2086
▁முறையில்	-2087
▁இருவரும்	-2088
ொண்ட	-2089
நாட்டு	-2090
▁சொல்	-2091
▁போய்	-2092
ங்களாக	-2093
▁100	-2094
வருக்கும்	-2095
ப்பட்டுள்ளன	-2096
▁வந்தார்	-2097
▁போராட்ட	-2098
▁ஆற்ற	-2099
▁முன்னே	-2100
▁பரபர	-2101
▁அடுத்து	-2102
▁அனுமதிக்க	-2103
▁எல்	-2104
▁மாற	-2105
▁பல்க	-2106
▁பத்திர	-2107
▁கர்	-2108
சில	-2109
த்தியில்	-2110
போல	-2111
▁அக்க	-2112
▁அம்ம	-2113
▁பொருட்க	-2114
▁கதா	-2115
▁போக்குவரத்து	-2116
▁சந்தி	-2117
▁கூடாது	-2118
▁கோரிக்கை	-2119
▁வீட்ட	-2120
▁வெளியிட்ட	-2121
▁திட்டம்	-2122
▁செய்யப்பட்டு	-2123
▁e	-2124
▁தவற	-2125
ச்சே	-2126
▁தீர்மான	-2127
▁ஒளி	-2128
▁மான	-2129
▁அதாவது	-2130
▁தோன்ற	-2131
▁சோதனை	-2132
▁மகன்	-2133
▁கிலோ	-2134
▁வாழ்வ	-2135
▁வழியாக	-2136
▁வருகின்றன	-2137
லாம	-2138
▁பூஜ	-2139
▁படத்தை	-2140
▁நிகழ்	-2141
▁ஸ்ப	-2142
▁எரி	-2143
ாமி	-2144
நே	-2145
▁பரவ	-2146
▁உடனடியாக	-2147
வார்	-2148
▁அறிவிக்க	-2149
▁இருந்தால்	-2150
ந்தர	-2151
ad	-2152
த்தன	-2153
▁வீடு	-2154
▁பொருள்	-2155
தற்கான	-2156
▁ஆளு	-2157
▁தந்த	-2158
▁கட்டுப்பா	-2159
▁ஏற்ற	-2160
மைப்பு	-2161
▁மக்களின்	-2162
▁கூறியுள்ளார்	-2163
▁உள்ளார்	-2164
▁எச்ச	-2165
ற்ச	-2166
▁வட்ட	-2167
▁முடியாத	-2168
▁தடுப்பூ	-2169
தார	-2170
▁விரைவில்	-2171
ப்படுத்து	-2172
▁ரே	-2173
▁டாக	-2174
ாலே	-2175
▁சீன	-2176
னாதி	-2177
hi	-2178
▁இஸ்	-2179
▁அடைந்த	-2180
ங்கம்	-2181
▁பேரு	-2182
▁கண்கா	-2183
ப்படுகின்றன	-2184
ண்மை	-2185
▁ஆசிரிய	-2186
▁நடைபெற்று	-2187
▁அம்மா	-2188
▁இசை	-2189
▁தேவையான	-2190
ள்ளதாக	-2191
ஹ்	-2192
▁பாக	-2193
ூர	-2194
▁இயற்க	-2195
லைக்க	-2196
▁தன்னை	-2197
ணய	-2198
▁பக	-2199
▁சென்னையில்	-2200
▁அனுப்பி	-2201
▁இந்து	-2202
மாய	-2203
▁முருக	-2204
ராள	-2205
விடும்	-2206
ூர்வ	-2207
▁*	-2208
ாளைய	-2209
▁இருந்தாலும்	-2210
ாண்ட	-2211
▁நாட்டு	-2212
▁நியூ	-2213
ங்களது	-2214
▁ஸ்டாலின்	-2215
▁அடையாள	-2216
▁ஆண	-2217
▁கண்டுபி	-2218
வரது	-2219
▁and	-2220
▁வார்த்த	-2221
▁ஏன	-2222
வதேச	-2223
▁அதிர	-2224
▁பணியா	-2225
ளுக்காக	-2226
▁வளர்ச்சி	-2227
ut	-2228
▁24	-2229
▁இருக்கு	-2230
▁கைய	-2231
▁தொடர்பான	-2232
மான்	-2233
▁நாய	-2234
▁கிருஷ்ண	-2235
nd	-2236
▁கன்ன	-2237
நுட்ப	-2238
▁கூட்டம்	-2239
▁என்கிற	-2240
▁L	-2241
த்தகைய	-2242
▁பதில்	-2243
▁இறுதி	-2244
▁சுத	-2245
▁எதிர்பார்க்க	-2246
▁சிந்த	-2247
▁விருது	-2248
▁அமைப்பு	-2249
....	-2250
▁திக	-2251
▁என்பதால்	-2252
▁மொழி	-2253
மாகும்	-2254
▁எண்ணிக்கை	-2255
மதி	-2256
டுப்பு	-2257
▁செய்தார்	-2258
கொண்ட	-2259
்களில்	-2260
▁காலம்	-2261
▁சர்வதேச	-2262
▁டை	-2263
▁சிலர்	-2264
▁பங்கு	-2265
▁இதன	-2266
ப்பம்	-2267
தில்லை	-2268
ுகளை	-2269
ver	-2270
ச்சுவ	-2271
▁வன	-2272
ிடும்	-2273
▁பார்ப்ப	-2274
பாடு	-2275
▁மொழ	-2276
▁நடு	-2277
▁பற	-2278
▁கவு	-2279
ாப்	-2280
▁வேண்டாம்	-2281
ள்ளன	-2282
▁ஸ்க	-2283
▁பற்ற	-2284
▁இருப்பது	-2285
ெக்டர்	-2286
▁ஞான	-2287
▁சிறிய	-2288
▁வாழ்க்கை	-2289
▁பால்	-2290
▁பிரச்சினை	-2291
வாய்	-2292
st	-2293
த்ய	-2294
▁இடையே	-2295
▁மருந்து	-2296
▁தன்ன	-2297
▁மாட்ட	-2298
▁விவர	-2299
▁மாக	-2300
வய	-2301
த்துள்ளார்	-2302
▁உண்மை	-2303
▁ஜனாதி	-2304
ட்ரோ	-2305
▁நடைபெறும்	-2306
ோதும்	-2307
▁பழனி	-2308
ொழுது	-2309
ரத்தில்	-2310
ஸ்தான	-2311
▁நிச்ச	-2312
▁மக்களுக்கு	-2313
▁பயிற்சி	-2314
▁பொலி	-2315
க்குழு	-2316
ோன்	-2317
▁முயற்சி	-2318
et	-2319
்டு	-2320
ளவில்	-2321
▁கும்ப	-2322
▁மருத்து	-2323
▁தெரிவித்த	-2324
▁எழுதிய	-2325
▁சமய	-2326
▁யான	-2327
வியல்	-2328
றவு	-2329
டியும்	-2330
▁இவர்கள்	-2331
▁விவக	-2332
▁உரிய	-2333
▁தரு	-2334
விடு	-2335
▁கவர்	-2336
ண்டை	-2337
▁நிற்க	-2338
தியான	-2339
▁டே	-2340
▁நாட்கள்	-2341
▁நிறுத்த	-2342
▁பிரதி	-2343
▁ஜெ	-2344
ற்றும்	-2345
ிறான்	-2346
▁ஆராய	-2347
▁வலி	-2348
▁வேட்ப	-2349
பம்	-2350
த்திலிருந்து	-2351
ஃப்	-2352
▁மலை	-2353
வந்த	-2354
▁சூழ்	-2355
▁சந்திர	-2356
▁தேர்தலில்	-2357
▁பிடித்து	-2358
ழிப்பு	-2359
ஷி	-2360
▁பணிகள்	-2361
▁தட	-2362
ot	-2363
▁அபி	-2364
!!	-2365
▁நோய்	-2366
▁ஓர்	-2367
▁இவ்	-2368
▁கற்ப	-2369
முதல்	-2370
▁கூறு	-2371
▁(1	-2372
ஞர்	-2373
றையினர்	-2374
▁தொழில்நுட்ப	-2375
▁News	-2376
விக்க	-2377
ரியில்	-2378
▁சேர்ந்தவர்	-2379
▁?	-2380
▁உற்பத்தி	-2381
▁பாகி	-2382
amil	-2383
▁போய	-2384
லூர்	-2385
▁தேடி	-2386
▁வேத	-2387
▁கோவை	-2388
ன்ஸ்	-2389
▁இந்தியாவின்	-2390
▁இச	-2391
▁சம்பந்த	-2392
▁இன்றைய	-2393
▁வாய்	-2394
த்திரம்	-2395
▁அறிக்க	-2396
▁வாங்கி	-2397
▁காத்த	-2398
ஞ்சு	-2399
▁பிரிவு	-2400
▁அந்தப்	-2401
▁தலைமையில்	-2402
▁இரா	-2403
▁பாதிப்பு	-2404
▁கல்லூரி	-2405
▁பாதிக்கப்பட்ட	-2406
ோட	-2407
▁பட்டிய	-2408
லிய	-2409
ப்பும்	-2410
▁பகுதியை	-2411
▁சேர்ந்து	-2412
▁சிறப்பாக	-2413
▁குழந்தைகள்	-2414
ுகிறது	-2415
▁ஈடுபட்டு	-2416
▁தாய்	-2417
▁நின்று	-2418
ளது	-2419
▁சுய	-2420
▁அலை	-2421
-1	-2422
நிதி	-2423
▁குள	-2424
னார்	-2425
og	-2426
ஜா	-2427
வாள	-2428
▁ஏற்பட்டது	-2429
சுவ	-2430
ஹி	-2431
றையை	-2432
ெழு	-2433
மிக்க	-2434
▁இங்கே	-2435
ப்படவில்லை	-2436
▁மொத்த	-2437
▁ரன்கள்	-2438
ன்த	-2439
▁பாவ	-2440
▁கிரிக்கெட்	-2441
▁H	-2442
ெடுக்க	-2443
ண்ணி	-2444
▁தெரிவித்துள்ளது	-2445
டிப்பு	-2446
▁பரிசோதனை	-2447
▁அரி	-2448
▁நாம	-2449
▁இயக்குனர்	-2450
விட்டார்	-2451
ண்டிய	-2452
▁முற்ற	-2453
▁21	-2454
பட்ட	-2455
▁மத்தியில்	-2456
ப்பட்டன	-2457
ஷ்ய	-2458
▁ஆய்வ	-2459
re	-2460
ந்தா	-2461
▁மிகு	-2462
▁கட்சியின்	-2463
மம்	-2464
ப்புற	-2465
ைத்	-2466
▁ஒப்பந்த	-2467
▁இந்தக்	-2468
▁யோ	-2469
▁தம்	-2470
ந்தே	-2471
னோ	-2472
மலை	-2473
▁முதலிய	-2474
▁நாட்டின்	-2475
▁ஸ்மார்ட	-2476
சர	-2477
▁ஐந்து	-2478
க்ஸ்	-2479
▁கடவு	-2480
▁தக்க	-2481
மணி	-2482
▁எதிர்ப்பு	-2483
▁இருப்பதாக	-2484
ப்பதிவு	-2485
▁ஏராள	-2486
க்கர	-2487
பட்ச	-2488
▁ஆரோ	-2489
▁முக்கியமான	-2490
▁சமீபத்தில்	-2491
▁விடுதலை	-2492
ாடி	-2493
▁th	-2494
▁எனும்	-2495
்த்	-2496
குதியில்	-2497
ment	-2498
▁புரிந்து	-2499
▁G	-2500
▁அந்	-2501
யர்	-2502
▁தொடர்பு	-2503
go	-2504
ாந்து	-2505
▁மய	-2506
▁அரசிய	-2507
தீ	-2508
வினர்	-2509
▁கடன்	-2510
▁லி	-2511
ழல்	-2512
▁தன்னு	-2513
▁தள்ள	-2514
ாட்	-2515
▁இரண்டாவது	-2516
▁அரை	-2517
மடைந்த	-2518
▁படிக்க	-2519
ரசு	-2520
▁பெரும்ப	-2521
▁அறு	-2522
▁செய்திகள்	-2523
▁மருத்துவமனையில்	-2524
▁செய்வது	-2525
▁நிகழ்ச்சி	-2526
▁நாடாளுமன்ற	-2527
▁ஆலோசனை	-2528
▁பிரதேச	-2529
▁விய	-2530
▁நடத்திய	-2531
▁கிற	-2532
▁முஸ்	-2533
▁உங்க	-2534
▁பிடி	-2535
▁கைப்ப	-2536
▁சிறுவ	-2537
id	-2538
ரூ	-2539
▁பக்தர்கள்	-2540
▁எட	-2541
▁விவசாயிகள்	-2542
ளிலும்	-2543
▁அருகில்	-2544
▁உடனே	-2545
த்தைத்	-2546
ையிலும்	-2547
▁நிறைய	-2548
▁விளையாட்டு	-2549
▁உட்பட	-2550
▁நின்ற	-2551
▁ரொ	-2552
▁வெங்க	-2553
▁ஊடக	-2554
▁வைரஸ்	-2555
▁நமக்கு	-2556
▁பறி	-2557
வருக்கு	-2558
▁பந்து	-2559
▁கல்வ	-2560
▁2023	-2561
த்திற்கும்	-2562
ங்கர	-2563
▁பழைய	-2564
ம்தான்	-2565
ானி	-2566
ஸி	-2567
ியுள்ளனர்	-2568
ாக்க	-2569
ஸ்வர	-2570
▁நாட்டில்	-2571
முத	-2572
▁கூட்டு	-2573
▁கல்	-2574
▁முயற்ச	-2575
▁நகை	-2576
▁கம்ப	-2577
▁தலைமைய	-2578
▁வாடிக்க	-2579
▁க்	-2580
ணன்	-2581
ணமாக	-2582
னையை	-2583
▁மிர	-2584
ெனில்	-2585
▁பலரும்	-2586
த்தொ	-2587
▁வெளியான	-2588
▁கேம	-2589
▁பிடித்த	-2590
▁விளக்க	-2591
▁40	-2592
▁ஒன்றை	-2593
▁மும்ப	-2594
ையுடன்	-2595
▁தெரியவ	-2596
▁கொண்டனர்	-2597
ந்தில்	-2598
▁ஒப்பு	-2599
▁உள்	-2600
▁அளித்த	-2601
▁மாறி	-2602
▁பின்ப	-2603
கால	-2604
▁எழுத	-2605
▁திடீர	-2606
த்தனை	-2607
மல	-2608
ess	-2609
▁ஆகியோ	-2610
▁தொடர்	-2611
▁காந்தி	-2612
▁முட	-2613
▁நடக்க	-2614
விரு	-2615
▁திட்டமி	-2616
▁பொருட்கள்	-2617
▁தக	-2618
▁பல்கலைக்க	-2619
▁கடும்	-2620
மாய்	-2621
▁ரு	-2622
▁ஆழ	-2623
நகர்	-2624
▁ஜீ	-2625
ப்புகளை	-2626
எம்	-2627
▁சுற்ற	-2628
▁எங்க	-2629
▁நன்றாக	-2630
▁சார்ந்த	-2631
▁அணை	-2632
▁ஓட்ட	-2633
▁போட	-2634
மின்றி	-2635
▁தாக்கல்	-2636
▁இருக்கிறார்	-2637
▁சுதந்திர	-2638
சூ	-2639
▁தகவல்கள்	-2640
▁பவு	-2641
ளிர்	-2642
▁28	-2643
▁நெரு	-2644
ொள்ள	-2645
டங்கு	-2646
▁வருமான	-2647
▁வழக்கில்	-2648
மில்லை	-2649
▁முதலமைச்சர்	-2650
▁சூரிய	-2651
ak	-2652
மன்	-2653
▁இலக்கிய	-2654
ணு	-2655
▁நிலையத்தில்	-2656
▁எழுதி	-2657
▁கோயில	-2658
ங்கல்	-2659
▁சாப்ப	-2660
▁ஒதுக்க	-2661
▁ஆரோக்கிய	-2662
▁பங்க	-2663
▁கர்நா	-2664
▁எதிரான	-2665
▁முடிந்த	-2666
ப்பாடி	-2667
ன்களை	-2668
வோம்	-2669
▁ஆசிரியர்	-2670
▁வரவேற்ப	-2671
கன்	-2672
▁அழி	-2673
ென்ன	-2674
uc	-2675
டைந்து	-2676
▁நெருக்க	-2677
▁மற்றொரு	-2678
ையோ	-2679
▁ராகு	-2680
ஸ்திரே	-2681
சல்	-2682
ன்கு	-2683
▁இங்கில	-2684
வதில்லை	-2685
▁22	-2686
ஆர்	-2687
▁இவரது	-2688
▁ராணுவ	-2689
ங்களைப்	-2690
நீதி	-2691
est	-2692
க்கால	-2693
ப்பாள	-2694
▁குறிப்பிட்டு	-2695
▁இயக்குநர்	-2696
த்தினர்	-2697
▁சந்தித்து	-2698
ம்மா	-2699
▁ஃப	-2700
▁கார்த்த	-2701
▁சப	-2702
▁கண்காணி	-2703
▁ஏற்பட	-2704
▁கூடுதல்	-2705
▁அறிந்த	-2706
▁எதிர்பார	-2707
ீட்டு	-2708
▁பிரச்சனை	-2709
்க்கு	-2710
▁இருந்தார்	-2711
க்கூடாது	-2712
தியின்	-2713
ive	-2714
லால்	-2715
▁தடுக்க	-2716
▁your	-2717
▁பகி	-2718
▁வங்கி	-2719
ow	-2720
ர்களிடம்	-2721
▁அதிகரித்து	-2722
▁தெலு	-2723
ற்கொலை	-2724
▁தேர்	-2725
▁வசூ	-2726
த்தான	-2727
▁நம்பிக்கை	-2728
ட்ஸ்	-2729
▁உறுப்பினர்	-2730
ிருந்தனர்	-2731
ினம்	-2732
▁யாரும்	-2733
▁உலகம்	-2734
▁விக்	-2735
ிருப்பது	-2736
▁அளவுக்கு	-2737
▁மேற்கொண்டு	-2738
த்தில	-2739
ப்பிய	-2740
வையில்	-2741
▁வித்திய	-2742
▁உட்க	-2743
▁ஞ	-2744
▁ஆங்கில	-2745
▁ஜனாதிபதி	-2746
▁வெளியாகி	-2747
▁23	-2748
▁நுழை	-2749
▁காதல்	-2750
▁அதன்படி	-2751
வேன்	-2752
ந்தர்	-2753
ir	-2754
▁சுற்றுலா	-2755
டியை	-2756
▁நவ	-2757
விற்கு	-2758
▁இலங்க	-2759
முறைய	-2760
▁ஏராளமான	-2761
▁கொஞ்சம்	-2762
▁மதிப்ப	-2763
▁பிரே	-2764
▁வல்ல	-2765
▁கண்	-2766
▁தெரிந்து	-2767
▁மாதிரி	-2768
ia	-2769
ச்செய	-2770
ம்பர	-2771
▁சந்தேக	-2772
▁அவருடைய	-2773
▁வீரர்கள்	-2774
ந்திரன்	-2775
▁சரியான	-2776
▁பயன	-2777
▁V	-2778
▁வகுப்பு	-2779
▁தந்தை	-2780
▁ஆண்டில்	-2781
ப்படுத்தி	-2782
▁எனக்	-2783
ெல்	-2784
னுடைய	-2785
▁ஒழு	-2786
▁நிறுவனங்கள்	-2787
த்துப்	-2788
▁வண்ண	-2789
▁தமது	-2790
▁கேரள	-2791
▁நோக்க	-2792
▁சினிம	-2793
▁அன்ன	-2794
▁புதி	-2795
▁வருகிறார்கள்	-2796
▁அன	-2797
▁இயக்கத்தில்	-2798
▁மிகப்பெ	-2799
டல்	-2800
சரி	-2801
▁நிறைவேற்ற	-2802
▁குறைக்க	-2803
▁பன்ன	-2804
டர்	-2805
ீக	-2806
ைகளை	-2807
▁அன்ற	-2808
▁மந்திர	-2809
ருமான	-2810
▁ரெய	-2811
▁போதும்	-2812
▁விண்ணப்ப	-2813
▁ஹீ	-2814
▁சகோத	-2815
▁ஊர	-2816
▁தெரிக	-2817
்க்	-2818
ொருள்	-2819
▁கூட்டத்தில்	-2820
▁சிங்க	-2821
▁மேற்கொண்ட	-2822
▁பக்கத்தில்	-2823
மொழி	-2824
▁தொடக்க	-2825
▁தெரிவித்தனர்	-2826
.1	-2827
்குமார்	-2828
▁வணிக	-2829
▁புத்தக	-2830
மாகவும்	-2831
▁தற்கொலை	-2832
ர்களில்	-2833
▁போத	-2834
▁சக்தி	-2835
வதற்காக	-2836
▁தெரு	-2837
▁காட்சி	-2838
சோ	-2839
்பு	-2840
ாளையம்	-2841
▁செய்யப்பட்டது	-2842
வீன	-2843
▁பணியில்	-2844
▁நன்றி	-2845
▁எவ்வளவு	-2846
▁வேற	-2847
▁பின்பு	-2848
▁எதுவும்	-2849
▁பாலியல்	-2850
."	-2851
▁மார்	-2852
▁குற்றம்	-2853
முடைய	-2854
ிருக்கிறார்கள்	-2855
▁அறிக்கை	-2856
▁தடுப்பூசி	-2857
▁பண்ட	-2858
▁ஏமா	-2859
▁பேருந்து	-2860
▁போராட்டம்	-2861
ங்கில்	-2862
▁வந்தனர்	-2863
▁டெல்லி	-2864
த்துவம்	-2865
▁குவி	-2866
டுவது	-2867
▁(2	-2868
▁முறையாக	-2869
▁தாக்க	-2870
ஸ்டர்	-2871
▁தீப	-2872
கர்	-2873
▁சித்த	-2874
50	-2875
னா்	-2876
சில்	-2877
புரி	-2878
வதற்கான	-2879
▁கடைசி	-2880
▁2.	-2881
▁கொல்ல	-2882
ணியில்	-2883
▁சுற்றி	-2884
▁அடிக்கடி	-2885
▁இல்	-2886
ியாள	-2887
▁K	-2888
வியை	-2889
▁அணியின்	-2890
▁செல்க	-2891
▁சல	-2892
▁கட்டி	-2893
▁கேப்ட	-2894
யோ	-2895
▁தை	-2896
▁எடுத்துக்	-2897
▁மேற்க	-2898
▁ஆண்டுகளுக்கு	-2899
னிய	-2900
▁இலவச	-2901
▁கொடு	-2902
▁மின்சார	-2903
▁சதவீத	-2904
▁எதிர்க்க	-2905
ாா்	-2906
மிருந்து	-2907
▁கூட்டணி	-2908
ிருக்கிற	-2909
▁டாக்டர்	-2910
▁அதிர்ச்ச	-2911
▁மக்களை	-2912
▁ஒன்றிய	-2913
▁போர்	-2914
▁மதிப்பு	-2915
ுமி	-2916
ch	-2917
▁பேட்ட	-2918
▁மன்ற	-2919
.)	-2920
▁சினிமா	-2921
ின்றி	-2922
▁ஒருங்கி	-2923
ன்னி	-2924
▁அழைக்க	-2925
im	-2926
▁வாக்க	-2927
▁ஆதி	-2928
ிக்கொண்ட	-2929
▁அஞ்ச	-2930
▁செய்தது	-2931
ரியா	-2932
▁தெய்வ	-2933
▁சொல்க	-2934
▁மாற்று	-2935
▁மோட்டார்	-2936
ிரா	-2937
▁மகிழ்ச்ச	-2938
▁நிறுவனத்தின்	-2939
▁படுக	-2940
▁வேண்டுமெ	-2941
▁கீழே	-2942
ோட்ட	-2943
▁லை	-2944
▁நினைவு	-2945
வயது	-2946
மாகக்	-2947
▁சூப்பர்	-2948
நூ	-2949
▁அடித்து	-2950
னான	-2951
▁மட்டுமல்ல	-2952
்சி	-2953
▁ஓடி	-2954
▁வழங்கும்	-2955
▁அறிந்து	-2956
▁பெற்றோ	-2957
▁எப்போதும்	-2958
ாரின்	-2959
▁நடைபெற	-2960
▁தன்னுடைய	-2961
▁தினமும்	-2962
bo	-2963
▁ஒருங்கிணை	-2964
ரண	-2965
▁மேற்கு	-2966
▁இருக்கிற	-2967
▁வித்தியாச	-2968
▁கருத	-2969
▁தனக்கு	-2970
த்திலேயே	-2971
▁எதிர்	-2972
முள்ள	-2973
▁தென்	-2974
▁`	-2975
▁அவசியம்	-2976
▁பயணம்	-2977
▁பயன்படுத்தி	-2978
▁முன்னணி	-2979
▁கொண்டார்	-2980
?"	-2981
வைத்	-2982
▁உள்ப	-2983
▁குழந்த	-2984
▁குற	-2985
▁நெடு	-2986
18	-2987
வான்	-2988
▁மிகப்பெரிய	-2989
மய	-2990
▁வீழ	-2991
ில்லியன்	-2992
▁விதிக்க	-2993
▁வலியுறு	-2994
▁தெரியுமா	-2995
▁திரைப்படம்	-2996
னது	-2997
▁சட்டம்	-2998
▁எனினும்	-2999
ப்பதற்கு	-3000
▁மீன	-3001
▁வென்ற	-3002
▁தஞ்ச	-3003
ரோடு	-3004
ஸார்	-3005
ஃப	-3006
ாதி	-3007
மாம்	-3008
வர்களும்	-3009
▁தங்களது	-3010
▁தரும்	-3011
▁பொருத்த	-3012
▁தேர்ந்த	-3013
ர்ப்பு	-3014
▁நல்லது	-3015
▁எடப்பாடி	-3016
வல	-3017
▁மக்கள	-3018
▁பயன்படுத்து	-3019
▁வர்த்த	-3020
க்கிழ	-3021
op	-3022
▁உடன்	-3023
▁அறிமுகம்	-3024
▁சிறிது	-3025
▁தயாரிக்க	-3026
▁அந்தக்	-3027
▁உழை	-3028
களைப்	-3029
▁சட்டமன்ற	-3030
▁ஒலி	-3031
லான	-3032
ணும்	-3033
னையும்	-3034
▁பேசி	-3035
▁ரக	-3036
ிட்டி	-3037
▁ஓட்டு	-3038
ிகர	-3039
▁நிகழ்ச்சியில்	-3040
லோ	-3041
ங்களால்	-3042
▁நடக்கும்	-3043
ினார்கள்	-3044
▁W	-3045
▁சற்று	-3046
▁வழங்கப்படும்	-3047
ாதே	-3048
▁கொண்டுவ	-3049
ேகம்	-3050
ிற்ற	-3051
▁மூத்த	-3052
▁தெரிகிறது	-3053
▁அறிவிப்பு	-3054
▁கவனம்	-3055
▁எல	-3056
▁ஸ்மார்ட்ப	-3057
▁விருப்ப	-3058
▁சொத்து	-3059
த்தூர்	-3060
▁உடைய	-3061
▁தீய	-3062
▁முஸ்லி	-3063
▁பராம	-3064
▁தெரியும்	-3065
ாரத்தில்	-3066
▁27	-3067
▁பயங்கர	-3068
▁முதன்	-3069
▁கிடைத்த	-3070
திகளை	-3071
▁நகர்	-3072
ப்படுத்தும்	-3073
▁கழக	-3074
▁கோயில்	-3075
▁நிமிட	-3076
▁நீதிபதி	-3077
▁up	-3078
▁பெரி	-3079
▁படப்பி	-3080
▁வருகிற	-3081
▁பல்கலைக்கழக	-3082
▁படங்களில்	-3083
ாராய	-3084
ொன்ற	-3085
▁மரண	-3086
ாவிற்கு	-3087
▁தரிச	-3088
▁நீதிமன்றம்	-3089
▁கட்டண	-3090
▁எழுந்த	-3091
▁பிடிக்க	-3092
▁தகு	-3093
▁பெரும்பால	-3094
▁ரூபாய	-3095
்களுக்கு	-3096
▁இந்தத்	-3097
ன்பது	-3098
▁திருவிழ	-3099
வினை	-3100
▁நாட்களுக்கு	-3101
▁29	-3102
▁பல்ல	-3103
▁பிள	-3104
ரியாத	-3105
வுட்	-3106
ல்களில்	-3107
▁ஆதரவு	-3108
▁கிட்ட	-3109
▁மகா	-3110
ையைப்	-3111
th	-3112
ுவை	-3113
▁அதிகாரி	-3114
ிலி	-3115
பட	-3116
▁சிங்	-3117
▁அனைத்தும்	-3118
▁என்பவர்	-3119
ity	-3120
ளியில்	-3121
க்கள	-3122
▁கிறி	-3123
▁ஆஸ்திரே	-3124
,"	-3125
▁l	-3126
▁வியாபார	-3127
▁விபத்து	-3128
▁அம்ச	-3129
ழ்க	-3130
நீதிமன்ற	-3131
▁O	-3132
▁காத	-3133
▁இருக்கலாம்	-3134
▁முடியவில்லை	-3135
▁அஜி	-3136
வரையும்	-3137
▁கிழக்கு	-3138
ag	-3139
▁உள்ளே	-3140
▁ஆண்	-3141
▁செயற்ப	-3142
▁வேளா	-3143
▁ஆண்டுகள்	-3144
▁கோப	-3145
ங்களைக்	-3146
▁உற்ச	-3147
▁செலவு	-3148
ர்களாக	-3149
▁குறு	-3150
▁மொத்தம்	-3151
▁உரிமைய	-3152
▁கழ	-3153
ோதைய	-3154
▁கதாபா	-3155
ts	-3156
▁மாறு	-3157
ul	-3158
▁பஸ்	-3159
▁உள்பட	-3160
▁மாநிலம்	-3161
▁ஹீரோ	-3162
▁திறக்க	-3163
பின்	-3164
▁மாண்ப	-3165
▁பிக	-3166
▁அதிகரிக்க	-3167
▁கம்	-3168
தலாக	-3169
▁மனம்	-3170
▁கமல்	-3171
▁பெற்றது	-3172
நாடு	-3173
லலி	-3174
▁ரயில	-3175
▁26	-3176
▁பிரச்	-3177
சர்	-3178
பூ	-3179
▁ரஷ்ய	-3180
▁மிகுந்த	-3181
▁காட்டி	-3182
▁நன்மை	-3183
▁ஹெ	-3184
▁அப்பா	-3185
▁வசதி	-3186
ையாது	-3187
▁அடிப்படை	-3188
▁தொகை	-3189
த்தொட	-3190
ீன்	-3191
டுகளில்	-3192
▁ஆயிரத்து	-3193
வதில்	-3194
▁இருப்பினும்	-3195
சிக்க	-3196
▁com	-3197
த்துள்ள	-3198
நாய	-3199
ணர்வு	-3200
▁அதிபர்	-3201
▁1,	-3202
▁திடீரென	-3203
விடம்	-3204
டாக	-3205
▁பரிந்து	-3206
ற்கால	-3207
▁படைய	-3208
ட்டிக்க	-3209
▁சரியாக	-3210
▁Tamil	-3211
▁வழங்கி	-3212
▁மூலமாக	-3213
▁பருவ	-3214
▁நட்ச	-3215
ர்ட்	-3216
விட்	-3217
▁முன்னதாக	-3218
30	-3219
▁பெங்கள	-3220
விட்டால்	-3221
▁கொடுப்ப	-3222
▁சதவீதம்	-3223
ளோ	-3224
்ப்	-3225
▁இரண்டாம்	-3226
▁வெறும்	-3227
▁விக்கெ	-3228
▁சேலம்	-3229
▁ago	-3230
▁கழு	-3231
▁நாட்ட	-3232
▁நன்கு	-3233
டனும்	-3234
டியான	-3235
▁விசாரண	-3236
ற்றில்	-3237
ob	-3238
▁கவலை	-3239
கொள்ள	-3240
▁களை	-3241
▁ரவி	-3242
ற்றை	-3243
ுமிகு	-3244
▁மாற்றம்	-3245
ச்சா	-3246
▁காண்ப	-3247
▁மாய	-3248
ாதம்	-3249
▁நடைமுறை	-3250
▁உயிரிழந்த	-3251
ராம	-3252
▁நிலையம்	-3253
▁சாதார	-3254
ட்டிங்	-3255
▁உயிர்	-3256
▁திறந்து	-3257
ரிட	-3258
மைக்க	-3259
ance	-3260
vel	-3261
ையைக்	-3262
ென்றால்	-3263
▁வீரர்	-3264
ராய	-3265
▁கலா	-3266
▁ஆண்டுகளாக	-3267
▁பேரா	-3268
வால்	-3269
▁நினைக்க	-3270
if	-3271
ிக்கிழமை	-3272
க்குச்	-3273
ால்தான்	-3274
▁பெரும்பாலான	-3275
▁பேருக்கு	-3276
let	-3277
▁தடுப்பு	-3278
ழ்ந்த	-3279
▁எல்லை	-3280
▁பொதுவாக	-3281
▁வன்	-3282
▁ஜெயலலி	-3283
▁டெஸ்ட்	-3284
▁சென்றனர்	-3285
▁அறை	-3286
▁ஜே	-3287
றுகிறது	-3288
▁தவிர்க்க	-3289
நிய	-3290
த்திரை	-3291
த்திரி	-3292
▁பேச்சு	-3293
▁பாண்ட	-3294
ையொ	-3295
ன்ட்	-3296
க்குத்	-3297
துக	-3298
▁நாளில்	-3299
▁உறவின	-3300
ரித்து	-3301
த்தள	-3302
▁our	-3303
▁பட்	-3304
▁கேமரா	-3305
▁கடல்	-3306
▁அதிர்ச்சி	-3307
▁அணுக	-3308
▁மாகாண	-3309
ழ்வ	-3310
பொ	-3311
ign	-3312
▁Pr	-3313
▁காப்பா	-3314
மின்	-3315
▁இருப்பதால்	-3316
▁செயல்பா	-3317
▁மாண்புமிகு	-3318
▁மீதான	-3319
ece	-3320
▁மெய	-3321
▁சூர்	-3322
சால	-3323
▁on	-3324
ானா	-3325
▁பெயரில்	-3326
▁காம	-3327
▁அதிரடி	-3328
▁பயணிகள்	-3329
▁சுர	-3330
ru	-3331
▁தொடர்பில்	-3332
▁சைக்கி	-3333
▁விடுத்து	-3334
very	-3335
▁விழிப்பு	-3336
தர்	-3337
▁எண்ணெய்	-3338
▁சாதனை	-3339
▁இழு	-3340
▁கணி	-3341
▁பெறும்	-3342
ண்டர்	-3343
▁அலங்க	-3344
▁கிடையாது	-3345
▁திருத்த	-3346
▁தொகுதி	-3347
▁செய்	-3348
▁பொருட்களை	-3349
இந்த	-3350
▁கையில்	-3351
மில்ல	-3352
▁வாரம்	-3353
▁தொடங்கியது	-3354
▁முழுமையாக	-3355
▁ஏனெனில்	-3356
த்திற்காக	-3357
▁விட்டது	-3358
▁அமெரிக்கா	-3359
▁துன்ப	-3360
ல்லா	-3361
▁[	-3362
▁கேள்வ	-3363
▁பேரில்	-3364
ணர்	-3365
▁சாலையில்	-3366
duc	-3367
▁உல	-3368
மையும்	-3369
▁மகி	-3370
▁நாட்களில்	-3371
99	-3372
▁மண்ண	-3373
▁மகள்	-3374
▁திரி	-3375
▁சித	-3376
்டோ	-3377
ரையில்	-3378
▁அவற்றை	-3379
▁ஊராட்சி	-3380
ிருந்தால்	-3381
ரால்	-3382
முடிய	-3383
சீ	-3384
▁news	-3385
▁லீ	-3386
▁ஆகியவை	-3387
லத்தில்	-3388
▁இணையதள	-3389
▁ராஜா	-3390
▁சிறை	-3391
▁காதல	-3392
▁நடத்து	-3393
▁பண்ப	-3394
▁வளாக	-3395
▁கொண்டே	-3396
▁தமிழகம்	-3397
▁கர்நாடக	-3398
▁படித்து	-3399
திகளில்	-3400
▁காரிய	-3401
▁வெப்ப	-3402
▁for	-3403
▁இயற்கை	-3404
▁day	-3405
▁கொள்ளலாம்	-3406
ாற	-3407
▁டு	-3408
வள	-3409
த்தோடு	-3410
▁இறந்த	-3411
மாகி	-3412
▁பாடல்	-3413
▁பாகிஸ்தான்	-3414
▁நடக்கிறது	-3415
▁மூட	-3416
ூட்ட	-3417
▁ஷா	-3418
▁மார்ச்	-3419
▁முத்து	-3420
ட்சிய	-3421
மாள்	-3422
▁தொலைக்கா	-3423
▁60	-3424
ம்க	-3425
ப்ரல்	-3426
ழும்ப	-3427
▁உரையா	-3428
ப்பதாக	-3429
வர்களில்	-3430
▁விழாவில்	-3431
▁ஏற்படுத்தி	-3432
▁அவனை	-3433
▁தம்ப	-3434
▁லே	-3435
ரும்பு	-3436
▁பொறுத்த	-3437
தைப்	-3438
▁பட்டு	-3439
▁ஆவண	-3440
▁போன்று	-3441
▁நாணய	-3442
▁மஞ்ச	-3443
▁செவ்வ	-3444
மன	-3445
வனை	-3446
ினான்	-3447
▁ஏற்பட்டுள்ளது	-3448
▁நீங்க	-3449
ai	-3450
▁சர்ச்ச	-3451
▁ரில	-3452
▁டிரை	-3453
▁இசைய	-3454
ாமலை	-3455
▁பார்வைய	-3456
▁ஆச்ச	-3457
▁நீதிமன்றத்தில்	-3458
▁தண்ணீ	-3459
▁ரஜின	-3460
▁நபர்	-3461
வேளை	-3462
▁ள	-3463
▁அதிகமான	-3464
வாறு	-3465
▁தெரிந்த	-3466
ளித்த	-3467
ுவதற்கு	-3468
▁வரைய	-3469
▁தமிழில்	-3470
▁31	-3471
ப்பூ	-3472
▁#	-3473
ாமா	-3474
ியைப்	-3475
▁மின்ன	-3476
▁ஆடி	-3477
▁Ind	-3478
ிகளையும்	-3479
ிற்கும்	-3480
ங்கோ	-3481
ac	-3482
▁நாயக	-3483
▁மும்பை	-3484
▁ரத்த	-3485
மேல்	-3486
us	-3487
▁ஆகியவற்ற	-3488
▁துப்பா	-3489
க்கணக்கான	-3490
▁எழுப்ப	-3491
▁வளர்ச்ச	-3492
▁பொழுது	-3493
▁இன்னொரு	-3494
▁இளம்	-3495
▁பெட்ரோ	-3496
▁நிதிய	-3497
ின்றார்	-3498
▁நடிப்பில்	-3499
▁உன்	-3500
▁குமார்	-3501
▁தவறு	-3502
▁ஆகவே	-3503
ாகவே	-3504
வாதம்	-3505
▁திருச்சி	-3506
▁பாராளுமன்ற	-3507
▁அண்ணா	-3508
க்கர்	-3509
▁நூற்ற	-3510
▁வீட்டிற்கு	-3511
▁தலைவர்கள்	-3512
▁நிறைந்த	-3513
வர்கள	-3514
▁வலைதள	-3515
▁ஹி	-3516
ஸில்	-3517
▁|	-3518
என்	-3519
▁புதிதாக	-3520
ன்னா	-3521
ந்தேதி	-3522
▁அங்கே	-3523
ப்பன்	-3524
▁அப்படியே	-3525
ுவின்	-3526
▁ஆசை	-3527
விட்டர்	-3528
▁தேச	-3529
▁rece	-3530
▁மார	-3531
த்ம	-3532
▁சார	-3533
▁உயர்த்த	-3534
▁டிக்க	-3535
▁சன	-3536
லிக்க	-3537
ech	-3538
▁துறைய	-3539
▁இத்தகைய	-3540
ும்படி	-3541
▁ரத்து	-3542
நாதன்	-3543
▁தினம்	-3544
வதாகவும்	-3545
வுகளை	-3546
ேட்	-3547
ேசன்	-3548
போன்ற	-3549
▁கதாபாத்திர	-3550
▁செயல்படுத்த	-3551
▁பரு	-3552
vi	-3553
▁every	-3554
ச்சேரி	-3555
மற்ற	-3556
▁இருக்கின்றன	-3557
▁அனுபவ	-3558
வதும்	-3559
ாகவும்	-3560
குமார்	-3561
▁கப்ப	-3562
▁சுவாமி	-3563
▁நம்ம	-3564
ண்டா	-3565
ஷம்	-3566
▁பக்கம்	-3567
▁Tra	-3568
தோடு	-3569
box	-3570
▁பங்கேற்ற	-3571
ீங்க	-3572
▁பரிந்துரை	-3573
▁பேசினார்	-3574
▁சென்றார்	-3575
ப்பட்டார்	-3576
ுக்	-3577
.\	-3578
▁எண்	-3579
▁வாழ்த்து	-3580
olog	-3581
▁ராகுல்	-3582
▁சுத்த	-3583
▁மாவட்டங்களில்	-3584
ங்களுடன்	-3585
▁ஹே	-3586
▁பாலா	-3587
▁சந்தித்த	-3588
ச்சூ	-3589
ெடுத்து	-3590
ப்போக	-3591
டே	-3592
▁கிரு	-3593
▁வில்ல	-3594
▁தீர்வு	-3595
▁ஆதார	-3596
ராட்ச	-3597
▁இங்கிலாந்து	-3598
▁உலகின்	-3599
▁அல்	-3600
தன	-3601
த்திட்ட	-3602
▁கள்ள	-3603
▁ஏற்பா	-3604
்த்தி	-3605
▁திரும்பி	-3606
▁கமி	-3607
ாய்வு	-3608
▁கடுமையான	-3609
▁ஏப்ரல்	-3610
▁சர்க்க	-3611
▁2-	-3612
வெளி	-3613
▁ஜூன்	-3614
▁எல்லோ	-3615
▁ஹை	-3616
▁பூஜை	-3617
▁inbox	-3618
மாத	-3619
ிலிருந்த	-3620
▁பகிர்ந்து	-3621
கூ	-3622
தாம்	-3623
▁சாத்திய	-3624
▁சகோதர	-3625
▁வைத்திய	-3626
▁மாநகராட்சி	-3627
▁தனு	-3628
▁தெரியவில்லை	-3629
▁பணத்தை	-3630
▁நகரில்	-3631
▁அவசர	-3632
க்குக்	-3633
▁விலக	-3634
▁உடலை	-3635
▁பசு	-3636
ோகி	-3637
▁மார்க்க	-3638
▁படங்கள்	-3639
▁உதவு	-3640
▁வழக்குப்பதிவு	-3641
▁தலைமையிலான	-3642
▁இராணுவ	-3643
▁எங்களுக்கு	-3644
த்துல	-3645
ாளராக	-3646
▁உயர்ந்த	-3647
ொண்டு	-3648
ஹா	-3649
▁கற்று	-3650
தியும்	-3651
▁டிச	-3652
▁தொடரில்	-3653
மழை	-3654
▁உரை	-3655
னுடன்	-3656
▁ஏற்பாடு	-3657
▁கடந்து	-3658
▁நிச்சய	-3659
ாவிட	-3660
▁பிள்ளை	-3661
ர்க்	-3662
ங்களே	-3663
▁நிர்வாகம்	-3664
▁திருந	-3665
ர்களுடன்	-3666
▁அலுவலகத்தில்	-3667
2,	-3668
▁ஆன்லை	-3669
letter	-3670
்துறை	-3671
▁உணர்வு	-3672
▁தாக்குதல்	-3673
▁சேக	-3674
▁முன்னிட்டு	-3675
▁டோ	-3676
▁செய்யப்படும்	-3677
தாவதுஃ	-3678
▁தண்டனை	-3679
▁அவரின்	-3680
▁hr	-3681
▁receive	-3682
▁வசி	-3683
▁தூக்கி	-3684
▁விரும்புக	-3685
யல்	-3686
▁பத்து	-3687
...!	-3688
ில்தான்	-3689
▁அனைவருக்கும்	-3690
▁Sign	-3691
▁எதிர்கால	-3692
▁பேச்சுவ	-3693
படுத்த	-3694
▁கூறுகையில்	-3695
ducation	-3696
ங்களா	-3697
ரிமை	-3698
▁மார்க	-3699
ரிக்	-3700
▁நேரடியாக	-3701
▁Education	-3702
▁லாப	-3703
▁Fin	-3704
ாயிற்று	-3705
▁மர்ம	-3706
▁ஆயுத	-3707
▁newsletter	-3708
▁ஜூலை	-3709
▁என்றாலும்	-3710
▁நாடுகள்	-3711
▁படுத்த	-3712
திரு	-3713
▁ஒட்டு	-3714
▁கேப்டன்	-3715
▁ஒத்து	-3716
▁உள்ளதாக	-3717
▁சென்னைஃ	-3718
▁தொக	-3719
▁இறந்து	-3720
▁தீர்ப்ப	-3721
▁அரசாங்கம்	-3722
டியா	-3723
▁திரை	-3724
ாராம்	-3725
▁is	-3726
தைக்	-3727
▁கருவ	-3728
▁ஊழியர்கள்	-3729
▁மட	-3730
த்தினை	-3731
▁விரைந்து	-3732
செய்ய	-3733
▁அமைந்த	-3734
ணிய	-3735
ப்படாத	-3736
▁நட்சத்திர	-3737
ருங்கள்	-3738
▁ஐபி	-3739
▁ஒன்றாக	-3740
▁அத்துடன்	-3741
▁மீட்டு	-3742
மாகப்	-3743
▁போராட்டத்தில்	-3744
▁வெறு	-3745
▁காரை	-3746
▁கோவிலில்	-3747
டுக்கு	-3748
▁Travel	-3749
▁உதய	-3750
▁பிரதம	-3751
▁சிவக	-3752
▁கொண்டாட	-3753
ology	-3754
ரியும்	-3755
▁படித்த	-3756
ம்மன்	-3757
ராஜன்	-3758
▁அதற்கான	-3759
▁மையம்	-3760
▁வடக்கு	-3761
▁பிரகா	-3762
▁3.	-3763
▁நம்பிக்க	-3764
▁நிறுத்தி	-3765
▁இன்ப	-3766
தாகும்	-3767
மாட்ட	-3768
os	-3769
▁பட்டியலில்	-3770
▁உதார	-3771
▁சிறையில்	-3772
வாச	-3773
றம்	-3774
▁இடம்பெற்ற	-3775
ந்தோ	-3776
▁ப்ர	-3777
ையைத்	-3778
▁அரிய	-3779
சிரியர்	-3780
ப்பின	-3781
▁துணி	-3782
▁ரெயில்	-3783
▁தொழிற்ச	-3784
▁பணிகளை	-3785
▁உறுப்பினர்கள்	-3786
▁ஏழு	-3787
லாத	-3788
▁உங்களை	-3789
▁தர்ம	-3790
▁தோற்ற	-3791
▁வழக்கம்	-3792
ப்பாடு	-3793
▁பரிசு	-3794
▁Finance	-3795
▁தொண்ட	-3796
▁எதிர்த்து	-3797
▁காணலாம்	-3798
▁அதன	-3799
▁வீச	-3800
▁ஜனவரி	-3801
க்களின்	-3802
ஜன்	-3803
போன்	-3804
▁தப்பி	-3805
லைய	-3806
▁மாணவர்களுக்கு	-3807
▁பழனிசாமி	-3808
னன்	-3809
சேக	-3810
ிருக்கு	-3811
▁ஆகி	-3812
▁ராஜப	-3813
▁முயன்ற	-3814
களைக்	-3815
ிக்கொண்டு	-3816
க்கிழமை	-3817
ரிப்பு	-3818
▁இந்தச்	-3819
▁கள்	-3820
▁பேச்சுவார்த்த	-3821
▁சீரிய	-3822
ாண்டு	-3823
ந்தன்	-3824
▁வைத்தார்	-3825
வித்து	-3826
▁மீட்டர்	-3827
▁இம்	-3828
▁முடியாமல்	-3829
▁வழியில்	-3830
தொட	-3831
ியைக்	-3832
▁மண்டல	-3833
▁செயல்பட்டு	-3834
▁லெ	-3835
7,	-3836
▁சும	-3837
▁நீதிப	-3838
த்துக்கும்	-3839
▁நீக்க	-3840
▁நாவ	-3841
▁கரை	-3842
▁ஐக்கிய	-3843
▁வட்டார	-3844
▁அதிகரிக்கும்	-3845
▁கொண்டிருக்க	-3846
▁நேரில்	-3847
▁கடுமையாக	-3848
வைக்க	-3849
um	-3850
கின்றன	-3851
▁அறிவியல்	-3852
திலும்	-3853
தியம்	-3854
▁அரசுக்கு	-3855
▁வருவதாக	-3856
▁திரைய	-3857
▁பாலி	-3858
▁சேவ	-3859
▁விச	-3860
ூன்	-3861
iss	-3862
▁தலைய	-3863
ளான	-3864
ிக்கப்பட்ட	-3865
▁தயாராக	-3866
க்கூடும்	-3867
▁மகளிர்	-3868
▁வர்த்தக	-3869
▁ரொம்ப	-3870
ண்க	-3871
▁பெருமை	-3872
நிற	-3873
▁அவ்	-3874
▁மழ	-3875
▁ஓய்வு	-3876
▁தெலுங்கு	-3877
▁கொண்டது	-3878
டியது	-3879
▁நிபு	-3880
▁அறிக்கையில்	-3881
▁கலெக்டர்	-3882
ந்தைய	-3883
▁தகுதி	-3884
▁Tech	-3885
▁அர்த்த	-3886
புர	-3887
▁விளக்கம்	-3888
▁கிறிஸ்த	-3889
▁எழுத்து	-3890
▁மரியாத	-3891
▁சாம	-3892
ச்சல்	-3893
▁பேசுக	-3894
ப்பட்டுள்ளனர்	-3895
▁புகு	-3896
▁இதற்காக	-3897
▁விஷயம்	-3898
▁தொடங்கிய	-3899
▁குற்றச்ச	-3900
od	-3901
க்களுக்கு	-3902
▁அட்ட	-3903
▁ஆட்டோ	-3904
▁கண்டறிய	-3905
',	-3906
▁உத்தரவு	-3907
▁உள்ளூர்	-3908
ில்லி	-3909
▁புள்ள	-3910
▁hrs	-3911
▁சந்தோ	-3912
▁எத்தனை	-3913
▁சினிமாவில்	-3914
ழ்ந்து	-3915
ாட்சி	-3916
ப்பூர்வ	-3917
-2	-3918
▁இதுதான்	-3919
ையெல்லாம்	-3920
▁கவனி	-3921
▁பேரும்	-3922
▁தெரியவந்தது	-3923
▁உண்மையில்	-3924
▁தானே	-3925
மக	-3926
▁திருப்பூர்	-3927
நிலைய	-3928
▁ஆப்	-3929
▁காப்ப	-3930
ூப	-3931
னியா	-3932
▁மாநிலத்தில்	-3933
▁இவற்ற	-3934
ிடமிருந்து	-3935
நல	-3936
▁ஈரோடு	-3937
un	-3938
▁செப்ட	-3939
▁ஆச	-3940
த்தினால்	-3941
▁போன்	-3942
▁இவருக்கு	-3943
▁ஆர்வ	-3944
▁ஆட	-3945
▁மேலே	-3946
▁புகழ	-3947
▁ஆர்ப்ப	-3948
▁செய்துக	-3949
ri	-3950
▁செய்யலாம்	-3951
▁சந்திக்க	-3952
▁திட்டமிட்டு	-3953
ஞ்ஞான	-3954
றிந்து	-3955
▁நம்மை	-3956
▁கணக்கு	-3957
▁)	-3958
▁கர்ப்ப	-3959
▁;	-3960
▁தொடர்ந்த	-3961
▁மிக்க	-3962
▁எப்போது	-3963
▁நடவடிக்கைகள்	-3964
▁நய	-3965
மர	-3966
▁விளக்கு	-3967
வைத்து	-3968
▁அற்ப	-3969
▁நடத்தினர்	-3970
நான்	-3971
▁கோலி	-3972
▁ஒருநாள்	-3973
▁ஆஸ்ப	-3974
▁நாட்களாக	-3975
த்தோ	-3976
▁உடலில்	-3977
▁கண்டி	-3978
▁சுரே	-3979
ந்தம்	-3980
சாலை	-3981
▁கொடுக்கும்	-3982
▁சீர	-3983
▁காவல்துறை	-3984
▁வேகமாக	-3985
▁யாத	-3986
▁வருவது	-3987
▁அனைத்தையும்	-3988
களிலும்	-3989
▁நாடுகளில்	-3990
ect	-3991
▁பிளா	-3992
மிற	-3993
▁அழகு	-3994
கொண்டு	-3995
▁பிரச்னை	-3996
▁அச்சு	-3997
நாயகர்	-3998
▁நிலைமை	-3999
தற்கும்	-4000
ையுடைய	-4001
களால்	-4002
▁சமுத	-4003
▁அறிவுறுத்த	-4004
▁வைத்துக்	-4005
▁ஈடுபட்டனர்	-4006
▁குடிநீர்	-4007
ர்களுக்கும்	-4008
தாகக்	-4009
கார	-4010
▁என்பதும்	-4011
▁சாதி	-4012
ப்புக்கு	-4013
▁வர்	-4014
▁நவீன	-4015
▁கடற்க	-4016
▁வெளியாகியுள்ளது	-4017
▁பிரா	-4018
வால	-4019
▁இருக்கிறார்கள்	-4020
▁அவர்களது	-4021
▁Techn	-4022
em	-4023
▁நேர்	-4024
▁போலவே	-4025
க்கெட்	-4026
▁காவிர	-4027
ரெ	-4028
வருக	-4029
▁பான	-4030
▁வாலி	-4031
▁வெளிநா	-4032
▁அடைந்து	-4033
▁எவ்வாறு	-4034
▁ஆரம்பித்த	-4035
▁மில்லியன்	-4036
▁திட்டத்தை	-4037
ாரும்	-4038
▁கொண்டிருக்கும்	-4039
▁ஒன்றில்	-4040
மாண	-4041
▁ஓர	-4042
▁வந்தால்	-4043
▁வெகு	-4044
லியா	-4045
▁சாதாரண	-4046
▁வரிச	-4047
▁தொடர	-4048
வழ	-4049
▁இதனையடுத்து	-4050
▁புத்த	-4051
ன்றித	-4052
டிகள்	-4053
▁ஐரோ	-4054
▁பொன்ன	-4055
▁நிர்வாகிகள்	-4056
▁உதவும்	-4057
ழில்	-4058
▁எழுத்த	-4059
▁ரஜினி	-4060
▁அழுத்த	-4061
ப்படுவது	-4062
▁குல	-4063
▁திருச்ச	-4064
▁35	-4065
▁செய்துள்ளது	-4066
▁ஆனாலும்	-4067
▁பள்ளியில்	-4068
▁குறைவாக	-4069
▁அர்	-4070
களாக	-4071
▁தன்மை	-4072
▁முனை	-4073
▁பரபரப்பை	-4074
.,	-4075
▁குளி	-4076
▁Technology	-4077
▁மாற்றி	-4078
▁தற்போதைய	-4079
▁போட்டிகளில்	-4080
▁கட்டிட	-4081
▁பட்ஜ	-4082
▁மால	-4083
க்கட்ட	-4084
ப்பட்டுள்ளதாக	-4085
▁என்கிறார்	-4086
▁விதை	-4087
▁தோல்வ	-4088
▁நியாய	-4089
▁உன	-4090
▁சாம்ப	-4091
ீல்	-4092
ill	-4093
▁திட்டத்தின்	-4094
▁முர	-4095
வர்களாக	-4096
னல்	-4097
மாற	-4098
▁Don	-4099
obil	-4100
▁அடையாளம்	-4101
▁அவரிடம்	-4102
▁கிராமத்தில்	-4103
▁கருணா	-4104
▁என்னுடைய	-4105
▁=	-4106
த்தலை	-4107
ோல்	-4108
▁மனதில்	-4109
▁பாராட்டு	-4110
▁வரலாறு	-4111
த்திலே	-4112
▁முன்னர்	-4113
▁இடத்திற்கு	-4114
▁பெட்ரோல்	-4115
▁பங்கேற்க	-4116
▁வீட்டுக்கு	-4117
▁வைக்கும்	-4118
▁நோயாள	-4119
ம்பரம்	-4120
▁கௌ	-4121
▁India	-4122
வேல்	-4123
▁ஏதாவது	-4124
▁அமைந்துள்ள	-4125
ாதா	-4126
▁செய்தியாள	-4127
▁சாப்பிட	-4128
▁ஆட்டம்	-4129
ஜரா	-4130
ிடு	-4131
▁தொழிலாள	-4132
▁கடின	-4133
▁மீன்	-4134
▁எதிர்பார்த்த	-4135
▁வைரல	-4136
▁பிரிய	-4137
▁கல்யா	-4138
ியூ	-4139
கிறார்	-4140
▁படிப்ப	-4141
▁வார்த்தை	-4142
▁பெரும்பாலும்	-4143
▁நொ	-4144
▁துவங்க	-4145
ங்களுக்கும்	-4146
▁சுரு	-4147
▁அங்கிருந்து	-4148
▁அங்கீக	-4149
▁பகவ	-4150
▁கணக்கில்	-4151
▁கண்டுபிடிக்க	-4152
▁சேர்த்த	-4153
▁விதமாக	-4154
ர்களால்	-4155
▁சீனா	-4156
▁ஜனநாயக	-4157
சித்த	-4158
▁ஆளுநர்	-4159
▁பொறிய	-4160
ம்பா	-4161
▁சட	-4162
▁இதய	-4163
யிர	-4164
▁அணியில்	-4165
போதும்	-4166
▁எனத்	-4167
▁g	-4168
▁அத்திய	-4169
▁4.	-4170
ாயிர	-4171
ொன்று	-4172
ியைத்	-4173
வடை	-4174
▁மாடல்	-4175
▁வாடிக்கையாள	-4176
▁வின	-4177
▁உக்	-4178
ையொட்டி	-4179
ையையும்	-4180
▁பிரச	-4181
▁வளை	-4182
▁199	-4183
▁உயர	-4184
▁களமிற	-4185
த்தையே	-4186
▁முழ	-4187
▁இறுதியில்	-4188
▁சது	-4189
▁எவ்	-4190
▁தாக்குத	-4191
▁கொள்கை	-4192
▁2021	-4193
▁பறிமுதல்	-4194
▁அதேபோல்	-4195
▁ஊரடங்கு	-4196
▁வெள்ளை	-4197
▁சுழ	-4198
▁தாங்க	-4199
▁அக்	-4200
▁சென்	-4201
ந்தும்	-4202
▁மைதான	-4203
▁மருத்துவமனைக்கு	-4204
▁புத	-4205
▁முகாம	-4206
▁அகற்ற	-4207
▁திறன்	-4208
▁பின்பற்ற	-4209
யின்	-4210
▁இரத்த	-4211
▁சேர	-4212
▁யாக	-4213
க்குறி	-4214
▁ஏதோ	-4215
ாரை	-4216
ரான்	-4217
▁சான்றித	-4218
ொடு	-4219
▁துறையில்	-4220
▁/	-4221
▁2020	-4222
நெ	-4223
▁குற்றச்சாட்டு	-4224
▁உண்மையான	-4225
▁தயார்	-4226
▁தூத்துக்கு	-4227
▁உறவு	-4228
pp	-4229
ப்போது	-4230
▁கோரிக்க	-4231
▁தமிழ்நாட்டில்	-4232
▁ஆந்திர	-4233
▁கொண்டுள்ளது	-4234
ிருக்கலாம்	-4235
▁குஜரா	-4236
்டி	-4237
▁படப்பிடிப்பு	-4238
ுள்	-4239
▁பிற்ப	-4240
▁அதிகபட்ச	-4241
▁தனியாக	-4242
▁செய்துள்ளார்	-4243
ிறீர்கள்	-4244
▁மூன்றாவது	-4245
▁கவிதை	-4246
ஸை	-4247
▁வழங்கிய	-4248
▁எடுப்ப	-4249
▁03	-4250
ினேன்	-4251
▁பொன்	-4252
▁மோசமான	-4253
▁அலுவலர்	-4254
▁அன்பு	-4255
வேக	-4256
பால்	-4257
▁வாங்கிய	-4258
▁கைப்பற்ற	-4259
ஸ்வ	-4260
▁கற்க	-4261
ட்சுமி	-4262
▁மெல்ல	-4263
▁ஊர்	-4264
த்யா	-4265
▁கஷ்ட	-4266
ப்பான்	-4267
▁எதிர்ப்ப	-4268
▁வாயில	-4269
▁ஒப்படை	-4270
▁சவு	-4271
▁டா	-4272
▁நான்க	-4273
▁ஜெயலலிதா	-4274
வழி	-4275
ந்தன	-4276
▁கூடுதலாக	-4277
▁வகையான	-4278
▁வாழும்	-4279
▁சூழலில்	-4280
▁கொள்ளும்	-4281
▁உதவிய	-4282
▁தியாக	-4283
வள்	-4284
▁பாஸ்	-4285
▁அணிக்கு	-4286
த்திற	-4287
▁அவ்வாறு	-4288
▁நியூஸ்	-4289
▁ஆஜ	-4290
ப்படுகின்றது	-4291
▁ஆண்டுகளில்	-4292
வகை	-4293
▁விசாரணையில்	-4294
த்ர	-4295
▁2019	-4296
▁யோச	-4297
▁டிவி	-4298
▁பெற்றோர்	-4299
ங்கர்	-4300
▁உற்சாக	-4301
▁விடும்	-4302
▁J	-4303
▁என்றே	-4304
▁முதலீ	-4305
வுள்ள	-4306
▁பதிலாக	-4307
மூலம்	-4308
ஸ்பெக்டர்	-4309
▁மாதத்தில்	-4310
ானே	-4311
த்திற்கான	-4312
பிள்	-4313
▁500	-4314
▁சிவா	-4315
களுடன்	-4316
▁ஏழை	-4317
ரையும்	-4318
▁கட்டணம்	-4319
▁இயந்திர	-4320
▁கவுன்	-4321
▁பூம	-4322
தாப	-4323
▁இழந்து	-4324
▁காய்க	-4325
▁இசையமை	-4326
▁மகிழ்ச்சி	-4327
க்கோட்டை	-4328
▁சிறும	-4329
விலான	-4330
யோக	-4331
▁தனிப்பட்ட	-4332
▁முகம்	-4333
▁உயர்ந்து	-4334
▁பார்வை	-4335
▁விமர்சன	-4336
▁காவல்துறையினர்	-4337
▁சசிக	-4338
▁விட்டார்	-4339
ிகளுடன்	-4340
டையை	-4341
▁கோரி	-4342
▁சமைய	-4343
▁தரப்பில்	-4344
ட்டுகள்	-4345
▁நானும்	-4346
ட்டுக்கு	-4347
▁நிமி	-4348
▁செய்துள்ளனர்	-4349
▁அலுவல	-4350
▁வைத்தனர்	-4351
▁டிசம்பர்	-4352
▁கேட்ப	-4353
▁சேத	-4354
▁விகி	-4355
▁என்பதே	-4356
▁இளைய	-4357
▁நிவார	-4358
ுங்க	-4359
▁நிகழ்வ	-4360
▁தெளிவாக	-4361
்களின்	-4362
வீர்கள்	-4363
▁தொடர்ச்ச	-4364
னைப்	-4365
▁ஐபிஎல்	-4366
▁நடவடிக்கைகளை	-4367
லைக்	-4368
▁வைக்கப்பட்ட	-4369
்டோபர்	-4370
▁முற்றிலும்	-4371
ழ்வு	-4372
▁சத்திய	-4373
▁அறிவித்துள்ளது	-4374
▁அட்டை	-4375
▁பாய	-4376
▁எட்ட	-4377
▁காப்பாற்ற	-4378
▁வலியுறுத்த	-4379
▁அஜித்	-4380
▁45	-4381
தர	-4382
▁பெண்களுக்கு	-4383
▁அளித்து	-4384
▁முருகன்	-4385
▁விபத்தில்	-4386
றிந்த	-4387
▁நரே	-4388
▁கணவர்	-4389
▁உலகில்	-4390
▁செயல்பட	-4391
▁அறிகு	-4392
▁வரலாற்று	-4393
▁கடிதம்	-4394
த்தன்	-4395
▁உள்ளட	-4396
▁வழங்கப்பட்டது	-4397
ப்பதை	-4398
▁வாய்ந்த	-4399
ரைப்	-4400
வா்	-4401
▁சோழ	-4402
▁செப்டம்பர்	-4403
all	-4404
த்தீ	-4405
▁கிளை	-4406
த்ரா	-4407
▁துரு	-4408
▁வசித்து	-4409
ப்பொரு	-4410
▁உத்தரவிட்டு	-4411
வையும்	-4412
▁செய்தால்	-4413
ிக்கும்	-4414
▁அறிவித்த	-4415
▁கலந்த	-4416
▁சலுக	-4417
▁முழுக்க	-4418
▁வாத	-4419
▁அமைத்து	-4420
▁ஆகியவற்றை	-4421
▁குறைந்து	-4422
ான்ஸ்	-4423
▁சபை	-4424
▁கிடைத்தது	-4425
▁ராய	-4426
▁2022	-4427
ிக்கொள்ள	-4428
▁முடித்து	-4429
▁மீட்க	-4430
ாக்கு	-4431
▁ஆலையில்	-4432
ரம்ப	-4433
▁சாமி	-4434
▁காற்று	-4435
ினோம்	-4436
ப்பய	-4437
▁லோக	-4438
ினாலும்	-4439
▁எமது	-4440
▁உண்ண	-4441
▁முனி	-4442
ith	-4443
▁k	-4444
லுடன்	-4445
ூரு	-4446
க்கொள்க	-4447
டிக்	-4448
▁எண்ணிக்க	-4449
சொ	-4450
▁நிச்சயம்	-4451
▁அருள்	-4452
ோவில்	-4453
▁U	-4454
▁தாவ	-4455
▁விசே	-4456
▁எடை	-4457
▁சிறப்பான	-4458
▁என்பத	-4459
▁விடுமுறை	-4460
▁மேம்படுத்த	-4461
▁வாழ்க்கையில்	-4462
▁வழக்கறி	-4463
▁கடித	-4464
ிருப்பதாக	-4465
▁முடிவில்	-4466
▁Aut	-4467
ப்ரவரி	-4468
▁குரல்	-4469
▁மாணவர்	-4470
▁தோழ	-4471
▁பாடி	-4472
▁தருக	-4473
▁வெளிநாட்டு	-4474
ங்களைத்	-4475
▁தரிசனம்	-4476
ப்பட்டனர்	-4477
▁கான்	-4478
▁வழிக	-4479
▁சமுதாய	-4480
கத்தில்	-4481
▁எச்சரிக்கை	-4482
▁பலத்த	-4483
ச்சார	-4484
க்கொள்	-4485
▁பொறுப்பு	-4486
▁முற்ப	-4487
▁சம்பந்தப்பட்ட	-4488
▁வாகனங்கள்	-4489
▁செங்க	-4490
்டில்	-4491
ாகிய	-4492
▁Miss	-4493
▁லிட்ட	-4494
ப்பூர்	-4495
▁சந்தை	-4496
க்கப்	-4497
▁திருவிழா	-4498
▁முதலீடு	-4499
ிக்காக	-4500
201	-4501
▁குறித்தும்	-4502
▁இராம	-4503
▁இயல்ப	-4504
▁தெற்கு	-4505
▁இஸ்லாம	-4506
லன்	-4507
▁தீவிரமாக	-4508
லீ	-4509
▁வெளிப்படுத்த	-4510
▁தலைவராக	-4511
▁கலைஞ	-4512
நடை	-4513
தூ	-4514
▁நிகழ்வு	-4515
▁இருந்தனர்	-4516
▁நியமி	-4517
▁இச்ச	-4518
▁நகராட்சி	-4519
வியில்	-4520
னிடம்	-4521
▁வலியுறுத்தி	-4522
▁பின	-4523
ம்த	-4524
▁காய்ச்ச	-4525
ரோன	-4526
▁கட்டுப்படுத்த	-4527
▁பிரிவில்	-4528
▁நெடுஞ்ச	-4529
▁முடிக்க	-4530
▁வழங்குவ	-4531
ளுக்க	-4532
▁பரவி	-4533
ஸின்	-4534
▁ரன்க	-4535
ழிவு	-4536
ியுள்ளன	-4537
▁ஐய	-4538
▁ar	-4539
▁அணிய	-4540
ிருக்கின்றன	-4541
▁தற்கால	-4542
▁வந்துள்ளது	-4543
▁புனித	-4544
▁பாட்ட	-4545
ண்டன்	-4546
ையைச்	-4547
▁கட்டுரை	-4548
▁உயர்வு	-4549
▁பச்சை	-4550
ecur	-4551
விக்கும்	-4552
▁ஏற்படுத்தும்	-4553
ங்குவ	-4554
▁திகதி	-4555
▁வெளியிட்டுள்ள	-4556
ட்டிக்	-4557
ல்ஸ்	-4558
▁நினைத்த	-4559
▁2023:	-4560
▁தேவையில்	-4561
க்ச	-4562
▁யானை	-4563
▁மிள	-4564
▁விசாரித்த	-4565
▁தள்ளி	-4566
▁தயாரிப்பு	-4567
▁கொழு	-4568
▁சப்	-4569
▁கோட்ட	-4570
ங்களைச்	-4571
▁லட்சத்தில்	-4572
பாத்	-4573
▁சாதன	-4574
▁உக்ரை	-4575
hik	-4576
▁80	-4577
▁நம்பி	-4578
▁போன்றவை	-4579
வுள்ளது	-4580
▁பிரதான	-4581
▁டால	-4582
ர்களே	-4583
▁முடிந்து	-4584
ரைய	-4585
▁சாய	-4586
▁நெல்லை	-4587
ன்தினம்	-4588
▁அவனுக்கு	-4589
▁ஏற	-4590
▁இவ்வளவு	-4591
த்தட்ட	-4592
ப்பிரமண	-4593
▁போகும்	-4594
▁விடுத்த	-4595
▁டிக்கெட்	-4596
ல்லி	-4597
ப்பிக்க	-4598
கிற	-4599
▁சூர்யா	-4600
▁வீட்டை	-4601
ோல	-4602
▁மட்ட	-4603
▁அண்	-4604
▁உப்பு	-4605
▁பயணி	-4606
▁இதுபோன்ற	-4607
▁Rec	-4608
▁வேலைவாய	-4609
ecurity	-4610
▁நாணயங்கள்	-4611
▁ஆலய	-4612
ிகளாக	-4613
▁டொ	-4614
▁முக்கியத்துவம்	-4615
▁தகவல்களை	-4616
▁தாம்	-4617
நாத்	-4618
ங்கலம்	-4619
▁இதற்கான	-4620
ஷ்ப	-4621
▁விழிப்புணர்வு	-4622
▁தென்க	-4623
▁எட்டு	-4624
▁பாராட்ட	-4625
ளையில்	-4626
ab	-4627
மிழ்	-4628
▁70	-4629
▁உற்பத்திய	-4630
▁அபிஷ	-4631
▁ஒத்துழை	-4632
▁நாராய	-4633
ெடுத்த	-4634
▁பாரத்	-4635
▁5.	-4636
▁மணிய	-4637
▁ஆகஸ்ட்	-4638
▁படுக்க	-4639
ம்ஸ்	-4640
நட	-4641
தொ	-4642
ஹாச	-4643
விகி	-4644
▁அவளை	-4645
▁விழுந்து	-4646
▁உத்த	-4647
▁சிலை	-4648
▁மாணவி	-4649
▁அப்	-4650
▁க்க	-4651
▁நினைத்து	-4652
▁ஆஸ்திரேலிய	-4653
▁உண்டாகும்	-4654
▁நம	-4655
▁மித	-4656
▁வீட்டின்	-4657
▁ஆடை	-4658
ரவை	-4659
▁அமைந்துள்ளது	-4660
ுவில்	-4661
▁கருதி	-4662
▁மலையாள	-4663
நிக	-4664
igh	-4665
▁குமார	-4666
▁சேமி	-4667
▁விஞ்ஞான	-4668
ரைக்	-4669
▁தமிழர்	-4670
▁தாங்கள்	-4671
▁Security	-4672
ரியை	-4673
▁ஆணையம்	-4674
லையும்	-4675
மொத்த	-4676
இல்	-4677
▁நிர்ணய	-4678
▁முத்த	-4679
மாகிய	-4680
ர்க்கு	-4681
▁இலை	-4682
▁பயங்கரவாத	-4683
ன்ம	-4684
▁தேங்க	-4685
▁செம	-4686
▁இதன்ப	-4687
▁பதிவிட்டு	-4688
▁புதுச்சேரி	-4689
க்தி	-4690
▁மண்	-4691
▁ஸ்த	-4692
க்கட	-4693
▁பொருள்க	-4694
▁நடைபெறுகிறது	-4695
ruit	-4696
▁நரேந்திர	-4697
▁துப்பாக்கி	-4698
▁அலுவலகம்	-4699
▁திராவிட	-4700
▁வலு	-4701
▁நவம்பர்	-4702
▁மனைவ	-4703
▁Autom	-4704
ூப்	-4705
▁வருவாய்	-4706
பிஎஸ்	-4707
▁re	-4708
▁நிறைவு	-4709
▁st	-4710
▁நண்பர்கள்	-4711
▁ஆன்லைன்	-4712
ம்பரிய	-4713
▁அபர	-4714
▁ஊழ	-4715
▁பயிர	-4716
▁(3	-4717
▁இருந்தன	-4718
▁குண்ட	-4719
▁புகைப்படம்	-4720
▁விசாரணைக்கு	-4721
▁காவிரி	-4722
▁காணப்படும்	-4723
பட்டு	-4724
▁சர்க்கரை	-4725
▁சக்கர	-4726
▁Press	-4727
ிறகு	-4728
▁போலி	-4729
▁Automobil	-4730
▁6.	-4731
▁கம்யூ	-4732
▁அவ்வளவு	-4733
▁சங்கம்	-4734
▁ஆச்சரிய	-4735
▁ரீதியாக	-4736
ிருஷ்ணன்	-4737
கர	-4738
▁ஹோ	-4739
▁மஞ்சள்	-4740
▁பன்னீர்	-4741
▁Automobiles	-4742
ேசிய	-4743
▁நேரங்களில்	-4744
▁தள்ளு	-4745
ஒரு	-4746
▁2,	-4747
ரித்த	-4748
▁போட்டிகள்	-4749
▁அக்டோபர்	-4750
▁உருவ	-4751
▁எக்	-4752
▁ரயில்வே	-4753
▁கிட்டத்தட்ட	-4754
▁சஞ்ச	-4755
▁அதிகாலை	-4756
▁நூல்	-4757
தொடர்ப	-4758
▁சந்தையில்	-4759
மாவ	-4760
▁தவறான	-4761
▁ஆராய்ச்சி	-4762
▁காரில்	-4763
▁கட்சிய	-4764
▁வெளியில்	-4765
ானம்	-4766
ers	-4767
▁நியமிக்க	-4768
▁கரோனா	-4769
▁அதுவும்	-4770
▁அச்சிடும்	-4771
▁வேண்டியது	-4772
▁மகாரா	-4773
▁கொள்ளுங்கள்	-4774
ப்பதற்காக	-4775
▁அற்புத	-4776
சுர	-4777
ruitment	-4778
▁பேட்டரி	-4779
▁லார	-4780
▁மேலாக	-4781
▁இடத்தை	-4782
னிதா	-4783
▁நாடக	-4784
▁198	-4785
▁ராசி	-4786
▁ஆணை	-4787
▁சரவ	-4788
▁முன்தினம்	-4789
▁ஆசிரியர்கள்	-4790
▁கொழும்ப	-4791
▁3-	-4792
▁இயக்குந	-4793
▁வருகை	-4794
▁தூத்துக்குடி	-4795
▁குடியரசு	-4796
▁காதலி	-4797
▁மேலா	-4798
▁காஷ்	-4799
▁கட்டாய	-4800
பைல்	-4801
▁கொட	-4802
▁தீர்க்க	-4803
▁குதிர	-4804
றிகள்	-4805
▁அளவிற்கு	-4806
டுகிறார்	-4807
▁நபர்கள்	-4808
▁விளம்பர	-4809
▁கணவன்	-4810
▁க்கு	-4811
▁உணர	-4812
▁துண்ட	-4813
ஜு	-4814
ங்கால	-4815
▁சேது	-4816
னைக்	-4817
▁பேச்ச	-4818
நாள	-4819
▁Recruitment	-4820
por	-4821
▁இருப	-4822
▁பிரபலமான	-4823
▁வெவ்	-4824
கிரி	-4825
▁ரகசிய	-4826
▁சொன்னார்	-4827
▁பந்த	-4828
▁கட்டுமான	-4829
ன்றால்	-4830
▁Nas	-4831
▁உருவாக்கு	-4832
▁கும	-4833
▁போலீஸார்	-4834
▁வயதான	-4835
▁பாரம்பரிய	-4836
▁ரஜினிகா	-4837
விள	-4838
▁தலா	-4839
▁ஆக்	-4840
ையுலக	-4841
▁முன்னேற்ற	-4842
பாச	-4843
▁தொற்ற	-4844
▁எழ	-4845
க்குற	-4846
▁று	-4847
க்குமார்	-4848
க்கவும்	-4849
▁சுட்டிக்க	-4850
பொரு	-4851
ிங்	-4852
▁இப்போ	-4853
ின்க	-4854
ேஷ	-4855
்ச்	-4856
▁அசை	-4857
▁இலங்கையில்	-4858
▁எனப்படும்	-4859
ாததால்	-4860
ist	-4861
▁பொங்கல்	-4862
▁வாய்ப்புகள்	-4863
ெனவே	-4864
வரான	-4865
▁பேட்டி	-4866
▁விலையில்	-4867
கிழ	-4868
▁Nashik	-4869
▁பிக்	-4870
!"	-4871
நாட்டில்	-4872
ஸா	-4873
▁வருடம்	-4874
▁ஒட்டுமொத்த	-4875
ub	-4876
▁உத்திய	-4877
▁மிகப்	-4878
▁நுக	-4879
▁செலுத்து	-4880
▁எழுந்து	-4881
னுக்கும்	-4882
மித்	-4883
ாமல	-4884
தரா	-4885
▁சதவிகி	-4886
▁மருத்துவர்கள்	-4887
▁வு	-4888
ொழு	-4889
▁முந்தைய	-4890
ரல்	-4891
▁ஸ்மார்ட்போ	-4892
ாசி	-4893
▁வெளியேற	-4894
▁கனி	-4895
ராஜா	-4896
▁பரபரப்பு	-4897
▁v	-4898
▁நிலையை	-4899
▁இளைஞர்	-4900
முருக	-4901
▁நெஞ்ச	-4902
▁பெங்களூரு	-4903
இது	-4904
கட	-4905
ம்மை	-4906
▁அல்லா	-4907
▁அடிய	-4908
மனை	-4909
▁தமிழகத்தின்	-4910
▁வெள்ளி	-4911
▁சொல்லும்	-4912
▁தோட்ட	-4913
▁விற்க	-4914
▁பெரும	-4915
ாலு	-4916
▁எனப்	-4917
▁இம்ம	-4918
▁சூழல்	-4919
வேண்டிய	-4920
▁வினா	-4921
க்கப்பட்டு	-4922
தெ	-4923
▁மாதங்களுக்கு	-4924
▁கோப்பை	-4925
▁முஸ்லிம்	-4926
▁தரும	-4927
▁வலுவ	-4928
றிவு	-4929
▁அமைய	-4930
▁பத்திரிக	-4931
▁காஞ்சி	-4932
செல்வ	-4933
▁செலுத்தி	-4934
▁32	-4935
க்கத்தில்	-4936
ெட்டில்	-4937
▁பிப்ரவரி	-4938
ிருக்கிறேன்	-4939
▁படத்திற்கு	-4940
▁அமெரிக்காவில்	-4941
▁வயதில்	-4942
▁சாப்பி	-4943
▁எளிய	-4944
▁அம்மன்	-4945
ியைச்	-4946
▁தோன்று	-4947
▁வலம்	-4948
ள்ப	-4949
▁மூழ்க	-4950
வதன்	-4951
மடைந்து	-4952
வகு	-4953
நோய்	-4954
han	-4955
ெய்ய	-4956
▁90	-4957
மென	-4958
▁வருகின்ற	-4959
▁ஒன்றும்	-4960
ாலய	-4961
▁வாழ்ந்த	-4962
▁வெளியானது	-4963
▁வேளாண்	-4964
▁தொகுதியில்	-4965
▁யாழ	-4966
▁விடய	-4967
ர்களையும்	-4968
ுகோ	-4969
டிக்கும்	-4970
▁மாள	-4971
▁நிபுண	-4972
▁விளையாடி	-4973
ப்பிரிக்க	-4974
▁சட்டச	-4975
▁திட்டங்கள்	-4976
கல்	-4977
ாகப்	-4978
▁மீட்ப	-4979
ிகளிடம்	-4980
▁தீர்ப்பு	-4981
ாட்டி	-4982
▁சாதக	-4983
ிடத்தில்	-4984
▁குழந்தைகளுக்கு	-4985
▁இவர்க	-4986
▁மாநிலங்களில்	-4987
▁இலக்கு	-4988
ிகிறது	-4989
▁காற்ற	-4990
▁வறு	-4991
▁தெரியாது	-4992
▁கொண்டிருக்கிறது	-4993
▁காட்சிகள்	-4994
▁திரையர	-4995
▁காயம்	-4996
▁அணிந்து	-4997
'.	-4998
▁முன்னில	-4999
▁ஏக	-5000
களைத்	-5001
▁என்றான்	-5002
▁டெல்லியில்	-5003
▁பெருமாள்	-5004
▁பார்க்கும்	-5005
றியது	-5006
▁தேர்ந்தெடுக்க	-5007
▁இந்தி	-5008
▁லட்சத்து	-5009
▁சூழ்நிலை	-5010
▁தீர்த்த	-5011
▁நை	-5012
▁பேசுவ	-5013
▁ட்விட்டர்	-5014
▁உறுதிய	-5015
▁முதன்மை	-5016
▁இறங்க	-5017
▁கற்ற	-5018
▁சாம்	-5019
ாய்ந்து	-5020
▁பேரை	-5021
▁சிரம	-5022
▁தார	-5023
▁இடையில்	-5024
▁போதை	-5025
றையும்	-5026
▁or	-5027
முகம்	-5028
▁காந்த	-5029
▁வாரி	-5030
ங்ங	-5031
▁சமயம்	-5032
ப்பார்	-5033
▁பகுதிய	-5034
▁திண்டு	-5035
▁நூற்றாண்ட	-5036
▁மீட்ட	-5037
▁விக்கெட்	-5038
▁பணியாற்ற	-5039
▁இணையத்தில்	-5040
▁ஏதே	-5041
ிறாள்	-5042
▁தாண்டி	-5043
▁டாஸ்	-5044
ஜீ	-5045
▁தங்களுக்கு	-5046
▁ஆக்கிர	-5047
▁காலையில்	-5048
▁புற்று	-5049
வொரு	-5050
▁ம்	-5051
மாகவே	-5052
▁தோனி	-5053
▁முடிந்தது	-5054
▁தடுத்து	-5055
▁இரட்டை	-5056
▁அறிமுகப்படுத்த	-5057
ாவ்	-5058
▁2018	-5059
▁வாட	-5060
வுக்கும்	-5061
▁be	-5062
▁இன்ஸ்ட	-5063
▁வென்று	-5064
▁தொடர்புடைய	-5065
யு	-5066
▁முடிவெ	-5067
▁படு	-5068
▁ஜனதா	-5069
▁திரையுலக	-5070
▁இளைஞர்கள்	-5071
▁கேட்டுக்	-5072
▁இருக்காது	-5073
நல்ல	-5074
▁அரிசி	-5075
▁Y	-5076
ர்களா	-5077
▁கடவுள்	-5078
▁விழுந்த	-5079
4-	-5080
▁அளவிலான	-5081
▁வத	-5082
▁ஆசிய	-5083
▁வந்தே	-5084
▁மிரட்ட	-5085
▁நிறுவனத்தில்	-5086
▁பாத்திர	-5087
ரவ	-5088
சனம்	-5089
▁வாழ்ந்து	-5090
ங்க்	-5091
▁இருந்தும்	-5092
▁கூறும்	-5093
க்கியது	-5094
▁அணு	-5095
▁நெல்	-5096
ost	-5097
▁அமர்ந்த	-5098
▁The	-5099
▁ஒற்று	-5100
▁கடற்ப	-5101
▁எங்கே	-5102
▁பெட்ட	-5103
▁அழைப்பு	-5104
▁கொரோன	-5105
▁ஒளிபர	-5106
க்களும்	-5107
▁குறைய	-5108
▁அய்ய	-5109
▁நாட்டை	-5110
ன்பி	-5111
▁பாகிஸ்தான	-5112
ஷ்க	-5113
▁அந	-5114
oc	-5115
▁இடம்பெற்று	-5116
த்திற்குள்	-5117
▁விவகாரம்	-5118
▁இஸ்லாமிய	-5119
▁அழகான	-5120
▁அமர்ந்து	-5121
▁அதன்பின்	-5122
ப்பட்டி	-5123
▁வரவேற்பு	-5124
டையும்	-5125
றா	-5126
▁அத்தகைய	-5127
▁தொழிலாளர்கள்	-5128
▁கம்யூனி	-5129
▁காலக	-5130
▁கப	-5131
▁அதிகரித்துள்ளது	-5132
ையிலிருந்து	-5133
▁பெயரை	-5134
▁எடுக்கப்படும்	-5135
ென்றும்	-5136
ியாகும	-5137
▁இழந்த	-5138
▁அப்போ	-5139
▁ஓய்வ	-5140
ப்பதில்	-5141
▁விவா	-5142
ாவளி	-5143
ண்ணு	-5144
▁மீறி	-5145
▁ஜா	-5146
▁என்பதில்	-5147
சியாக	-5148
▁அவற்றின்	-5149
▁நிச்சயமாக	-5150
▁சோத	-5151
▁பற்றியும்	-5152
▁வண்ட	-5153
▁சம்ம	-5154
▁கல்லூர	-5155
தைத்	-5156
▁முது	-5157
▁புகழ்	-5158
வித்த	-5159
▁பார்க்கலாம்	-5160
▁ஐஸ்	-5161
▁75	-5162
▁வைத்திருந்த	-5163
▁விடை	-5164
▁மறக்க	-5165
▁கெட்ட	-5166
▁வெல்ல	-5167
ினா	-5168
IR	-5169
▁வழங்கினார்	-5170
யிற்ச	-5171
திக்கு	-5172
ரசி	-5173
▁அண்மையில்	-5174
ok	-5175
▁மயில	-5176
▁பெய்ய	-5177
▁வெவ்வேறு	-5178
1,	-5179
▁ஆர்வம்	-5180
▁ஒட்ட	-5181
▁காலி	-5182
▁பரப்ப	-5183
▁நடித்துள்ளார்	-5184
பெற்ற	-5185
ொலி	-5186
ப்படுவதாக	-5187
மெண்ட்	-5188
▁புரா	-5189
ிகளிலும்	-5190
▁கவனிக்க	-5191
மடை	-5192
▁அடித்த	-5193
ங்களிடம்	-5194
▁சுரேஷ்	-5195
▁சரும	-5196
▁மறந்து	-5197
ங்குகள்	-5198
▁குறைவான	-5199
ட்டுக்	-5200
ியையும்	-5201
▁ஆட்சியில்	-5202
▁36	-5203
▁பொலிஸ்	-5204
▁கொண்டா	-5205
▁நாடுகளின்	-5206
▁இயக்குன	-5207
▁பெற்றார்	-5208
▁கூறப்பட்டுள்ளது	-5209
▁கொடி	-5210
▁அங்குள்ள	-5211
▁வாசி	-5212
▁வருப	-5213
▁வேட	-5214
▁அதிகாரப்பூர்வ	-5215
▁வலைத்தள	-5216
▁எல்லாவ	-5217
▁கஞ்ச	-5218
▁ஒதுக்கீடு	-5219
▁உறவினர்கள்	-5220
▁திருப்பி	-5221
ிலா	-5222
ப்பால்	-5223
▁படங்களை	-5224
▁அழைத்துச்	-5225
▁செய்யப்பட	-5226
▁மறுப	-5227
மொழ	-5228
▁7.	-5229
▁pr	-5230
▁பேசும்	-5231
▁விருந்த	-5232
ெக்ட	-5233
மாக்க	-5234
ப்பிற்கு	-5235
▁வைரலாகி	-5236
▁இதுதொடர்ப	-5237
▁எடுக்கும்	-5238
▁அவ்வப்போது	-5239
▁தொலைக்காட்ச	-5240
▁அழுத்தம்	-5241
சிரிய	-5242
▁திருவள்ள	-5243
▁பேச்சுவார்த்தை	-5244
▁சமூ	-5245
▁ஒருவரை	-5246
ாதீர்கள்	-5247
▁சண்ட	-5248
▁செய்கிறது	-5249
▁திடீர்	-5250
பெய	-5251
▁46	-5252
10	-5253
ிகார	-5254
▁சொல்லிய	-5255
சியில்	-5256
▁ஃபே	-5257
▁சிங்கள	-5258
▁மட்டுமின்றி	-5259
▁வாடிக்கைய	-5260
டோ	-5261
▁வழக்கை	-5262
▁கூறியது	-5263
ாகக்	-5264
▁அமைச்சர்கள்	-5265
▁உன்னை	-5266
▁பட்டா	-5267
▁கணக்க	-5268
ிகேய	-5269
▁சத்து	-5270
▁கட்சிகள்	-5271
▁வில்	-5272
▁கூட்டுறவு	-5273
வந்து	-5274
▁வழங்கப்படுகிறது	-5275
▁அவர்களிடம்	-5276
av	-5277
▁செந்தில்	-5278
▁கன்னியாகும	-5279
▁பழக்க	-5280
▁பெற்றுள்ளது	-5281
▁ஊழல்	-5282
▁காலங்களில்	-5283
▁படக்குழு	-5284
▁முன்னிலை	-5285
".	-5286
▁இயக்கம்	-5287
ாமே	-5288
முடி	-5289
▁உண்மைய	-5290
▁பரம	-5291
லைப்	-5292
ிகளுக்கும்	-5293
▁தொடர்ச்சியாக	-5294
மட்டு	-5295
▁நீதிபதிகள்	-5296
லாளர்	-5297
▁தெரியாமல்	-5298
டுகின்றன	-5299
▁பிரபு	-5300
▁ஆனது	-5301
▁பிக்ப	-5302
ேந்திர	-5303
▁கூடும்	-5304
▁சட்டத்தின்	-5305
▁தோல்வி	-5306
▁மரியாதை	-5307
டான	-5308
ரையா	-5309
▁மண்டப	-5310
▁பரிதாப	-5311
▁வேலூர்	-5312
▁விளையாட	-5313
▁அவு	-5314
▁கடமை	-5315
▁தற்காலிக	-5316
மல்	-5317
▁முதிய	-5318
▁ஏற்கெனவே	-5319
▁புரிய	-5320
▁பிரதிநி	-5321
ணைப்பு	-5322
துவாக	-5323
னைகள்	-5324
▁கிராம்	-5325
▁அஸ்	-5326
▁விமானம்	-5327
▁சமாத	-5328
ராச	-5329
தேசம்	-5330
ate	-5331
▁தாள	-5332
ெக்ட்	-5333
▁தூய்	-5334
ிலு	-5335
▁பெய்த	-5336
▁கல்லூரியில்	-5337
▁இணைப்பு	-5338
தாஸ்	-5339
art	-5340
▁கொண்டுவர	-5341
▁வெளியேற்ற	-5342
2.	-5343
▁48	-5344
▁உயர்நீதிமன்ற	-5345
▁உணர்ந்த	-5346
▁சட்டப்பே	-5347
ளிப்பு	-5348
▁ஒருமுறை	-5349
▁தீவிரவாத	-5350
வரே	-5351
▁பொறுத்தவரை	-5352
ப்போம்	-5353
▁ண	-5354
pt	-5355
▁சொற்க	-5356
ஸ்கர்	-5357
▁விழுப்பு	-5358
மீது	-5359
ள்ளை	-5360
மூர்த்தி	-5361
▁வானிலை	-5362
ிக்ஸ்	-5363
ித்தார்	-5364
▁பிரசார	-5365
ட்டுகளை	-5366
யும்	-5367
▁வளாகத்தில்	-5368
▁வரிசையில்	-5369
▁சொந்தமான	-5370
▁சண்டை	-5371
ஸ்க்	-5372
▁பூங்கா	-5373
விட்டனர்	-5374
▁எளிதாக	-5375
▁ஆரம்பித்து	-5376
▁செயற்க	-5377
▁ஒழுங்கு	-5378
▁ஒருவன்	-5379
நகர	-5380
▁கால்நடை	-5381
▁மோதி	-5382
▁பிழை	-5383
ச்சொ	-5384
▁பது	-5385
▁வருத்த	-5386
40	-5387
▁என்பதையும்	-5388
▁தங்கம்	-5389
முத்து	-5390
▁குறிப்பிட்டார்	-5391
▁இதனிடையே	-5392
▁கனவு	-5393
▁சன்	-5394
▁சோக	-5395
▁ஓவிய	-5396
▁கருப்பு	-5397
லமாக	-5398
▁மதிப்பெ	-5399
▁கிடந்த	-5400
ிருந்தன	-5401
▁கான	-5402
▁வது	-5403
▁மார்ப	-5404
▁எவ்வித	-5405
ிற்கான	-5406
▁உறுதியாக	-5407
▁கிரக	-5408
▁அமையும்	-5409
▁சமர்ப்ப	-5410
ெய்த	-5411
▁துரை	-5412
▁வளர்ந்து	-5413
▁ரசிகர்களை	-5414
▁பாதுகாக்க	-5415
▁மஹ	-5416
▁போதுமான	-5417
▁குற்றவாள	-5418
▁விளங்க	-5419
▁கடல	-5420
ளிக்கும்	-5421
▁கடலூர்	-5422
▁வாசக	-5423
▁அண்ணாமலை	-5424
தாய	-5425
ற்சி	-5426
வானி	-5427
▁தரப்பு	-5428
▁யூன	-5429
▁ராத	-5430
ணத்தில்	-5431
முன்	-5432
▁குறிப்பி	-5433
▁சொல்வ	-5434
▁வழிபா	-5435
ர்ஸ்	-5436
▁பயன்	-5437
▁வீழ்த்த	-5438
▁மலேசிய	-5439
▁தெரியாத	-5440
▁இவர்களுக்கு	-5441
▁அன்	-5442
ட்பட்ட	-5443
▁புள்ளி	-5444
▁ஆக்கிரமி	-5445
▁உருவான	-5446
ee	-5447
▁வலைதளங்களில்	-5448
▁வள்ள	-5449
▁கோல	-5450
▁மோகன்	-5451
ிருப்பு	-5452
▁வேண்டி	-5453
ப்தி	-5454
▁கிண	-5455
▁தளபதி	-5456
்யா	-5457
மென்று	-5458
▁நிலம்	-5459
களுக்கும்	-5460
டிக்கு	-5461
▁முன்னோ	-5462
▁ஆட்சியர்	-5463
▁நிரந்தர	-5464
▁இணையதளத்தில்	-5465
▁பதவிய	-5466
ாலையில்	-5467
ுரிமை	-5468
▁விவகார	-5469
செய்த	-5470
▁துய	-5471
▁உத்தியோக	-5472
▁யோக	-5473
▁இல்லைய	-5474
▁ஏதேனும்	-5475
▁கொள்ளைய	-5476
▁கோர்ட	-5477
க்கடை	-5478
▁சிகிச்சைக்காக	-5479
▁உருவாகி	-5480
த்மா	-5481
▁பெருக	-5482
றது	-5483
▁மாம	-5484
த்தன்மை	-5485
▁நூறு	-5486
▁போட்டோ	-5487
▁விவாத	-5488
▁2016	-5489
சிற	-5490
▁you	-5491
▁தூக்க	-5492
▁என்னிடம்	-5493
ன்றும்	-5494
▁அளிக்கும்	-5495
▁தங்களின்	-5496
▁ஸ்மார்ட்போன்	-5497
இன்	-5498
▁யாழ்ப்ப	-5499
லாக்க	-5500
▁யெ	-5501
▁இயல்	-5502
▁செய்யப்படுகிறது	-5503
முறையை	-5504
ண்டில்	-5505
▁லு	-5506
▁கழித்து	-5507
▁மறைந்த	-5508
▁வாழ்த்த	-5509
ப்புகளில்	-5510
▁செய்துள்ள	-5511
▁பின்னால்	-5512
▁இரும்பு	-5513
▁லிட்டர்	-5514
▁ஏற்றி	-5515
▁மனிதன்	-5516
▁குளிர	-5517
▁பணியாள	-5518
▁வாகனம்	-5519
▁an	-5520
டுகளுக்கு	-5521
▁விசாரிக்க	-5522
த்திலுள்ள	-5523
▁வியாப	-5524
se	-5525
▁பார்த்தால்	-5526
▁உன்ன	-5527
▁நம்முடைய	-5528
ுகளில்	-5529
▁திறந்த	-5530
▁இங்க	-5531
பெரும்	-5532
▁வாடகை	-5533
▁உட்பட்ட	-5534
ப்பிரி	-5535
▁இடது	-5536
▁மாறாக	-5537
▁இன்றும்	-5538
ச்சத்து	-5539
வனின்	-5540
▁ஏனென்றால்	-5541
▁கதாநாயக	-5542
▁வருவதால்	-5543
▁300	-5544
▁இந்திர	-5545
▁விநிய	-5546
▁விநாயகர்	-5547
▁திண்டுக்கல்	-5548
கும்	-5549
ீப்	-5550
▁ஆதரவாக	-5551
▁என்னவெ	-5552
▁மல்ல	-5553
▁மருத்துவர்	-5554
▁இண	-5555
▁விவகாரத்தில்	-5556
பன்	-5557
▁கையெழு	-5558
▁இருப்பதை	-5559
▁பேராசிரியர்	-5560
▁அப்து	-5561
▁கந்த	-5562
▁நடிக்கும்	-5563
▁பதிவாக	-5564
▁உள்ளாட்சி	-5565
▁குடும்பத்தின	-5566
முறையில்	-5567
▁விதிமுறை	-5568
▁பணியாற்றி	-5569
▁டீசல்	-5570
பான	-5571
ின்றோம்	-5572
▁அப்பகுதியில்	-5573
iv	-5574
▁சந்தோஷ	-5575
▁காலமாக	-5576
▁காட்டிய	-5577
▁ஒப்பந்தம்	-5578
▁மேக	-5579
ருதி	-5580
▁புகாரின்	-5581
பற்றி	-5582
▁அளித்தார்	-5583
▁சிக்கி	-5584
ரிக்கும்	-5585
▁33	-5586
▁கூறுகிறார்	-5587
ும்பு	-5588
▁அதற்காக	-5589
▁லோ	-5590
மயம்	-5591
▁திசை	-5592
▁சர்மா	-5593
▁தம்பி	-5594
த்தொடர்ந்து	-5595
▁வெளிப்பட	-5596
▁மணியளவில்	-5597
▁சந்தேகம்	-5598
▁அமைப்பின்	-5599
ீங்களா	-5600
▁வட்டி	-5601
1.	-5602
ரைச்	-5603
▁அதிர்	-5604
▁ஆனந்த	-5605
ித	-5606
▁முடிவுக்கு	-5607
▁குஜராத்	-5608
▁வெட்டி	-5609
ன்பு	-5610
rom	-5611
பந்த	-5612
▁ஐரோப்பிய	-5613
ாவால்	-5614
▁சமயத்தில்	-5615
▁துர	-5616
▁உடன்ப	-5617
▁வடிவமை	-5618
ிரவு	-5619
▁வந்துள்ளார்	-5620
▁இன்றி	-5621
▁வேண்டுமான	-5622
▁தனிமை	-5623
ஜன	-5624
ேல்	-5625
▁வசதிகள்	-5626
▁எதிர்பார்ப்ப	-5627
▁நம்புக	-5628
நோய	-5629
ையன்	-5630
▁பிக்பாஸ்	-5631
▁அய	-5632
▁த்	-5633
ட்டோ	-5634
5)	-5635
ியால்	-5636
ாபி	-5637
▁வெளிச்ச	-5638
லட்சுமி	-5639
ார்களா	-5640
▁முடித்த	-5641
்கால	-5642
▁லாபம்	-5643
வைக்	-5644
▁197	-5645
▁குடும்பத்தில்	-5646
▁இயக்கிய	-5647
▁இறங்கி	-5648
▁சுற்றுச்சூ	-5649
▁உணர்	-5650
▁பாடிய	-5651
▁ஆண்கள்	-5652
▁வெளியாகும்	-5653
▁வரவில்லை	-5654
வர்த்த	-5655
ற்பு	-5656
க்கால்	-5657
▁இடி	-5658
▁வாயிலாக	-5659
▁ஏற்றுக்	-5660
ார்க்	-5661
ly	-5662
▁அணிகள்	-5663
▁நிற்கும்	-5664
▁கட்டணத்தை	-5665
▁தள்ளுபடி	-5666
ப்பற்றி	-5667
ட்ச்	-5668
▁மரணம்	-5669
▁ஏற்படுத்து	-5670
▁சிபி	-5671
ைச்	-5672
▁அதிச	-5673
வருடைய	-5674
▁இன்ஸ்பெக்டர்	-5675
▁பர்	-5676
▁எல்லோரும்	-5677
▁பாச	-5678
தித்த	-5679
ிருந்தாலும்	-5680
▁காணாமல்	-5681
▁2017	-5682
▁அதிகாரம்	-5683
▁ராக	-5684
பூர்வ	-5685
▁ஏறி	-5686
▁வருகின்றது	-5687
▁முன்பே	-5688
▁முகமது	-5689
ap	-5690
ப்பார்கள்	-5691
ங்களு	-5692
▁ஞாயிற்று	-5693
தித்து	-5694
ல்படுத்த	-5695
▁அடங்கிய	-5696
வைத்த	-5697
▁உடனுக்கு	-5698
ுகு	-5699
▁குடும்பம்	-5700
▁பணியாளர்கள்	-5701
▁ஆராய்ச்ச	-5702
▁உச்சநீதிமன்ற	-5703
வதே	-5704
▁இக்க	-5705
ருக்கான	-5706
▁மாத்திர	-5707
▁திட்டத்தில்	-5708
▁தக்காளி	-5709
▁பாலாஜி	-5710
▁நடன	-5711
▁அதிலும்	-5712
▁விஷ்ண	-5713
▁பாரதி	-5714
▁சிறுமி	-5715
▁வேலையை	-5716
▁ராம்	-5717
ஸ்கள்	-5718
▁போடு	-5719
▁சென்றது	-5720
▁முன்னிலையில்	-5721
▁சாகு	-5722
▁உருவாக்கி	-5723
▁கொடுத்தார்	-5724
▁விண்	-5725
ருள	-5726
▁மிரு	-5727
▁மேலாண்மை	-5728
▁குப்பை	-5729
▁மூன்றாம்	-5730
▁ஈழ	-5731
▁திட்டமிட	-5732
▁வெற்றிகர	-5733
▁தினசரி	-5734
▁காண்க	-5735
4.	-5736
▁விசாரித்து	-5737
ப்பட்டுள்ளார்	-5738
வுன்	-5739
▁தளத்தில்	-5740
வனுக்கு	-5741
▁வெளியிட்டுள்ளது	-5742
▁கருத்தில்	-5743
மாகத்	-5744
ிகளால்	-5745
▁கண்காணிப்பு	-5746
▁ரண	-5747
▁முடிவுகள்	-5748
▁பராமரிப்பு	-5749
▁ஸ்மார்ட்	-5750
▁பூமி	-5751
ஸ்டிக்	-5752
▁பிரேத	-5753
▁பௌ	-5754
▁சாவ	-5755
வைப்	-5756
ாலோ	-5757
▁தத்துவ	-5758
வல்	-5759
▁அதைப்	-5760
▁பெரிதும்	-5761
▁மீதும்	-5762
டனான	-5763
▁மொபைல்	-5764
▁லேச	-5765
▁சத்த	-5766
▁வாரிய	-5767
▁கூடி	-5768
வரிசை	-5769
▁நிற்ப	-5770
வில்ல	-5771
▁செய்யவும்	-5772
▁தொடங்கும்	-5773
ிக்கலாம்	-5774
▁தனுஷ்	-5775
ப்பதற்கான	-5776
▁கொள்வது	-5777
▁வசூல்	-5778
ிறை	-5779
▁கார்ட	-5780
நேரம்	-5781
▁ஊர்வ	-5782
▁உடனுக்குடன்	-5783
▁வீரா	-5784
விதமான	-5785
▁ஆல்	-5786
▁பேரூ	-5787
ண்கள்	-5788
▁வழிபாடு	-5789
ave	-5790
▁கவுன்சில	-5791
▁அறுவை	-5792
▁மஹி	-5793
▁வரையில்	-5794
மாற்ற	-5795
ாலேயே	-5796
▁ஏற்படுத்தியது	-5797
▁கமல்ஹாச	-5798
ையானது	-5799
▁சம்பளம்	-5800
▁சபா	-5801
▁வேட்பாளர்	-5802
▁மாணவிகள்	-5803
▁பிரச்சின	-5804
▁இத்தனை	-5805
▁ஜான்	-5806
ராது	-5807
▁கலந்துகொண்ட	-5808
▁டிக	-5809
▁பார்த்துக்	-5810
▁ஊக்கு	-5811
க்களில்	-5812
▁செய்வதற்கு	-5813
▁Al	-5814
▁அறிமுகமான	-5815
ராகவும்	-5816
ப்போல	-5817
மின	-5818
▁புவ	-5819
வரிடம்	-5820
ராம்	-5821
▁யாவ	-5822
▁திட்டங்களை	-5823
▁சின்	-5824
ேக்	-5825
ik	-5826
விட்டரில்	-5827
▁வாழ்க	-5828
▁இதற்கிடையே	-5829
▁கிளம்ப	-5830
:2	-5831
ஆவது	-5832
தமாக	-5833
▁எதையும்	-5834
▁சண்	-5835
▁குறுக	-5836
▁தகரா	-5837
▁வருமானம்	-5838
▁இப்	-5839
டியின்	-5840
▁பறவை	-5841
▁நயன்த	-5842
▁சிவன்	-5843
▁குழப்ப	-5844
▁தால	-5845
▁பொய்ய	-5846
ார்ட்	-5847
▁செந்த	-5848
▁மருத்துவக்	-5849
▁கோடை	-5850
▁முட்டை	-5851
▁ராமநாத	-5852
த்துக்காக	-5853
▁தியே	-5854
▁வியாழ	-5855
▁நீட்	-5856
▁தங்கி	-5857
ல்களும்	-5858
▁வண்ணம்	-5859
▁கோவி	-5860
▁சுல	-5861
ப்பொ	-5862
பான்	-5863
▁இதுவே	-5864
▁சுப்பிரமண	-5865
ிகளைப்	-5866
▁நேற்ற	-5867
▁உனக்கு	-5868
▁கூகு	-5869
▁பணிபுரி	-5870
மையின்	-5871
▁வசிக்கும்	-5872
ளைக்	-5873
▁ரை	-5874
வனும்	-5875
▁ஆட்சிய	-5876
▁சுப	-5877
▁குறைந்தபட்ச	-5878
▁மதியம்	-5879
▁இப்பொழுது	-5880
ிடமும்	-5881
▁வால்	-5882
ம்பே	-5883
▁டூ	-5884
▁தஞ்சாவ	-5885
▁எடுத்துச்	-5886
▁ரஜினிகாந்த்	-5887
▁தூர	-5888
▁வன்முறை	-5889
▁ஈடு	-5890
▁கலைஞர்	-5891
▁வழங்கப்பட்டு	-5892
▁எதி	-5893
▁வழங்கப்பட்ட	-5894
▁பிளஸ்	-5895
AT	-5896
▁கொல	-5897
▁மோசடி	-5898
▁பச	-5899
ாதது	-5900
▁முன்னெ	-5901
ளைய	-5902
▁கட்டாயம்	-5903
▁வாழை	-5904
▁வளர்க்க	-5905
▁அழகிய	-5906
ஸ்ய	-5907
ட்டுப்	-5908
ப்பெற்ற	-5909
ப்பகுதியில்	-5910
ளித்து	-5911
▁படிக்கும்	-5912
▁கிரி	-5913
▁விராட்	-5914
▁அனைவரையும்	-5915
▁நிரு	-5916
▁பள்ளிகள்	-5917
▁செய்ப	-5918
▁தேவையில்லை	-5919
4)	-5920
வனே	-5921
வசம்	-5922
▁பாடல்கள்	-5923
▁கார்த்திக்	-5924
ல்லிக்க	-5925
மிக	-5926
ுமாறு	-5927
ப்பத	-5928
▁உட்கார்	-5929
▁தொழிற்சாலை	-5930
▁செல்வம்	-5931
ஸ்ச	-5932
▁பலன்	-5933
▁கும்	-5934
▁ஹோட்ட	-5935
▁நண்பர்	-5936
▁கொண்டிருந்தார்	-5937
ெக்	-5938
▁பெரும்பான்	-5939
▁ஓட	-5940
வரில்	-5941
▁இதுதொடர்பாக	-5942
ாய்க்க	-5943
▁மோதிய	-5944
com	-5945
▁இறக்கு	-5946
ிகளைக்	-5947
▁அப்புற	-5948
▁அந்தத்	-5949
▁விழுப்புரம்	-5950
▁யுவ	-5951
▁தீர்மானம்	-5952
▁பெண்களை	-5953
ின்றேன்	-5954
hen	-5955
▁பொறுப்பே	-5956
▁வசன	-5957
▁பட்டியல்	-5958
ிக்கான	-5959
▁பட்ச	-5960
பல	-5961
▁குறிய	-5962
ட்சை	-5963
சிங்க	-5964
▁பனி	-5965
▁கய	-5966
▁கடைகள்	-5967
ுள்ளார்	-5968
▁சகல	-5969
▁யாழ்	-5970
ath	-5971
▁ஒத்தி	-5972
▁தரம்	-5973
ஜின்	-5974
▁எழுது	-5975
▁இணைக்க	-5976
▁wh	-5977
▁பள்ளிகளில்	-5978
யே	-5979
▁கொள்ளை	-5980
▁செயல்படும்	-5981
▁தொட்ட	-5982
▁பஞ்சாப்	-5983
▁விக்ரம்	-5984
▁பாதை	-5985
▁யாரு	-5986
▁Re	-5987
▁சுவார	-5988
▁ஊட்ட	-5989
னீ	-5990
▁அர்ச்ச	-5991
்களும்	-5992
க்குரிய	-5993
▁விலையை	-5994
▁சசிகலா	-5995
▁கருத்துக்களை	-5996
▁வளர்ந்த	-5997
▁முன்பாக	-5998
▁&	-5999
ண்ணிய	-6000
▁பட்ஜெட்	-6001
▁எல்லாவற்ற	-6002
▁அமைதி	-6003
ள்கள்	-6004
▁உதவுகிறது	-6005
▁ஆயு	-6006
ினாள்	-6007
வைய	-6008
▁வெள்ளிக்கிழமை	-6009
▁யில்	-6010
▁விநியோக	-6011
ோப	-6012
மறை	-6013
▁முகவ	-6014
ந்தனர்	-6015
▁தயாரிப்பாளர்	-6016
▁பூர்த்தி	-6017
▁ஆஃப்	-6018
▁கன்னியாகுமரி	-6019
ரியின்	-6020
என்ன	-6021
ணிகள்	-6022
▁லக்	-6023
▁திருவண்ண	-6024
▁மென்	-6025
▁உணர்ந்து	-6026
▁எதிர்க்கட்ச	-6027
▁அனுபவம்	-6028
▁மந்திரி	-6029
▁அதைத்	-6030
▁அறிவித்து	-6031
▁ஆணையர்	-6032
ீம்	-6033
றையின்	-6034
▁ஜோடியாக	-6035
▁by	-6036
▁ரன்	-6037
▁திறமை	-6038
▁con	-6039
ated	-6040
ிலில்	-6041
▁சாக	-6042
▁நிராக	-6043
▁வாட்ஸ்	-6044
▁கடலில்	-6045
தின்	-6046
▁முடியுமா	-6047
▁ஏமாற்ற	-6048
ீட்	-6049
▁தங்கிய	-6050
ere	-6051
▁புகை	-6052
ொள்	-6053
▁கோவிலுக்கு	-6054
▁நேரடி	-6055
▁அவனது	-6056
▁அமு	-6057
▁பகுதியாக	-6058
▁வாழ்க்கையை	-6059
ிட்டல்	-6060
லாந்து	-6061
▁போலீசில்	-6062
▁பகுதியைச்	-6063
செய்து	-6064
ட்ரா	-6065
▁ஆற்றல்	-6066
7.	-6067
▁வழங்குகிறது	-6068
▁பணியை	-6069
ud	-6070
ம்ப்	-6071
▁ராஜ்	-6072
ானை	-6073
▁வேலைக்கு	-6074
▁ஒப்புதல்	-6075
▁இருப்பதாகவும்	-6076
▁ஈடுபட	-6077
வரம்	-6078
▁லாரி	-6079
].	-6080
றல்	-6081
▁ஸ்டார்	-6082
ருங்க	-6083
▁மேம்பாட்டு	-6084
▁இவரை	-6085
▁எண்ணம்	-6086
▁சிரி	-6087
▁ஐந்த	-6088
மாக்	-6089
மில்	-6090
▁தீயணைப்பு	-6091
▁தேனி	-6092
ப்பையும்	-6093
▁ஆளும்	-6094
▁ஏனைய	-6095
க்குள்ள	-6096
▁கோல்	-6097
▁வருகிறோம்	-6098
ிருத்த	-6099
▁தலையில்	-6100
▁மேல்நிலை	-6101
▁கூறியதாவதுஃ	-6102
ப்பதால்	-6103
▁கிடைக்கிறது	-6104
▁பொலிஸார்	-6105
5-	-6106
▁பெற்றுக்	-6107
▁உயிரிழந்து	-6108
▁உபயோக	-6109
▁துற	-6110
▁தலி	-6111
சாம	-6112
▁கொன்ற	-6113
▁வேட்பாள	-6114
டுகிறார்கள்	-6115
▁பாதுகாப்பான	-6116
▁புரோ	-6117
▁எத	-6118
▁கோட்டை	-6119
ite	-6120
",	-6121
▁எளிதில்	-6122
19	-6123
ியிடம்	-6124
▁கருணாநிதி	-6125
ெட்டு	-6126
சையில்	-6127
▁சம்பள	-6128
▁நீள	-6129
வதற்கும்	-6130
வர்களிடம்	-6131
▁அதிர்ச்சியை	-6132
நேர	-6133
▁பெய்து	-6134
▁மீனா	-6135
▁நுட்ப	-6136
ப்பள்ளி	-6137
▁இப்படத்தின்	-6138
▁வேலைவாய்ப்பு	-6139
▁are	-6140
▁சிவபெ	-6141
▁டாக்ட	-6142
▁அவர்களுடைய	-6143
ாவா	-6144
▁மின்சாரம்	-6145
ப்பேட்டை	-6146
▁வற	-6147
▁வேண்டுகோ	-6148
▁பத்த	-6149
▁8.	-6150
▁செய்யுங்கள்	-6151
ீர்களா	-6152
ியடைந்த	-6153
▁பழங்கு	-6154
▁ஹா	-6155
மேஷ்	-6156
▁இவற்றை	-6157
▁மாதங்களில்	-6158
▁பன	-6159
▁நிரப்ப	-6160
ிக்கிறது	-6161
▁ஏக்கர்	-6162
▁நந்த	-6163
▁ஆஸ்திரேலியா	-6164
வாங்க	-6165
▁சங்கர்	-6166
▁தென்ன	-6167
படியே	-6168
▁ஐஸ்வர்	-6169
▁உழ	-6170
▁குறையும்	-6171
▁நிவாரண	-6172
1-	-6173
ாவிட்டால்	-6174
▁புரு	-6175
லிங்க	-6176
▁சந்தர்ப்ப	-6177
▁மறுத்து	-6178
னையாக	-6179
▁உள்ளிட்டோர்	-6180
▁ஆற	-6181
சிசி	-6182
றுப்பு	-6183
▁மரப	-6184
▁சும்	-6185
▁பந்துவீ	-6186
▁சுத்தம்	-6187
▁கரூர்	-6188
▁பிரியா	-6189
▁ஆட்டத்தில்	-6190
▁நாமக்கல்	-6191
த்திடம்	-6192
▁தெரியவந்துள்ளது	-6193
ாலம்	-6194
▁பலன	-6195
▁என்பதற்கு	-6196
▁மீனவர்கள்	-6197
▁சிற்	-6198
▁நறு	-6199
ப்படலாம்	-6200
கின்றனர்	-6201
▁குண்டு	-6202
▁பங்கேற்று	-6203
▁சனிக்கிழமை	-6204
▁கனமழை	-6205
ணியை	-6206
▁இதேபோல்	-6207
▁விஜயகா	-6208
▁மாநகர	-6209
2)	-6210
ain	-6211
▁அவருடன்	-6212
த்தூ	-6213
யி	-6214
புறம்	-6215
▁விசுவ	-6216
ம்பட்டி	-6217
ையர்	-6218
▁டிஜ	-6219
ிடையில்	-6220
▁ஹரி	-6221
▁நீரில்	-6222
▁அதிப	-6223
▁அறையில்	-6224
▁with	-6225
க்கின்	-6226
500	-6227
▁அகில	-6228
▁ஆனா	-6229
ட்டாக	-6230
▁திருக்கோ	-6231
ாளிகள்	-6232
▁பொதுச்	-6233
yle	-6234
▁கேட்டார்	-6235
முறையாக	-6236
▁குடும்பத்தினர்	-6237
முருகன்	-6238
கிர	-6239
▁அப்ட	-6240
ந்தின்	-6241
▁மூடி	-6242
▁சிந்தனை	-6243
▁முக்கியம்	-6244
மரு	-6245
ஸ்ரீ	-6246
▁முகாம்	-6247
▁டன்	-6248
▁மன்னி	-6249
▁விரோத	-6250
▁தோல்	-6251
ொழி	-6252
▁ராணி	-6253
ேந்திரன்	-6254
▁இலட்ச	-6255
பேசி	-6256
▁பிரம்ம	-6257
▁மைதானத்தில்	-6258
வர்களுக்கும்	-6259
▁Lif	-6260
க்கத்தை	-6261
▁வெட்ட	-6262
60	-6263
ா்கள்	-6264
ளைப்	-6265
▁தீபாவளி	-6266
▁உதாரணமாக	-6267
▁புத்தா	-6268
▁திருவார	-6269
▁சவால	-6270
▁சாட்ட	-6271
▁என்பதற்காக	-6272
▁கட்டட	-6273
்பெ	-6274
▁தட்டு	-6275
▁அட்	-6276
▁வாக்குறு	-6277
▁பண்ணி	-6278
ஜின	-6279
▁தில	-6280
▁மகாராஷ்ட	-6281
▁பிரித்த	-6282
தய	-6283
வேலி	-6284
▁எண்ணி	-6285
டித்தான்	-6286
▁வெளிவந்த	-6287
மில்லாமல்	-6288
▁தவிர்த்து	-6289
▁அமைப்புகள்	-6290
▁யும்	-6291
▁கோபி	-6292
▁பகிர	-6293
▁பொதுவான	-6294
▁பிரசா	-6295
▁பிரிந்து	-6296
▁Ch	-6297
▁இல்லையா	-6298
▁பிறப்பி	-6299
குவ	-6300
▁இயல	-6301
▁முறைகே	-6302
▁ரஷ்யா	-6303
▁அமெரிக்காவின்	-6304
▁ஏற்றுக்கொள்ள	-6305
▁தகவலை	-6306
▁ஊருக்கு	-6307
▁பன்னீர்செல்வ	-6308
ies	-6309
ஆக	-6310
▁பெண்ணை	-6311
ையிலான	-6312
▁உள்நாட்டு	-6313
▁முடிகிறது	-6314
▁விலகி	-6315
▁பகை	-6316
▁ரன்களை	-6317
▁10.	-6318
▁ஆப்பி	-6319
▁முடிவ	-6320
▁38	-6321
▁அதேபோல	-6322
▁பொய்	-6323
▁ஏற்படுகிறது	-6324
டுகின்றனர்	-6325
7)	-6326
ந்தான்	-6327
▁பட்டம்	-6328
▁திட்டமிட்ட	-6329
▁விண்ணப்பி	-6330
▁மாணவர்களின்	-6331
▁போராடி	-6332
ாகிர	-6333
த்துச்	-6334
▁கூலி	-6335
▁கொள்ளவும்	-6336
▁பணியிட	-6337
▁லஞ்ச	-6338
▁ஆப்க	-6339
▁வினை	-6340
▁ஆர்ப்பாட்ட	-6341
▁விளைவாக	-6342
▁இறைவன்	-6343
பய	-6344
ப்படாமல்	-6345
▁ஆதரவ	-6346
▁சொல்வது	-6347
ல்களுக்கு	-6348
▁it	-6349
▁மறுக்க	-6350
▁கதிர	-6351
▁சமையல்	-6352
▁இப்படம்	-6353
▁அங்கிருந்த	-6354
▁கடத்த	-6355
▁கழிவு	-6356
▁முடிவை	-6357
ுகிற	-6358
▁உள்துறை	-6359
▁சான்றிதழ்	-6360
▁வழக்குகள்	-6361
pr	-6362
ports	-6363
▁அணியை	-6364
▁பரிதாபமாக	-6365
▁கொள்முதல்	-6366
▁பிரித்து	-6367
▁கடற்கரை	-6368
▁எங்கு	-6369
ப்பினர்	-6370
▁ஆக்க	-6371
மாகச்	-6372
டையில்	-6373
போன்று	-6374
மையால்	-6375
▁கட்டிய	-6376
▁ஆயிரக்கணக்கான	-6377
▁குழுவினர்	-6378
ீன	-6379
ுற	-6380
▁விரும்பும்	-6381
▁from	-6382
▁நட்பு	-6383
▁புகைப்படங்கள்	-6384
▁அதுமட்டு	-6385
▁நேரி	-6386
▁ரிலீஸ்	-6387
▁பழி	-6388
▁குடிம	-6389
ங்குகிறது	-6390
▁விக்னே	-6391
▁என்பதுதான்	-6392
▁அரசியல	-6393
▁நோக்கம்	-6394
ேஸ்	-6395
▁150	-6396
▁சார்பாக	-6397
▁இதைத்	-6398
▁சந்திப்பு	-6399
கிறார்கள்	-6400
▁தம	-6401
▁this	-6402
▁ஹூ	-6403
▁78	-6404
▁மீட்பு	-6405
▁ஆலை	-6406
▁செல்போ	-6407
ீஸ்வர	-6408
▁விவசாயிகளுக்கு	-6409
▁அதிர்ஷ்ட	-6410
▁லட்சுமி	-6411
ண்டோ	-6412
▁தேடியது	-6413
▁பிரார்த்த	-6414
▁என்னால்	-6415
▁நிமிடங்கள்	-6416
▁கண்டித்து	-6417
▁இராஜ	-6418
▁வழக்கறிஞர்	-6419
ஸ்து	-6420
▁மிகச்	-6421
▁இதனைத்	-6422
▁நள்ள	-6423
▁தந்து	-6424
▁உணர்த்த	-6425
ீட்ட	-6426
▁உடற்ப	-6427
▁சம்	-6428
தின	-6429
▁சிகிச்ச	-6430
ேற்ற	-6431
▁லீக்	-6432
▁செல்வா	-6433
▁பாருங்கள்	-6434
▁இந்தியாவ	-6435
ொலை	-6436
▁அத்தனை	-6437
த்ரி	-6438
▁சிவப்பு	-6439
▁சுட்டிக்காட்ட	-6440
ேயான	-6441
▁போலீசார	-6442
▁அதோடு	-6443
ாலா	-6444
▁ரவு	-6445
பொருள்	-6446
▁அபிவிரு	-6447
▁எதிர்கொள்ள	-6448
▁அமல்படுத்த	-6449
▁not	-6450
மேச	-6451
LE	-6452
▁லா	-6453
▁கிங்	-6454
ஸ்பி	-6455
▁வரவேற்பை	-6456
▁மெட்ரோ	-6457
estyle	-6458
▁துணைத்	-6459
ாவசிய	-6460
▁மலர்	-6461
77	-6462
லாமா	-6463
ார்கள	-6464
▁பார்ப்போம்	-6465
ாமு	-6466
2-	-6467
▁இவன்	-6468
ர்ப்	-6469
மீர்	-6470
▁புத்தி	-6471
▁at	-6472
ப்பாளர்கள்	-6473
▁தோன்றும்	-6474
மீட்டர்	-6475
த்திற்குப்	-6476
▁குறிப்பு	-6477
▁முறையை	-6478
ாயின்	-6479
▁+	-6480
ரங்க	-6481
த்க	-6482
▁வகித்த	-6483
▁போனது	-6484
ச்சந்திரன்	-6485
▁கேரளா	-6486
▁அந்தச்	-6487
▁ஜோடி	-6488
ுகிறார்	-6489
▁எஞ்ச	-6490
▁வெற்றியை	-6491
▁பலம்	-6492
▁எந்தவொரு	-6493
கூட	-6494
▁போலீசா	-6495
▁காமெ	-6496
▁கண்ணன்	-6497
▁நடத்தும்	-6498
▁தொலைக்காட்சி	-6499
▁நர	-6500
▁போதிய	-6501
▁வீடுகள்	-6502
ணிக்க	-6503
▁காய்ச்சல்	-6504
▁வழிய	-6505
▁எதிர்பாராத	-6506
▁உறுதிப்படுத்த	-6507
மண்ட	-6508
▁Lifestyle	-6509
▁முகத்தில்	-6510
▁இவ்வாற	-6511
▁ஏர்	-6512
▁பெண்ணின்	-6513
▁பெறுக	-6514
▁விழி	-6515
▁பெரியார்	-6516
▁விற்பனைக்கு	-6517
ிற்காக	-6518
5.	-6519
▁நிலவு	-6520
▁தாக	-6521
▁தரமான	-6522
ஸ்டி	-6523
▁பயன்படுத்தும்	-6524
▁நெறி	-6525
9.	-6526
▁4-	-6527
▁பிரம்மா	-6528
▁வில்லை	-6529
▁சாப்பிட்ட	-6530
1)	-6531
ாட்டம்	-6532
▁சுந்தர	-6533
▁கண்டிப்பாக	-6534
▁விக	-6535
த்திற்	-6536
நிறுவ	-6537
முனை	-6538
▁5-	-6539
▁அஞ்சலி	-6540
▁இரவில்	-6541
▁சிக்	-6542
ேஸ்வர	-6543
▁இதோ	-6544
ினருக்கு	-6545
▁தூரம்	-6546
டிவி	-6547
▁பிரகாஷ்	-6548
ுவர்	-6549
டுதல்	-6550
▁ஆகையால்	-6551
ind	-6552
3.	-6553
▁அபராதம்	-6554
▁இயக்கி	-6555
▁கூகுள்	-6556
▁மாபெரும்	-6557
▁ரஷ	-6558
▁ப்ரோ	-6559
மாற்றம்	-6560
▁போற	-6561
▁காயமடைந்த	-6562
▁அம்பானி	-6563
..!	-6564
▁சேன	-6565
ீத	-6566
▁ஷூ	-6567
▁புலம்ப	-6568
▁புறப்பட்டு	-6569
▁சிக	-6570
▁தேவி	-6571
▁நன்	-6572
மங்கலம்	-6573
MP	-6574
பாத	-6575
▁கட்டுப்பாட்டு	-6576
ூறு	-6577
▁ஞாயிற்றுக்கிழமை	-6578
▁நிலைக்கு	-6579
வேண்டு	-6580
▁தங்களை	-6581
▁பாபு	-6582
▁வலது	-6583
▁துறையினர்	-6584
வற்று	-6585
▁Sports	-6586
▁ஷெ	-6587
▁செயலாள	-6588
▁செயற்கை	-6589
▁பாரதிய	-6590
▁தஞ்சை	-6591
▁வெங்கட	-6592
▁இப்படத்தில்	-6593
▁தூங்க	-6594
▁பொதுச்செய	-6595
▁உக்ரைன்	-6596
▁ஆனந்த்	-6597
▁காட்டும்	-6598
▁மனோ	-6599
▁வீதி	-6600
▁நெடுஞ்சாலை	-6601
▁படுத்து	-6602
▁that	-6603
▁கோய	-6604
த்தன்று	-6605
ையற்ற	-6606
▁ஒத்த	-6607
▁செல்போன்	-6608
களைச்	-6609
▁பரவல்	-6610
▁வாகனத்தில்	-6611
▁10-	-6612
▁சுவாம	-6613
▁எதிர்க்கட்சி	-6614
AS	-6615
▁பேசு	-6616
▁ஜெக	-6617
க்காடு	-6618
▁ரிஷ	-6619
-19	-6620
▁விஜய்ய	-6621
▁பாண்டியன்	-6622
னைத்	-6623
▁வழக்கமான	-6624
▁மட்டுமல்லாமல்	-6625
▁மோத	-6626
▁மறுநாள்	-6627
லெ	-6628
▁ஏதும்	-6629
ாரே	-6630
▁காணப்படுகிறது	-6631
புரத்தில்	-6632
▁கோர	-6633
லையில்	-6634
ிகேயன்	-6635
ீழ	-6636
ஹு	-6637
ine	-6638
▁பேரவைத்	-6639
▁மக்களும்	-6640
▁உயிரிழந்தார்	-6641
டனே	-6642
தல்ல	-6643
▁செல்வது	-6644
▁கொட்ட	-6645
ov	-6646
▁சீனி	-6647
▁மாறும்	-6648
க்குமாறு	-6649
▁பிராந்திய	-6650
ப்பழ	-6651
▁வேளை	-6652
▁முன்னால்	-6653
▁சாப்பிட்டு	-6654
ant	-6655
ன்கிழமை	-6656
▁மக்களிடம்	-6657
ூரி	-6658
▁டிஜிட்டல்	-6659
▁அச்சுறுத்த	-6660
▁அணிந்த	-6661
ந்தரம்	-6662
▁நீலக	-6663
▁குடித்து	-6664
த்துக்குப்	-6665
IS	-6666
3-	-6667
ப்பட்டதாக	-6668
▁ரிச	-6669
▁கையா	-6670
ச்செ	-6671
▁குறைந்தது	-6672
▁அப்பொழுது	-6673
ல்களின்	-6674
▁யுத்த	-6675
▁காரின்	-6676
age	-6677
▁Th	-6678
▁மும்	-6679
▁தயாரித்து	-6680
▁கொடிய	-6681
ப்பட்டால்	-6682
▁உங்களின்	-6683
▁இடங்கள்	-6684
▁விஷயங்கள்	-6685
▁ஊற்றி	-6686
▁வருவதற்கு	-6687
▁விவரங்கள்	-6688
ியோகம்	-6689
▁இடையிலான	-6690
▁முன்னெடுக்க	-6691
பவ	-6692
▁கண்டன	-6693
▁அருண்	-6694
▁தொகையை	-6695
ர்களான	-6696
▁அரசியலில்	-6697
▁நியூசில	-6698
▁தேர்ச்சி	-6699
▁தெரிவிக்கின்றன	-6700
▁புலன	-6701
▁கொல்க	-6702
▁அன்றைய	-6703
▁In	-6704
▁விஷயத்தில்	-6705
▁படைத்த	-6706
ுகளுக்கு	-6707
ல்கா	-6708
ம்மு	-6709
▁9.	-6710
▁பள்ளிக்க	-6711
▁ஏற்பாடுகளை	-6712
ரர்	-6713
▁ஏற்றுமதி	-6714
▁அடுத்தடுத்து	-6715
ழிக்க	-6716
▁வைட்ட	-6717
▁ஊட	-6718
▁ஷி	-6719
▁தைரிய	-6720
▁விதமான	-6721
▁வீடுகளில்	-6722
▁இயல்பு	-6723
▁வாழ்வில்	-6724
▁ஆஸ்பத்திர	-6725
▁அப்பகுதி	-6726
ail	-6727
▁சனி	-6728
▁மானிய	-6729
ாக்ஸ்	-6730
▁இத்திட்ட	-6731
▁37	-6732
ென்ப	-6733
▁வேளாண்மை	-6734
▁பழு	-6735
▁பெண்களின்	-6736
த்தொகை	-6737
க்குறை	-6738
▁இணைந்த	-6739
▁கன்	-6740
▁முதலமைச்ச	-6741
6.	-6742
பலி	-6743
▁பதவ	-6744
▁புதுக்கோட்டை	-6745
ோகன்	-6746
ww	-6747
▁அமைச்சகம்	-6748
▁கோயிலில்	-6749
▁தொழிலாளர்	-6750
▁6-	-6751
▁நாளாக	-6752
▁அமித்	-6753
ரூப	-6754
▁Mo	-6755
▁கொண்டிருப்ப	-6756
TE	-6757
வேண்ட	-6758
▁St	-6759
▁TV	-6760
▁ஒருவேளை	-6761
▁முழுமையான	-6762
▁களத்தில்	-6763
யிற்சி	-6764
▁மாற்றங்கள்	-6765
▁கருத்தை	-6766
ழைய	-6767
▁பெருந்த	-6768
▁சைக்கிள்	-6769
▁அடிப்படையாக	-6770
ுறவு	-6771
▁துறைமுக	-6772
▁சௌ	-6773
▁சாய்	-6774
▁சரக்கு	-6775
▁பிரிட்ட	-6776
▁காஞ்சிபுரம்	-6777
▁பண்ணுங்க	-6778
ெண்ண	-6779
ear	-6780
▁வரவேற்க	-6781
▁ஏற்படுத்திய	-6782
▁சிறுநீ	-6783
▁கமிஷ	-6784
▁பேட்டிங்	-6785
▁உண்டா	-6786
▁சத்தம்	-6787
6)	-6788
▁ஏற்படு	-6789
▁கட்டத்தில்	-6790
னியில்	-6791
▁பதவியை	-6792
▁அவளுக்கு	-6793
▁ஆட்டமிழ	-6794
ight	-6795
▁விரைவாக	-6796
▁விஷயங்களை	-6797
▁தாவர	-6798
▁ஆபத்து	-6799
ிருக்கிறோம்	-6800
▁ரகு	-6801
▁ஆதார்	-6802
▁இண்ட	-6803
▁உண்மையை	-6804
▁புயல்	-6805
▁ஜென	-6806
என	-6807
▁விட்டனர்	-6808
ஸ்புக்	-6809
▁தோன்றிய	-6810
▁பிளாஸ்டிக்	-6811
▁இன்ஸ்டாகிர	-6812
லிங்கம்	-6813
▁வருவதாகவும்	-6814
▁ஆள்	-6815
ூா்	-6816
▁வேகத்தில்	-6817
▁முன்பதி	-6818
க்கல்ல	-6819
202	-6820
▁ஜாம	-6821
▁பிடிக்கும்	-6822
முடியும்	-6823
▁ப்ள	-6824
சாக	-6825
சியம்	-6826
▁நூற்று	-6827
க்ட	-6828
▁நிகழ்த்த	-6829
▁பாம	-6830
எல்ஏ	-6831
▁எங்கும்	-6832
▁வித்தியாசத்தில்	-6833
▁எடுத்துக்கா	-6834
தமிழ	-6835
தொரு	-6836
▁ஜாத	-6837
பவர்கள்	-6838
▁உறை	-6839
▁மணல்	-6840
ide	-6841
▁மேயர்	-6842
ெந்த	-6843
▁ராமநாதபுரம்	-6844
துறை	-6845
▁பாடசாலை	-6846
▁குறைவு	-6847
▁ஒழி	-6848
ிருக்கின்றனர்	-6849
ட்டையில்	-6850
▁இயங்க	-6851
▁பெறலாம்	-6852
▁மந்த	-6853
▁ராஜஸ்தான்	-6854
▁தாக்கம்	-6855
▁இயங்கும்	-6856
▁நீர்ம	-6857
▁பரிசீ	-6858
▁வின்	-6859
▁வேளையில்	-6860
ியம்மன்	-6861
த்தேர்த	-6862
▁குறுகிய	-6863
ானிய	-6864
▁சமாள	-6865
திப	-6866
▁தரவு	-6867
▁கழகம்	-6868
▁பண்	-6869
▁போன்றவற்ற	-6870
▁கனக	-6871
▁வழக்கமாக	-6872
▁அறிவிக்கப்பட்ட	-6873
▁1000	-6874
ாவிய	-6875
3)	-6876
▁ரங்க	-6877
▁இளவ	-6878
ாயிரம்	-6879
▁தொல்லை	-6880
▁தெளிவு	-6881
▁போதிலும்	-6882
லங்க	-6883
ின்றார்கள்	-6884
வாகும்	-6885
▁கலந்துரையா	-6886
▁34	-6887
▁ஜெர்ம	-6888
▁போக்க	-6889
ரசன்	-6890
▁பயனு	-6891
ாரில்	-6892
டன	-6893
▁பணிபு	-6894
▁பாக்கிய	-6895
▁கும்பல்	-6896
▁செய்யப்பட்டார்	-6897
▁விற	-6898
ையிலேயே	-6899
▁பலியான	-6900
Ah	-6901
கரண	-6902
▁பூர்	-6903
▁3,	-6904
ுகா	-6905
▁கட்டமை	-6906
▁சுவை	-6907
▁நடத்தப்படும்	-6908
ர்தான்	-6909
▁திரும்பிய	-6910
▁உதயநிதி	-6911
▁காது	-6912
▁முல்லை	-6913
த்தெ	-6914
▁நயன்தாரா	-6915
▁கூட்டமை	-6916
▁அமைப்புக	-6917
..."	-6918
ியாளர்	-6919
▁வரலாற்றில்	-6920
▁குழந்தையை	-6921
▁ஸ்டை	-6922
▁தாக்கி	-6923
▁விடுக்க	-6924
▁பிரச்சினைகள்	-6925
▁வருவாய	-6926
▁சான்று	-6927
▁எக்ஸ்ப	-6928
நூல்	-6929
▁என்பன	-6930
க்கலை	-6931
▁ஃபா	-6932
க்கொண்டார்	-6933
▁பகுதிகள்	-6934
▁உள்ளதால்	-6935
ப்பட்டிருந்தது	-6936
▁சும்மா	-6937
▁காணோம்	-6938
▁கோப்ப	-6939
▁கொழும்பு	-6940
▁தொடரும்	-6941
▁தஞ்சாவூர்	-6942
▁அலி	-6943
ீட்டில்	-6944
▁மரம்	-6945
ப்பாத	-6946
▁பைக்	-6947
▁சிம்பு	-6948
▁தர்	-6949
▁என்னென்ன	-6950
▁எம்எல்ஏ	-6951
▁தாழ	-6952
ணியின்	-6953
▁வழிகாட்டு	-6954
மனம்	-6955
▁ஜோதி	-6956
▁ஒருவருக்கு	-6957
▁கோட	-6958
▁இருவர்	-6959
▁திருவண்ணாமலை	-6960
ட்களை	-6961
▁மூச்சு	-6962
வரையில்	-6963
!!!	-6964
▁வயிற்று	-6965
▁நேரு	-6966
▁ரம்	-6967
▁நடித்துள்ள	-6968
▁சாம்பியன்	-6969
▁சிறுக	-6970
▁பேரி	-6971
▁பூச	-6972
ாமலும்	-6973
ன்னும்	-6974
▁சாப்பிடு	-6975
▁திணை	-6976
▁ஏழ	-6977
▁ஈர	-6978
▁இதர	-6979
▁செய்திகளை	-6980
மென்	-6981
▁அவர்கள	-6982
மிடம்	-6983
ாதன	-6984
▁மாநாடு	-6985
▁மோக	-6986
மிர	-6987
▁ரயில்களில்	-6988
▁ஊக்க	-6989
▁பத்திரிகை	-6990
▁அவற்றில்	-6991
▁படப்பிடி	-6992
▁தேசியக்	-6993
▁டிரைவர்	-6994
▁சரவணன்	-6995
▁அதுவே	-6996
வையாக	-6997
▁அண்மை	-6998
▁அதிகபட்சமாக	-6999
ரையை	-7000
▁தலைமுறை	-7001
▁தமிழர்கள்	-7002
க்கணி	-7003
▁கிடைக்கவில்லை	-7004
▁அசோ	-7005
▁இந்தியாவுக்கு	-7006
▁வலிமை	-7007
▁இருக்கின்றது	-7008
விட்டன	-7009
ென்க	-7010
ப்பொருள்	-7011
oll	-7012
ேயும்	-7013
▁படக	-7014
▁நீக்கி	-7015
▁சிவச	-7016
▁கஞ்சா	-7017
▁ரேஷன்	-7018
▁விருப்பம்	-7019
▁அதிரு	-7020
▁ஆஸ்பத்திரி	-7021
▁1-	-7022
ந்துள்ளன	-7023
▁சேதுபதி	-7024
ாவே	-7025
▁ஓரி	-7026
▁எச்	-7027
▁போன்றவற்றை	-7028
▁சுற்றுச்சூழல்	-7029
▁டாப்	-7030
ருமான்	-7031
▁ஆளுந	-7032
▁அறிவித்தார்	-7033
▁போதே	-7034
▁கடைப்பி	-7035
▁கைவிட	-7036
▁விஷ்ணு	-7037
ல்களையும்	-7038
ங்களுக்கான	-7039
▁பாதையில்	-7040
▁நகைச்சுவ	-7041
▁ஐஸ்வர்யா	-7042
▁உரிமைகள்	-7043
▁துறையின்	-7044
▁வாங்குவ	-7045
ா்ப	-7046
▁கூறினர்	-7047
வாரி	-7048
ானு	-7049
▁மோதல்	-7050
▁சம்பவங்கள்	-7051
▁சேர்ந்தவர்கள்	-7052
ம்கள்	-7053
▁ஆற்றில்	-7054
க்குறிச்சி	-7055
ஸர்	-7056
வருடன்	-7057
ப்புடன்	-7058
▁ஆப்பிள்	-7059
விரோத	-7060
▁தேன்	-7061
வேலு	-7062
ொருவர்	-7063
▁தேர்வில்	-7064
ஷ்டி	-7065
▁சிற்ப	-7066
▁நிரூப	-7067
விலும்	-7068
▁முயற்சியில்	-7069
mAh	-7070
மிய	-7071
வுக	-7072
▁கைப்பற்றி	-7073
▁தூண்ட	-7074
▁சிவகார்த்த	-7075
▁கொடுமை	-7076
▁திரைப்படத்தில்	-7077
க்கும்போது	-7078
▁நடிகர்கள்	-7079
வண	-7080
▁அத்தியாவசிய	-7081
ப்பகு	-7082
▁என்றாள்	-7083
▁சிதை	-7084
▁கர்த்த	-7085
▁எச்சரிக்க	-7086
ore	-7087
சக்கர	-7088
மென்ட்	-7089
▁கட்சியில்	-7090
பாளையம்	-7091
▁போற்ற	-7092
ராத	-7093
▁இடைவெ	-7094
ேர்	-7095
▁வீச்ச	-7096
▁மாட்டார்கள்	-7097
▁பொருட்டு	-7098
▁கச	-7099
▁இளம்பெ	-7100
ாவாக	-7101
▁கடத்தி	-7102
▁வழிமுறை	-7103
லகம்	-7104
▁குழந்தைகளை	-7105
▁அடிமை	-7106
▁நாளுக்கு	-7107
ளாக்	-7108
ெயர்	-7109
ரைத்	-7110
▁செலவில்	-7111
▁இடங்களுக்கு	-7112
சமான	-7113
வோர்	-7114
▁பாய்	-7115
▁வருடங்களுக்கு	-7116
▁as	-7117
▁வர்க்க	-7118
▁குதிரை	-7119
சுக	-7120
▁புதை	-7121
▁செய்யவில்லை	-7122
▁கொண்டிருந்தது	-7123
▁விரும்புவ	-7124
▁வந்தன	-7125
▁படிப்படியாக	-7126
▁எடுக்கப்பட்ட	-7127
▁முட்ட	-7128
ம்போ	-7129
▁காக்க	-7130
றித்த	-7131
▁வேண்டுமென	-7132
▁he	-7133
▁திருநெல்	-7134
மையா	-7135
▁தேட	-7136
▁மீள	-7137
▁நலம்	-7138
வனாக	-7139
▁அடுக்கு	-7140
ps	-7141
▁தென்ப	-7142
▁உருவாகும்	-7143
▁மாதங்கள்	-7144
▁இருவருக்கும்	-7145
▁குடிக்க	-7146
ேசு	-7147
▁அரவி	-7148
▁இருந்ததால்	-7149
▁கிளி	-7150
வடி	-7151
▁பச்ச	-7152
▁பலி	-7153
▁வரையிலான	-7154
▁தடு	-7155
▁அதைக்	-7156
iy	-7157
▁பாப	-7158
▁மாஸ்டர்	-7159
▁சிறுவன்	-7160
▁அழிக்க	-7161
▁ரச	-7162
டுகிற	-7163
▁பொறியியல்	-7164
▁தயாரிக்கும்	-7165
▁கிளா	-7166
▁தரப்பின	-7167
வேத	-7168
▁கடைய	-7169
▁மதிக்க	-7170
▁கப்பல்	-7171
▁கம்யூனிஸ்ட்	-7172
▁இந்நிக	-7173
▁உள்ளவர்கள்	-7174
▁கிய	-7175
▁காத்து	-7176
▁புரட்சி	-7177
லக்	-7178
▁பன்	-7179
க்குழுவ	-7180
▁சுருக்க	-7181
▁மென்ப	-7182
▁கோவிட்	-7183
புற	-7184
▁அண்ணன்	-7185
▁கமல்ஹாசன்	-7186
க்குமா	-7187
ிண	-7188
▁55	-7189
▁செயல்பட்ட	-7190
▁நாத	-7191
ப்புக்	-7192
▁என்கிறார்கள்	-7193
▁பங்கேற்றனர்	-7194
ாயில்	-7195
?'	-7196
▁மாரி	-7197
ord	-7198
▁அதிரடியாக	-7199
▁தடைய	-7200
▁உடலுக்கு	-7201
▁பவுண்ட	-7202
▁சீர்க	-7203
ணயம்	-7204
ண்ணா	-7205
▁நடைபெறவு	-7206
▁நடத்தப்பட்ட	-7207
▁பத்ம	-7208
▁ஆண்டின்	-7209
▁கேள்விக்கு	-7210
நகரில்	-7211
▁தரி	-7212
ல்லிய	-7213
ன்றே	-7214
▁சீச	-7215
தோறும்	-7216
▁சேரும்	-7217
▁முன்க	-7218
ேஷன்	-7219
ட்டிற்கு	-7220
▁மாசு	-7221
▁மதம்	-7222
▁ஆடிய	-7223
▁தானிய	-7224
விட்டதாக	-7225
த்தலைவர்	-7226
▁``	-7227
▁அலுவலர்கள்	-7228
ினு	-7229
▁புதுட	-7230
▁கோபம்	-7231
வருமான	-7232
▁கருதப்படுகிறது	-7233
्य	-7234
▁ரமேஷ்	-7235
▁கருதுக	-7236
▁பெர்	-7237
சோதா	-7238
▁மிளக	-7239
▁சட்டசபை	-7240
▁சேவைகள்	-7241
▁தில்	-7242
▁பழக்கம்	-7243
▁ஆளாக	-7244
▁வெடி	-7245
▁ஜியோ	-7246
▁அந்தந்த	-7247
▁ஹிட்	-7248
▁உடைத்து	-7249
▁துணைய	-7250
மத	-7251
▁அரசியல்வாத	-7252
▁இல்லாததால்	-7253
▁சீசன்	-7254
குது	-7255
▁வடிக	-7256
னையின்	-7257
▁நாச	-7258
▁அர்ஜு	-7259
ct	-7260
வைச்	-7261
▁நகரம்	-7262
▁வயத	-7263
▁பிரமா	-7264
▁நிலையான	-7265
▁குளிர்	-7266
▁தெரிவித்துள்ள	-7267
▁ஆட்சிக்கு	-7268
▁இங்கிலா	-7269
▁சிதம்பரம்	-7270
▁செய்துகொண்ட	-7271
பீ	-7272
▁அரண்	-7273
நான	-7274
▁2009	-7275
▁பக்தர்களுக்கு	-7276
▁தடுப்பூச	-7277
▁கொண்டாடி	-7278
▁கடைசியாக	-7279
▁மீன்பி	-7280
▁அமைக்கப்பட்ட	-7281
ையார்	-7282
▁ஒன்றி	-7283
▁சூழ்நிலையில்	-7284
▁வழிப	-7285
▁அறிவுரை	-7286
▁கதையை	-7287
▁விரிவு	-7288
▁அல்லாஹ்	-7289
ial	-7290
▁வேறுபா	-7291
▁விவரம்	-7292
8.	-7293
▁துள	-7294
▁தப்ப	-7295
ந்தோறும்	-7296
சூர்	-7297
ங்குகளில்	-7298
▁எங்களை	-7299
ங்கட	-7300
ழுக	-7301
▁பாண்டிய	-7302
▁காட்டிலும்	-7303
▁எதிர்பார்ப்பு	-7304
ப்பணி	-7305
▁எந்தவித	-7306
▁நெருங்கிய	-7307
▁வாரியம்	-7308
▁தொலைவில்	-7309
▁வாங்கும்	-7310
▁வழங்கப்பட	-7311
▁சங்கத்தின்	-7312
▁விருதுநகர்	-7313
▁மடங்கு	-7314
▁கண்ணீர்	-7315
▁யாருக்கும்	-7316
▁கிடைத்து	-7317
▁ஆப்பிரிக்க	-7318
ராட்சியில்	-7319
ீவ்	-7320
ரவு	-7321
▁சித்திர	-7322
▁உபகரண	-7323
▁மணிக	-7324
▁ராய்	-7325
▁கர்நாட	-7326
▁கோட்ப	-7327
▁இயங்கி	-7328
▁நீரா	-7329
▁உதவியுடன்	-7330
ரிக்கப்பட்ட	-7331
▁கொன்று	-7332
▁தேங்காய்	-7333
▁கொள்கிறேன்	-7334
▁65	-7335
▁மதுரையில்	-7336
▁பாலிவுட்	-7337
▁மௌ	-7338
▁விகித	-7339
▁விளையாடிய	-7340
▁விபர	-7341
▁அறியலாம்	-7342
▁நடுத்த	-7343
▁தேர்தலை	-7344
▁வீசிய	-7345
▁உக	-7346
ீழ்	-7347
▁வியாபாரம்	-7348
▁காலகட்டத்தில்	-7349
▁குற்றம்சா	-7350
▁அர்த்தம்	-7351
tt	-7352
▁என்னவென்றால்	-7353
மீக	-7354
▁பயன்பா	-7355
▁போலீசாருக்கு	-7356
▁ஈஷா	-7357
ச்சாமி	-7358
:00	-7359
▁இருக்கிறோம்	-7360
▁குழந்தையின்	-7361
8)	-7362
▁நிறம்	-7363
▁வேண்டுமா	-7364
▁ஆபாச	-7365
வல்ல	-7366
▁நடத்தப்பட்டது	-7367
▁தூய்மை	-7368
▁குத்த	-7369
▁ஆய்வாளர்	-7370
▁ஃப்	-7371
▁CA	-7372
▁தியான	-7373
▁காட்சிய	-7374
▁வாலிப	-7375
ப்படுகிற	-7376
சின்	-7377
்திற	-7378
▁மேற்கண்ட	-7379
▁ஆடு	-7380
▁நாராயண	-7381
▁கலாச்சார	-7382
▁நெய்	-7383
▁ஆரம்பத்தில்	-7384
▁கருத்த	-7385
ர்டு	-7386
▁ஒன்பது	-7387
▁அவர்களே	-7388
கொள்	-7389
▁பென்	-7390
▁ராஜபக்ச	-7391
▁தகராறு	-7392
▁42	-7393
▁வயதுக்கு	-7394
▁வெட்டு	-7395
▁உத்தரவிட	-7396
களுக்கான	-7397
▁தலைநகர்	-7398
▁சாகுபடி	-7399
▁மருத்துவம்	-7400
▁அவனுடைய	-7401
த்துக்குள்	-7402
▁வான்	-7403
▁எதிர்வரும்	-7404
▁196	-7405
நிறு	-7406
▁வேடிக்க	-7407
▁சிலருக்கு	-7408
சியின்	-7409
▁கேரளாவில்	-7410
ச்சிற	-7411
▁அமைதியாக	-7412
ரிஸ்	-7413
காசம்	-7414
▁பிரான்	-7415
▁ஆண்டுக்கு	-7416
▁இருக்கிறேன்	-7417
▁பதிவில்	-7418
▁விவரங்களை	-7419
▁ஒருபோதும்	-7420
▁விவாதிக்க	-7421
▁தவி	-7422
▁பின்த	-7423
▁ரோடு	-7424
▁கார்டு	-7425
ld	-7426
மைக்	-7427
▁நடிக்கிறார்	-7428
▁பகுதிக்கு	-7429
qu	-7430
ப்பட்டிருந்த	-7431
▁மதிய	-7432
▁நபி	-7433
▁புதன்கிழமை	-7434
▁தொடர்க	-7435
▁கடைபி	-7436
▁79	-7437
ையில	-7438
▁நிம்ம	-7439
சாரி	-7440
த்துறையினர்	-7441
ங்களுக்காக	-7442
▁விவாக	-7443
▁இருப்பார்கள்	-7444
▁அப்படிய	-7445
▁கொடூர	-7446
▁உரிமையாள	-7447
ிருக்கின்றது	-7448
▁மாதங்களாக	-7449
▁கிரா	-7450
கிருஷ்ணன்	-7451
▁சமா	-7452
ian	-7453
லத்தை	-7454
▁இறக்குமதி	-7455
ப்பதும்	-7456
தானே	-7457
▁கூறுகிறது	-7458
▁சுகாதாரத்துறை	-7459
▁புய	-7460
ள்ளோம்	-7461
▁கவனமாக	-7462
▁புகுந்து	-7463
▁பூங்க	-7464
7-	-7465
தனால்	-7466
▁ரிலீ	-7467
▁டய	-7468
மையுடன்	-7469
▁பற்றாக்கு	-7470
▁இனிய	-7471
▁வாரத்தில்	-7472
வாதி	-7473
▁முக்கியமாக	-7474
கின்ற	-7475
▁ஒழிப்பு	-7476
்கூட	-7477
▁வெற்றிகரமாக	-7478
▁வாய்ப்புள்ளது	-7479
▁அடைந்தனர்	-7480
.2	-7481
▁அளவை	-7482
▁சுட்டு	-7483
▁அலங்கார	-7484
ியாகவும்	-7485
▁சைவ	-7486
▁முதுக	-7487
▁துரோ	-7488
ளுள்	-7489
▁தமிழ்த்	-7490
▁குறைத்து	-7491
ம்பை	-7492
▁தளம்	-7493
▁அனுப்பிய	-7494
▁எய	-7495
லாமல்	-7496
▁சிவகங்கை	-7497
ாதனை	-7498
ர்த்	-7499
▁இதைப்	-7500
ாமன்	-7501
▁என்னப்பா	-7502
ியாளர்கள்	-7503
ப்படுவார்கள்	-7504
▁வந்தாலும்	-7505
▁நிபந்த	-7506
▁நாகர்க	-7507
▁கல்யாண	-7508
▁அமர	-7509
▁ஜிபி	-7510
லைத்	-7511
▁நோட்ட	-7512
▁வரவ	-7513
▁ஒற்றை	-7514
ல்லாம்	-7515
ருளி	-7516
▁வல்லு	-7517
▁பவானி	-7518
▁தரை	-7519
▁அமைப்பை	-7520
▁டாடா	-7521
▁பன்னீர்செல்வம்	-7522
▁விமர்சனம்	-7523
ah	-7524
ியாகும்	-7525
வியின்	-7526
▁பழக	-7527
நாயக்க	-7528
▁எலெக்ட்	-7529
▁உங்களுடைய	-7530
▁ல்	-7531
▁மொழிகளில்	-7532
▁நஷ்ட	-7533
▁ஆவது	-7534
▁எக்ஸ்	-7535
சுக்கு	-7536
த்தாலும்	-7537
▁நிலையத்திற்கு	-7538
ளித்தார்	-7539
ாரோ	-7540
ுகளும்	-7541
atest	-7542
▁பருவமழை	-7543
▁போகிறது	-7544
▁தாக்கிய	-7545
▁சிறுபான்	-7546
▁பவர்	-7547
▁பிரபாக	-7548
▁அரசுப்	-7549
ஞர்கள்	-7550
▁அதுதான்	-7551
▁பெற்றோர்கள்	-7552
▁வரிசை	-7553
லோக	-7554
▁எண்ணெய	-7555
▁இந்தியாவை	-7556
▁வளர்த்து	-7557
▁சரண	-7558
▁Movi	-7559
▁உருவாக்கிய	-7560
▁சொகு	-7561
▁சிக்கல்	-7562
▁தூத	-7563
▁சூடு	-7564
▁தாயார்	-7565
▁கூறுகின்றனர்	-7566
▁சிறுத்தை	-7567
▁தங்களுடைய	-7568
▁ஏற்பட்டுள்ள	-7569
▁அம்சங்கள்	-7570
▁நீல	-7571
▁பில்லியன்	-7572
▁விரிவான	-7573
▁முன்னேற்றம்	-7574
▁பாதுகாப்பாக	-7575
▁இந்தநிலையில்	-7576
ேட்டை	-7577
அப்	-7578
▁மாறிய	-7579
▁விந	-7580
Tamil	-7581
▁கிருஷ்ணகிரி	-7582
▁அபிஷேகம்	-7583
▁களில்	-7584
▁வீண	-7585
▁அமைச்சரவை	-7586
▁மாட்டேன்	-7587
▁மேற்கொள்	-7588
▁திருவாரூர்	-7589
▁சிங்கப்பூர்	-7590
▁கண்ணாடி	-7591
▁நிரம்ப	-7592
ish	-7593
▁கூட்டணியில்	-7594
▁கண்கள்	-7595
▁புதுவை	-7596
▁புகழ்பெ	-7597
ொளி	-7598
▁வருவதை	-7599
▁தொலைபேசி	-7600
▁சத்ய	-7601
▁விரிவாக	-7602
▁மேற்பட்டோர்	-7603
▁முதலான	-7604
▁கண்டனம்	-7605
▁அபிவிருத்தி	-7606
▁நாளும்	-7607
▁விளங்கும்	-7608
▁நினைவில்	-7609
▁இலங்கையின்	-7610
டித்தது	-7611
▁400	-7612
ப்படுத்திய	-7613
LA	-7614
▁முயற்சிகள்	-7615
▁அமில	-7616
▁உத்தரவிட்டார்	-7617
▁சிலி	-7618
▁வயிற்ற	-7619
▁கார்ப	-7620
கல	-7621
▁நியூசிலாந்து	-7622
ال	-7623
▁மிகக்	-7624
▁பெரம்ப	-7625
▁பணிகளில்	-7626
▁பாடம்	-7627
▁தென்னி	-7628
ுகை	-7629
6-	-7630
▁எத்த	-7631
▁பூச்ச	-7632
க்காரர்கள்	-7633
▁நெருக்கடி	-7634
▁வழங்கு	-7635
ப்பற்ற	-7636
▁முன்பதிவு	-7637
▁வரும்போது	-7638
▁சூரியன்	-7639
▁சைக்கிளில்	-7640
▁பரவலாக	-7641
▁அத்து	-7642
த்துக்கான	-7643
மாநில	-7644
▁அமைக்கும்	-7645
▁குடியிருப்ப	-7646
▁இருசக்கர	-7647
▁கிளிக்	-7648
▁இழப்ப	-7649
▁ஓவரில்	-7650
▁போலீஸ	-7651
▁லூ	-7652
▁விக்கிர	-7653
▁கடையில்	-7654
▁வேலையில்	-7655
ந்திரா	-7656
ital	-7657
▁செயலி	-7658
▁நிகழ்ச்சிகள்	-7659
▁மைக்	-7660
்க்கும்	-7661
▁நலன்	-7662
▁நீரை	-7663
▁மீத	-7664
//	-7665
வலி	-7666
ஷிப்	-7667
one	-7668
▁வெளிப்படையாக	-7669
▁உலகக்	-7670
▁பகல்	-7671
▁ஜனாதிப	-7672
▁கடைகளில்	-7673
▁சுரங்க	-7674
▁வெண்ண	-7675
ச்சல	-7676
▁வீசி	-7677
▁ஒலிம்ப	-7678
▁சென்றுள்ளார்	-7679
ஃபி	-7680
ர்களைக்	-7681
▁நாளைக்கு	-7682
▁தட்ட	-7683
▁பிரச்சார	-7684
CT	-7685
▁கோரிக்கைகளை	-7686
▁ஆண்ட்	-7687
▁வழக்குப்	-7688
▁பாதிக்கப்பட்டு	-7689
▁செய்தல்	-7690
▁திருப்பதி	-7691
ஜே	-7692
▁தேய	-7693
▁பிரம்மாண்ட	-7694
வியா	-7695
▁பொருளை	-7696
▁அவரும்	-7697
ோருக்கு	-7698
▁அளித்துள்ளார்	-7699
▁சட்டத்தை	-7700
▁அரசை	-7701
ளியை	-7702
▁இல்லையே	-7703
தராபாத்	-7704
▁TC	-7705
▁குழுவ	-7706
ர்களுக்கான	-7707
▁பிராம	-7708
▁2015	-7709
▁கூட்டத்தையே	-7710
▁ஊதிய	-7711
▁புராண	-7712
▁மறுபடியும்	-7713
▁குடியே	-7714
▁தெரிந்தது	-7715
▁நெரிச	-7716
▁39	-7717
▁கையாள	-7718
கரன்	-7719
▁பிலி	-7720
▁நீரி	-7721
lic	-7722
▁போட்டியிட	-7723
▁சூர்ய	-7724
▁இடத்துக்கு	-7725
▁வாய்ப்பை	-7726
ெர்	-7727
மானம்	-7728
தாய்	-7729
▁யோகி	-7730
▁கூறப்பட்டது	-7731
12	-7732
திகளுக்கு	-7733
▁சட்டவிரோத	-7734
▁தொகுப்பு	-7735
▁வீராங்க	-7736
▁வெளியுறவு	-7737
▁சொல்லிக்	-7738
ாபிஷ	-7739
பாக	-7740
ம்ச	-7741
ிருந்தேன்	-7742
▁கோளா	-7743
▁பதிவே	-7744
ாமை	-7745
▁அவர்களில்	-7746
ard	-7747
ாய்க்கிழமை	-7748
▁62	-7749
▁எழுந்துள்ளது	-7750
பட்டி	-7751
▁உருவாக்கும்	-7752
▁வாலிபர்	-7753
ப்பள்ள	-7754
▁பண்டிகை	-7755
▁தியேட்ட	-7756
▁ஆரம்பிக்க	-7757
▁அதன்பிறகு	-7758
▁கண்காண	-7759
▁வணங்க	-7760
▁பேரூராட்சி	-7761
▁தாமரை	-7762
▁என்பதைக்	-7763
ரத்	-7764
▁ஆப்கானி	-7765
▁புகைப்படங்களை	-7766
▁பலமுறை	-7767
▁மட்டக்கள	-7768
▁மனிதர்கள்	-7769
ாவதாக	-7770
▁ஊரக	-7771
ாரு	-7772
ாலின்	-7773
▁யாதவ்	-7774
க்கிங்	-7775
ast	-7776
▁உருவாக்கப்பட்ட	-7777
▁அன்னை	-7778
வாயு	-7779
▁வரவழை	-7780
லுமி	-7781
▁தோற்று	-7782
▁வியாபாரிகள்	-7783
▁வைத்திருக்க	-7784
ற்றார்	-7785
▁நிறுவனங்களின்	-7786
▁மெய்ய	-7787
▁அளித்தனர்	-7788
▁தேதிய	-7789
▁சமை	-7790
▁பணியாற்றிய	-7791
ge	-7792
▁தடுக்கும்	-7793
▁விவசாயம்	-7794
▁இதுபற்றி	-7795
▁உயர்ந்துள்ளது	-7796
ையின	-7797
ம்பூ	-7798
▁ஆஸ்பத்திரியில்	-7799
▁ரோகி	-7800
▁30,	-7801
வீர	-7802
ோர்ட்	-7803
▁யோகா	-7804
க்கீ	-7805
▁பிரிக்க	-7806
▁செல்வன்	-7807
▁முயற்சிக	-7808
ary	-7809
▁சாஸ்திர	-7810
▁விருந்தின	-7811
▁மாணவர்களை	-7812
▁விட்டால்	-7813
னையோ	-7814
▁பண்டிக	-7815
▁மசோதா	-7816
வங்க	-7817
▁நிஜ	-7818
ரேய	-7819
▁வாக்குகள்	-7820
▁காணும்	-7821
ட்டமாக	-7822
▁விக்ர	-7823
▁உணவுப்	-7824
மில்லாத	-7825
கத்தின்	-7826
மாலை	-7827
▁ஓய்வூ	-7828
▁ஆர்ப்பாட்டம்	-7829
ப்பர	-7830
நாதர்	-7831
▁அடைக்க	-7832
▁பின்னணி	-7833
▁பொறுத்து	-7834
▁பாகு	-7835
end	-7836
▁ஒற்றுமை	-7837
நிலையை	-7838
▁வெளியீட்டு	-7839
▁வேதனை	-7840
▁பகுதிகளை	-7841
முதல	-7842
தாலும்	-7843
▁சரிச	-7844
9)	-7845
▁வழிவகு	-7846
▁வசூலிக்க	-7847
▁(4	-7848
▁புலனாய்வு	-7849
சிங்	-7850
▁ரசிகர்களுக்கு	-7851
▁எப்படிய	-7852
▁செயல்படு	-7853
▁தனிமைப்படுத்த	-7854
ர்க்கும்	-7855
▁வலுவான	-7856
திகளின்	-7857
லிலும்	-7858
ர்ண	-7859
அது	-7860
▁இலவசமாக	-7861
ிசை	-7862
▁ஒன்றுக்கு	-7863
▁காஷ்மீர்	-7864
▁கோவையில்	-7865
ிருப்பதால்	-7866
▁துண	-7867
▁கண்டுபிடி	-7868
▁இழுத்து	-7869
ஸ்டு	-7870
▁வியாழக்கிழமை	-7871
▁தேவைப்படும்	-7872
காவ	-7873
▁கிரே	-7874
▁ஆரோக்கியமான	-7875
▁தகுந்த	-7876
▁ஆண்டும்	-7877
▁144	-7878
▁2014	-7879
▁பக்தி	-7880
▁திவ	-7881
▁அஜ	-7882
ருள்	-7883
▁மாற்றுத்திற	-7884
▁வாழ்வு	-7885
க்கொண்டே	-7886
▁us	-7887
ரீம்	-7888
▁மூளை	-7889
▁பாசன	-7890
க்களையும்	-7891
ப்படுகிறார்கள்	-7892
▁ஆர்வல	-7893
▁தென்காசி	-7894
▁தசை	-7895
▁மரங்கள்	-7896
▁கங்க	-7897
▁கப்	-7898
ப்போகும்	-7899
▁ராஜபக்ஷ	-7900
▁புலிகள்	-7901
▁பதிவிட்டுள்ளார்	-7902
தார்த்த	-7903
▁கணினி	-7904
ெல்லி	-7905
▁இருக்கின்ற	-7906
▁மையத்தில்	-7907
▁சாக்	-7908
தாவின்	-7909
ீஷ்	-7910
்டான	-7911
▁நல்	-7912
▁தாண்ட	-7913
▁மூவ்	-7914
▁அணுகு	-7915
▁இடத்திலேயே	-7916
▁டெலி	-7917
▁செங்கல்ப	-7918
▁அற்புதமான	-7919
▁எனக்குத்	-7920
▁குழந்தைகளின்	-7921
▁ஸ்ட்	-7922
▁அமலாக்க	-7923
▁தவறாக	-7924
▁உரிமையாளர்	-7925
ிரஸ்	-7926
▁தலைவி	-7927
முடன்	-7928
▁நீக்கம்	-7929
▁பாரத	-7930
▁இருந்தே	-7931
ிருப்பார்	-7932
▁இழப்பு	-7933
▁புத்தகம்	-7934
ack	-7935
▁கூட்டமைப்பு	-7936
▁மில்ல	-7937
▁தொடங்குகிறது	-7938
▁செம்ம	-7939
▁முதற்க	-7940
▁வரவு	-7941
ட்சியின்	-7942
▁வாழ்வாதார	-7943
▁புலி	-7944
▁பேசுகையில்	-7945
▁விசேட	-7946
▁பிரதேசத்தில்	-7947
▁மேலதிக	-7948
▁சொன்னால்	-7949
▁செலுத்தும்	-7950
ிகளுக்கான	-7951
▁படுகொலை	-7952
▁அறிவித்துள்ளார்	-7953
ell	-7954
ணத்தை	-7955
▁அறிவிப்பை	-7956
சியா	-7957
▁அவுட்	-7958
▁காய்	-7959
▁வருடங்களாக	-7960
▁ஆண்டுதோறும்	-7961
▁சின	-7962
▁சச்ச	-7963
▁ரெட்	-7964
விட்டேன்	-7965
▁ஒத்துழைப்பு	-7966
▁மேய	-7967
TH	-7968
▁னு	-7969
▁சமீபத்திய	-7970
▁195	-7971
லுக்கான	-7972
விழா	-7973
ஜிபி	-7974
▁அமர்வு	-7975
0-	-7976
மலா	-7977
▁சொல்லலாம்	-7978
▁விகிதம்	-7979
▁அநு	-7980
▁அவி	-7981
▁11.	-7982
ப்பேன்	-7983
▁2000	-7984
▁7-	-7985
▁வேகம்	-7986
்ப்புற	-7987
▁திடீரென்று	-7988
▁ஓபிஎஸ்	-7989
ஜர்	-7990
ஸல்	-7991
aking	-7992
IA	-7993
▁கட்சியை	-7994
▁சரீ	-7995
▁கோர்ட்	-7996
▁Movies	-7997
▁நிமிடம்	-7998
▁பெருநகர	-7999
▁இடையேயான	-8000
▁சொன்னது	-8001
▁இறுதியாக	-8002
▁கவர்னர்	-8003
▁தென்னிந்திய	-8004
▁வேலு	-8005
▁நோக்கிய	-8006
▁ஊழியர்	-8007
ீய	-8008
▁கத்திய	-8009
▁வெங்காயம்	-8010
▁நாய்	-8011
நப	-8012
தலும்	-8013
ழ்ச்ச	-8014
▁போராட்டத்தை	-8015
▁காசி	-8016
▁43	-8017
மையையும்	-8018
▁நீலகிரி	-8019
ரிங்	-8020
வினால்	-8021
▁சுப்	-8022
▁28,	-8023
▁நீட்டி	-8024
ழுத்த	-8025
▁ஹெல	-8026
க்கப்பட்டார்	-8027
ழும்	-8028
▁ரூபாய்க்கு	-8029
▁விண்வெளி	-8030
▁X	-8031
▁தவறி	-8032
▁நடமா	-8033
▁எடுத்துக்கொள்ள	-8034
▁செய்கிறார்	-8035
▁அல்ட்ரா	-8036
விருக்க	-8037
▁சொகுசு	-8038
▁களுக்கு	-8039
▁பிள்ளைகள்	-8040
ாத்க	-8041
முடியாது	-8042
▁ரெட்டி	-8043
ிரண்டு	-8044
▁ஊரில்	-8045
்டன்	-8046
அந்த	-8047
▁ஒட்டி	-8048
▁விரும்புகிறேன்	-8049
▁விலைக்கு	-8050
▁ஆட்சியை	-8051
▁களம்	-8052
▁சான்ற	-8053
▁கேட்கும்	-8054
▁மின	-8055
ஜை	-8056
வென	-8057
▁கார்த்தி	-8058
▁குழுவின்	-8059
▁இடைக்கால	-8060
▁தாமத	-8061
ப்பட்டிருக்கிறது	-8062
▁res	-8063
▁ஊடகங்களில்	-8064
▁44	-8065
▁அவ்வாற	-8066
▁ஆத்திர	-8067
▁செயல்முறை	-8068
▁திருவள்ளூர்	-8069
▁இடைவெளி	-8070
▁இந்தியன்	-8071
▁சில்	-8072
▁வராது	-8073
ளுக்கே	-8074
▁சொற்ப	-8075
ர்ஜி	-8076
▁மெய்	-8077
ங்ஙனம்	-8078
ா்வ	-8079
தானம்	-8080
▁உணவக	-8081
றே	-8082
▁திருட்டு	-8083
▁நிலவும்	-8084
▁மலைய	-8085
▁AR	-8086
▁மாற்றிய	-8087
▁சொல்லப்படுகிறது	-8088
▁தொடரின்	-8089
▁வளரும்	-8090
▁கோரிக்கையை	-8091
▁வெகுவ	-8092
டுகளும்	-8093
▁பரிசோதனைக்காக	-8094
▁யாராவது	-8095
▁புகழ்பெற்ற	-8096
▁அக்கறை	-8097
▁பொதுமக்களுக்கு	-8098
▁ஃபோ	-8099
▁நோய்கள்	-8100
out	-8101
▁காலா	-8102
▁மொழிபெய	-8103
▁அடங்கும்	-8104
▁மதிப்பில்	-8105
▁உணவை	-8106
வாள்	-8107
▁சமூகம்	-8108
▁திருநெல்வேலி	-8109
▁துவக்க	-8110
▁12-	-8111
▁இடைத்தேர்த	-8112
▁அழகாக	-8113
▁படையினர்	-8114
▁ஆதலால்	-8115
8-	-8116
▁ஏற்பாடுகள்	-8117
▁ஸ்டோ	-8118
▁தொழில்நுட்பம்	-8119
்யூ	-8120
ேற்ப	-8121
▁தோற்றம்	-8122
▁சந்திரசேக	-8123
▁என்றனர்	-8124
கையில்	-8125
▁குட்டி	-8126
▁நிபுணர்கள்	-8127
ளிலிருந்து	-8128
▁இவருடைய	-8129
ங்கட்க	-8130
▁நடைபெறு	-8131
▁அறிவித்தது	-8132
ாணம்	-8133
▁தண்ணீரை	-8134
▁அதனைத்	-8135
யிர்	-8136
▁தினகரன்	-8137
▁நிலையங்கள்	-8138
▁நாடுகளுக்கு	-8139
▁விடுங்கள்	-8140
▁ரிசர்	-8141
▁பஞ்சாய	-8142
▁இருக்கின்றனர்	-8143
▁கிண்ட	-8144
▁செய்யாமல்	-8145
▁தெருவில்	-8146
▁வீடியோவை	-8147
▁கிங்ஸ்	-8148
▁விளைவு	-8149
▁எல்லாவற்றையும்	-8150
15	-8151
▁டாஸ்மாக்	-8152
▁பாட்டு	-8153
ாதீங்க	-8154
▁நல்லா	-8155
▁நூற்றாண்டு	-8156
▁தயாராகி	-8157
eb	-8158
▁அமைந்தது	-8159
▁செயலக	-8160
▁ராசிக்க	-8161
▁நேர்ந்த	-8162
▁மாநாட்டில்	-8163
ஞ்சல்	-8164
▁வேண்டுகோள்	-8165
▁பலனின்றி	-8166
ff	-8167
▁விஷால்	-8168
▁ட்வ	-8169
ெய்வ	-8170
ையோடு	-8171
▁பிரமுக	-8172
▁தனித்தன	-8173
200	-8174
▁கொழுப்பு	-8175
nai	-8176
▁வைட்டமின்	-8177
▁அப்துல்	-8178
பந்து	-8179
னூர்	-8180
▁புகைப்படத்தை	-8181
▁தார்	-8182
▁விடுப	-8183
ப்பிரிவு	-8184
▁உண்டாக	-8185
▁கிலோமீட்டர்	-8186
ப்பறை	-8187
நாட்ட	-8188
▁இனிதான்	-8189
▁அரங்கே	-8190
▁கூட்டி	-8191
▁சோர்	-8192
▁பள்ளிக்கு	-8193
▁தமக்கு	-8194
▁இவ்வு	-8195
▁4,	-8196
▁நுழைவு	-8197
▁தண்ணீரில்	-8198
▁தருமபுரி	-8199
▁மாற்றுத்திறன	-8200
லக்ட்	-8201
ஸுக்கு	-8202
▁சிக்கிய	-8203
▁கரும்பு	-8204
▁விரிவா	-8205
▁இடங்களிலும்	-8206
டத்தில்	-8207
▁பகவான்	-8208
நல்லூர்	-8209
▁பதிவ	-8210
▁கண்காணிக்க	-8211
▁வித்தியாசமான	-8212
வாழ்வு	-8213
▁கிருஷ்ணன்	-8214
னெ	-8215
▁எலுமி	-8216
▁வெற்றிய	-8217
▁கட்சித்	-8218
வண்ண	-8219
றிக்க	-8220
▁கற்பனை	-8221
▁மங்க	-8222
▁இவர்களை	-8223
▁கொண்டாட்ட	-8224
▁மாதிரியான	-8225
மானார்	-8226
படியாக	-8227
▁டெக்	-8228
ப்பதில்லை	-8229
ந்தால்	-8230
▁கிடைத்துள்ளது	-8231
▁படமாக	-8232
▁என்பதைப்	-8233
▁120	-8234
▁வணங்கி	-8235
▁அறிகுறிகள்	-8236
▁காஷ்மீ	-8237
▁சுவி	-8238
▁ஓவர்	-8239
▁மனுவை	-8240
▁ஸ்மார்ட்டான	-8241
▁முதலாவது	-8242
▁நடுத்தர	-8243
▁என்னைப்	-8244
▁கர்நாடகா	-8245
▁sh	-8246
▁பொய	-8247
▁இன்னமும்	-8248
▁மேன்	-8249
மரி	-8250
▁நீங்கும்	-8251
▁திண	-8252
மிட்ட	-8253
▁இதற்கிடையில்	-8254
▁மறைந்து	-8255
▁கொண்டுள்ள	-8256
ியுள்ளதாக	-8257
▁உணர்ச்சி	-8258
▁go	-8259
அமைச்சர்	-8260
த்துத்	-8261
▁முன்வை	-8262
▁all	-8263
▁ரெண்டு	-8264
▁யாருக்கு	-8265
ஸ்வரன்	-8266
▁194	-8267
▁சலுகை	-8268
▁மெதுவாக	-8269
▁பாலம்	-8270
▁சுட	-8271
ழகம்	-8272
ுகளின்	-8273
ப்பகுதி	-8274
த்தக்கது	-8275
▁சீனாவில்	-8276
▁பேரையும்	-8277
▁மருந்துகள்	-8278
▁நினைக்கிறேன்	-8279
▁கடினமான	-8280
▁இறந்தார்	-8281
▁யாழ்ப்பாண	-8282
▁le	-8283
▁படிப்பு	-8284
ச்சாவ	-8285
▁விட்டதாக	-8286
▁இருவரையும்	-8287
ுகின்றன	-8288
▁ஆகியவற்றின்	-8289
ிட்டார்	-8290
▁எழுத்தாளர்	-8291
▁இயேசு	-8292
▁பொருந்த	-8293
▁போஸ்ட	-8294
▁அதிகளவில்	-8295
ome	-8296
▁தொடங்கினார்	-8297
▁விடுதலைப்	-8298
யை	-8299
▁வந்துள்ள	-8300
▁துன்பு	-8301
▁டிகிரி	-8302
ஸு	-8303
▁வைத்திருக்கும்	-8304
▁ஒன்றாகும்	-8305
▁ஓரிரு	-8306
▁கூறியுள்ளது	-8307
▁ட்விட்டரில்	-8308
▁சீர்த	-8309
▁ஒடி	-8310
ப்பாளையம்	-8311
▁வேல்	-8312
▁முஸ்லீ	-8313
▁மேடை	-8314
▁விருந்து	-8315
▁தீர்மானிக்க	-8316
▁12.	-8317
▁அருண	-8318
களுக்காக	-8319
▁பெரிதாக	-8320
▁அத்த	-8321
▁நிழ	-8322
▁முக்கியமானது	-8323
ப்பிட	-8324
▁மார்க்	-8325
▁படத்துக்கு	-8326
▁No	-8327
▁நன்ன	-8328
▁மாளிக	-8329
மேன்	-8330
▁இவற்றில்	-8331
▁ஓரா	-8332
▁தொண்டர்கள்	-8333
▁ஆழ்ந்த	-8334
ரசர்	-8335
கிறேன்	-8336
▁சன்ன	-8337
வாசன்	-8338
ூபி	-8339
▁அளிக்கப்பட்டது	-8340
▁சேவையை	-8341
▁படகு	-8342
▁காப்பு	-8343
्र	-8344
▁சமாதான	-8345
▁காரணங்கள்	-8346
▁விசேஷ	-8347
▁நியமனம்	-8348
▁சீக்கிர	-8349
://	-8350
▁தொடக்கத்தில்	-8351
▁ஆஸ்பத்திரிக்கு	-8352
▁பொருள்கள்	-8353
▁வகைகள்	-8354
▁பரிசோ	-8355
▁நெல்ல	-8356
ிர்த	-8357
▁நேர்க	-8358
வணை	-8359
▁பாராட்டி	-8360
▁நெட்டி	-8361
▁நடத்தினார்	-8362
▁இறக்க	-8363
▁இல்லாம	-8364
▁மாணவர்க	-8365
▁சிபிஐ	-8366
▁ஆவார்	-8367
▁அறக்கட்ட	-8368
ராஜர்	-8369
ory	-8370
▁ராசிக்கார	-8371
க்கதை	-8372
முடியாத	-8373
தவி	-8374
ளாவிய	-8375
▁அநேக	-8376
▁வேதா	-8377
▁புன்ன	-8378
▁இருந்தபோது	-8379
iz	-8380
▁யுக	-8381
▁செய்யப்பட்டுள்ள	-8382
▁சாந்த	-8383
த்திட	-8384
▁பாருங்க	-8385
▁மேலாளர்	-8386
▁மனைவியை	-8387
▁SU	-8388
▁கதைகள்	-8389
▁திரைப்படத்தின்	-8390
▁வந்தபோது	-8391
ந்திரம்	-8392
▁வளர	-8393
▁டெல்	-8394
▁சமு	-8395
த்வ	-8396
ினாமா	-8397
.'	-8398
▁கலந்துகொண்டு	-8399
ாமில்	-8400
▁பழங்குடிய	-8401
11	-8402
▁ஆயினும்	-8403
ry	-8404
▁சேர்க்கை	-8405
80	-8406
ம்பாக்கம்	-8407
▁எம்பி	-8408
வர்த்தி	-8409
▁ஆத்ம	-8410
போதே	-8411
▁வசதிக	-8412
▁எந்தப்	-8413
▁எரிபொருள்	-8414
▁மறைத்து	-8415
ஹித்	-8416
ள்ளா	-8417
▁வரலாற்ற	-8418
லுக்கும்	-8419
▁ஞாப	-8420
▁மல்	-8421
▁சதவிகித	-8422
▁Dig	-8423
▁சீரியல்	-8424
ரியாக	-8425
▁இருக்கும்போது	-8426
▁இக்கோ	-8427
▁வாயு	-8428
ந்திரி	-8429
▁குடியிருப்பு	-8430
▁அறிக்கையை	-8431
▁புண்ணிய	-8432
▁அள்ள	-8433
▁பொதுக்குழு	-8434
▁ரெடி	-8435
▁இதன்மூலம்	-8436
▁ஜல்லிக்க	-8437
▁கண்டுக	-8438
்ட்ட	-8439
▁உலா	-8440
▁15-	-8441
▁முகா	-8442
▁அதனால்தான்	-8443
டுங்க	-8444
▁கோரிய	-8445
ங்குகளை	-8446
▁யின்	-8447
வேல	-8448
▁சீனாவின்	-8449
ous	-8450
▁நகரங்களில்	-8451
போன	-8452
▁முரண்ப	-8453
▁ஏரி	-8454
ஸ்கோ	-8455
ாலத்தில்	-8456
▁கருவி	-8457
▁முதலீட்ட	-8458
▁வன்க	-8459
▁மொழியில்	-8460
▁திருட	-8461
▁துவங்கி	-8462
ராக்	-8463
hennai	-8464
வகையில்	-8465
▁செயலர்	-8466
▁இலங்கைக்கு	-8467
▁ஜப்பான்	-8468
▁அம்பே	-8469
▁ஊடகங்கள்	-8470
வதோடு	-8471
▁ரணில்	-8472
▁பேட்ஸ்	-8473
▁சொல்லு	-8474
▁விவசாயி	-8475
▁இலக்கை	-8476
▁வைத்துள்ள	-8477
▁தினேஷ்	-8478
ிலிருந்தும்	-8479
▁செயற்பா	-8480
க்காரர்	-8481
ions	-8482
த்தில்தான்	-8483
▁மறுத்த	-8484
▁நேரத்தை	-8485
▁கஜ	-8486
▁மேட்ட	-8487
▁இன்றைக்கு	-8488
▁அர்ப்ப	-8489
▁உடல்நல	-8490
▁குறைபா	-8491
ப்பார்த்த	-8492
▁சோதனையில்	-8493
▁156	-8494
ப்ட்	-8495
▁தண	-8496
▁பராமரிக்க	-8497
▁அவர்களும்	-8498
மாறி	-8499
▁ஆம்பு	-8500
▁வாகனங்களை	-8501
▁நகர்ப்புற	-8502
▁வெள்ளம்	-8503
▁ரசிகர்களின்	-8504
▁பயன்படுத்தலாம்	-8505
▁அதிவேக	-8506
▁ஃபாஸ்ட்	-8507
▁வருகிறேன்	-8508
▁அணியும்	-8509
ப்படுவதால்	-8510
▁ரியல்	-8511
▁ஐம்ப	-8512
▁மீற	-8513
ிருந்தும்	-8514
▁கூறும்போது	-8515
▁நிறுத்து	-8516
▁பார்வையாள	-8517
▁அலு	-8518
ம்பூர்	-8519
மேற்கு	-8520
தையடுத்து	-8521
▁விரும்பவில்லை	-8522
▁நன்மைகள்	-8523
▁மனைவிய	-8524
▁நிகழ்ந்த	-8525
▁இலக்க	-8526
▁நிலையங்களில்	-8527
சமாக	-8528
▁யாரோ	-8529
▁பொங்க	-8530
▁ஜப்பான	-8531
▁SC	-8532
▁எதிர்ம	-8533
▁விடாமல்	-8534
ang	-8535
▁வாயில்	-8536
ர்களைப்	-8537
▁உளவு	-8538
ப்பாளராக	-8539
▁பங்கேற்ப	-8540
▁ஹார்	-8541
மிகு	-8542
▁வினோ	-8543
▁வடிவம்	-8544
▁நார்	-8545
ப்படுகின்றனர்	-8546
▁புஷ்ப	-8547
--	-8548
▁புறக்கணி	-8549
▁இதையும்	-8550
▁அளிக்கிறது	-8551
▁விவே	-8552
இந்திய	-8553
▁சுதந்திரம்	-8554
▁நோக்கில்	-8555
ளிர	-8556
▁நடப்பு	-8557
ியானது	-8558
யன்	-8559
மைக்கு	-8560
▁வாங்கு	-8561
ப்பாட	-8562
▁பிளே	-8563
▁இரண்டும்	-8564
▁பொதுச்செயலாளர்	-8565
▁இருக்கா	-8566
▁தூக்கு	-8567
▁போரில்	-8568
▁வெப்பநிலை	-8569
▁அமேச	-8570
▁செங்கல்பட்டு	-8571
▁மாணிக்க	-8572
▁மருந்த	-8573
▁காட்டுகிறது	-8574
▁செல்கிறது	-8575
▁கொல்கத்தா	-8576
▁கத்த	-8577
த்துறையில்	-8578
ex	-8579
▁வீதம்	-8580
▁நின்	-8581
▁தலைப்பில்	-8582
டுப்பில்	-8583
ஞ்ச்	-8584
▁க்கும்	-8585
ப்படுவதை	-8586
▁டவுன்	-8587
ொல	-8588
▁பட்சத்தில்	-8589
▁செவ்வாய்	-8590
▁நாங்க	-8591
▁முயற்சிய	-8592
சங்	-8593
▁வேறுபாடு	-8594
▁பூத	-8595
▁உள்ளதாகவும்	-8596
▁மாநிலத்தின்	-8597
ராமன்	-8598
▁இவர்களின்	-8599
▁சுவாரஸ்ய	-8600
▁மெகா	-8601
▁நேற்றைய	-8602
▁சதுர	-8603
▁ஆறுதல்	-8604
்தோ	-8605
▁அபாய	-8606
▁வருடங்கள்	-8607
விருக்கும்	-8608
னுக்காக	-8609
▁துண்டு	-8610
போத	-8611
▁தலைவரும்	-8612
▁துப	-8613
ுடு	-8614
▁கொண்டால்	-8615
▁சொல்கிறார்	-8616
▁பாதிக்கும்	-8617
▁கிராமங்களில்	-8618
▁இணைத்து	-8619
ஜித்	-8620
ட்டல்	-8621
▁அல்லவா	-8622
▁கடலோர	-8623
நாளை	-8624
▁தோன்றியது	-8625
▁கவர்ச்ச	-8626
ெயின்	-8627
▁ஏல	-8628
விட்டாலும்	-8629
ரத்து	-8630
▁வளர்த்த	-8631
றேன்	-8632
▁விறுவ	-8633
▁எழுந்தது	-8634
▁லோகேஷ்	-8635
▁பணிக்கு	-8636
▁பிறந்தநாள்	-8637
▁பாதிப்பை	-8638
ர்ய	-8639
ண்டம்	-8640
▁வகையிலும்	-8641
▁சல்	-8642
▁காய்கறி	-8643
▁வடிவில்	-8644
▁நடத்தப்பட்டு	-8645
▁அடுத்ததாக	-8646
ஜென்	-8647
▁64	-8648
▁8-	-8649
▁கொடுத்துள்ளார்	-8650
▁ரிசர்வ்	-8651
கட்ட	-8652
ார்களோ	-8653
ிப்	-8654
▁கையை	-8655
▁தரிசன	-8656
▁யோசனை	-8657
ாமணி	-8658
▁வழியே	-8659
▁ஜெய்	-8660
▁மாவு	-8661
▁செய்கிறார்கள்	-8662
▁இதழ	-8663
▁சுங்க	-8664
▁உத்தரவை	-8665
▁மொத்தமாக	-8666
கின்றது	-8667
▁ஓரளவு	-8668
வைகள்	-8669
▁வார்டு	-8670
▁இங்குள்ள	-8671
ாவதி	-8672
க்கொள்கிறேன்	-8673
▁பலாத்க	-8674
▁அவற்று	-8675
▁வேண்டுமென்று	-8676
▁வைத்தது	-8677
ப்படியான	-8678
▁இருப்பவர்கள்	-8679
▁வேற்று	-8680
▁பிரதிநிதிகள்	-8681
▁ex	-8682
▁கட்டளை	-8683
ராய்டு	-8684
▁பாம்ப	-8685
▁அலைவரிசை	-8686
▁கூறுவது	-8687
▁போட்டுக்	-8688
▁காச	-8689
வருகிறது	-8690
▁புதுச்சே	-8691
வளை	-8692
▁வெளியிட்டார்	-8693
▁டிய	-8694
▁காமெடி	-8695
▁சேர்த்துக்	-8696
ஜூ	-8697
▁பதவியில்	-8698
▁பிளாக்	-8699
News	-8700
▁ஆழ்வ	-8701
ரும்ப	-8702
▁மறைமுக	-8703
ூரை	-8704
▁சிற்ற	-8705
ட்கு	-8706
▁இடங்களை	-8707
▁விசை	-8708
▁நானே	-8709
▁மிதமான	-8710
ice	-8711
ass	-8712
நடுக்க	-8713
▁ஆபத்தான	-8714
▁நன்க	-8715
▁என்றது	-8716
▁ஆய்	-8717
▁நீங்கி	-8718
▁...	-8719
வருமே	-8720
▁அழைக்கப்படும்	-8721
▁ஆஜராக	-8722
▁கும்பாபிஷ	-8723
▁விக்னேஷ்	-8724
▁கண்டுபிடித்து	-8725
ப்க	-8726
▁ஊடாக	-8727
சாலையில்	-8728
விகள்	-8729
▁மான்	-8730
▁பசி	-8731
▁நிறுவனமான	-8732
▁சதவிகிதம்	-8733
▁ரசிகர்	-8734
▁வந்ததும்	-8735
▁பிரதிநிதி	-8736
▁போகிற	-8737
▁வவு	-8738
▁பயந்து	-8739
▁பரீ	-8740
▁உங்களது	-8741
▁தோன்றி	-8742
▁சுட்ட	-8743
▁செவ்வாய்க்கிழமை	-8744
▁கோர்ட்டில்	-8745
▁மிஸ்	-8746
▁மனதை	-8747
▁al	-8748
▁அம்பேத்க	-8749
3,	-8750
▁நிகழ்வில்	-8751
த்குமார்	-8752
ATA	-8753
▁வடகிழ	-8754
வுள்ளதாக	-8755
க்கிக்	-8756
▁கவிஞர்	-8757
டிக்கொண்ட	-8758
▁பயம்	-8759
▁பந்துகளில்	-8760
▁எலி	-8761
கரு	-8762
▁ஒன்றிணை	-8763
▁விஜயகாந்த்	-8764
▁விக்கெட்டுகளை	-8765
ber	-8766
▁மண்டபத்தில்	-8767
▁சங்கர	-8768
▁வார்	-8769
▁என்பவரை	-8770
மகன்	-8771
ர்களிடையே	-8772
ணங்கள்	-8773
ாயன	-8774
▁நூல்கள்	-8775
▁அவதி	-8776
▁பங்களி	-8777
▁காரணத்தால்	-8778
▁நிர்ணயம்	-8779
ரவையில்	-8780
▁பயன்படுத்திய	-8781
▁புட	-8782
▁அரசன்	-8783
▁டாலர்	-8784
▁நிறுவனங்களில்	-8785
▁கட்சியினர்	-8786
▁அருள	-8787
▁கேள்விகள்	-8788
▁Bre	-8789
▁ஆராய்ந்து	-8790
▁பிரீ	-8791
▁பிராண	-8792
▁ஓட்டி	-8793
▁பிரபலங்கள்	-8794
▁கோடியே	-8795
▁தயாரிப்பில்	-8796
▁சம்பா	-8797
▁क	-8798
ளவுக்கு	-8799
ST	-8800
▁புன	-8801
▁தாக்குதலில்	-8802
CL	-8803
▁உடம்ப	-8804
ிகர்	-8805
▁நிரூபி	-8806
▁பிரான்ஸ்	-8807
▁கசி	-8808
▁முழுவது	-8809
▁போற்றி	-8810
▁கண்களை	-8811
▁செய்யு	-8812
▁வேண்டுமானாலும்	-8813
▁வாங்கிக்	-8814
▁பூஜைகள்	-8815
▁கோயிலுக்கு	-8816
▁கொரோனாவால்	-8817
தளம்	-8818
▁எல்லாமே	-8819
ாளம்	-8820
பேச	-8821
▁ஒழுங்க	-8822
▁ஊற	-8823
▁புற்றுநோய்	-8824
▁செயல்திற	-8825
▁மக்களிடையே	-8826
▁கொடை	-8827
▁ஏங்க	-8828
▁இருப்பு	-8829
▁செய்யப்	-8830
▁எலக்ட்	-8831
▁மேம்படுத்து	-8832
▁அதிகாரிகளுக்கு	-8833
லிங்	-8834
▁செலுத்திய	-8835
▁மட்டக்களப்பு	-8836
படிய	-8837
▁முளை	-8838
களே	-8839
ments	-8840
ீரல்	-8841
▁மும்பையில்	-8842
▁அடையும்	-8843
▁மற்றவர்கள்	-8844
வாழ	-8845
▁பலவீன	-8846
சிவ	-8847
க்குகள்	-8848
▁அடுக்க	-8849
▁வைத்திருப்ப	-8850
▁அவளது	-8851
▁..	-8852
▁போடும்	-8853
▁தம்மை	-8854
குமார	-8855
▁நீர	-8856
க்ர	-8857
ro	-8858
டெ	-8859
▁விரும்பிய	-8860
ீட்டை	-8861
நேய	-8862
▁மனுவில்	-8863
▁மன்னிப்பு	-8864
▁விதத்தில்	-8865
▁சண்முக	-8866
▁மட்டும்தான்	-8867
▁பொருளாதாரம்	-8868
▁மேற்கொண்டனர்	-8869
▁கொத்த	-8870
▁அரசுகள்	-8871
▁குன்ற	-8872
▁ராஜேஷ்	-8873
றுத்தி	-8874
▁பிரம	-8875
▁மலி	-8876
▁உணர்ச்ச	-8877
▁அவன	-8878
▁தொழிலில்	-8879
தியு	-8880
▁அறநிலைய	-8881
ப்பைக்	-8882
ப்பட்டிருக்கும்	-8883
▁முன்னெச்ச	-8884
▁ராவ	-8885
▁स	-8886
▁அச்சம்	-8887
▁வளைய	-8888
▁செய்வதற்காக	-8889
▁உணவில்	-8890
▁க்ஷ	-8891
▁கற்றுக்	-8892
தமிழ்	-8893
▁இதுவும்	-8894
்வின்	-8895
▁அபார	-8896
▁தரையில்	-8897
▁முகவரி	-8898
▁குணம்	-8899
▁பாடலை	-8900
விளை	-8901
ப்புல	-8902
ime	-8903
▁பில்	-8904
ாளர்களுக்கு	-8905
▁உரையாற்ற	-8906
▁கொடுத்தது	-8907
▁ஒவ்வொன்ற	-8908
ாகம்	-8909
▁அதிகரித்த	-8910
பாஸ்	-8911
▁காதலித்து	-8912
ப்பவர்கள்	-8913
▁நிலுவ	-8914
▁பிரச்சனைகள்	-8915
ிகோ	-8916
ிருந்தான்	-8917
▁வருஷ	-8918
▁ரஹ்	-8919
ுகின்ற	-8920
▁பிற்பகல்	-8921
▁பூர்வ	-8922
▁செயலா	-8923
▁அடைந்தார்	-8924
▁நெற	-8925
▁வெயில	-8926
▁யூனியன்	-8927
▁அளிக்கப்பட்டு	-8928
ிருந்தார்கள்	-8929
▁மயிலாடு	-8930
▁பிரிட்டி	-8931
▁பாலை	-8932
▁உறவினர்	-8933
ha	-8934
▁முற்று	-8935
▁அந்நாட்டு	-8936
▁முறையான	-8937
▁பிக்ச	-8938
▁முதல்வராக	-8939
▁விறுவிறு	-8940
ப்பிங்	-8941
▁ஆவணங்கள்	-8942
so	-8943
மானால்	-8944
▁ஊட்டச்சத்து	-8945
▁அயோ	-8946
சமயம்	-8947
▁ஸ்தான	-8948
▁குத்து	-8949
▁உடலின்	-8950
▁சம்பாதி	-8951
▁பொதுத்	-8952
▁முடிவுகளை	-8953
▁உடல்நிலை	-8954
▁உடு	-8955
▁கவனத்தை	-8956
▁பாடு	-8957
▁குடியரசுத்	-8958
▁அஃ	-8959
▁நிலவர	-8960
▁ஆக்சி	-8961
ொழுதும்	-8962
▁பாடல்களை	-8963
▁நிலநடுக்க	-8964
▁சர்ச்சை	-8965
விட்டார்கள்	-8966
▁அமைச்சராக	-8967
▁கலி	-8968
சக	-8969
▁பாம்பு	-8970
▁சந்திப்பில்	-8971
சிஸ்	-8972
▁சமூகத்தில்	-8973
▁சுற்றியுள்ள	-8974
மைகள்	-8975
▁அதைச்	-8976
▁சிறில	-8977
பிய	-8978
▁இளங்கோ	-8979
பெற	-8980
▁உடற்பயிற்சி	-8981
▁கட்சிக்கு	-8982
புல்	-8983
மதா	-8984
▁49	-8985
▁வரலாம்	-8986
▁மேற்படி	-8987
ஷின்	-8988
.(	-8989
லாமே	-8990
▁ரஞ்சி	-8991
▁பயன்பாடு	-8992
▁ஞாய	-8993
erv	-8994
▁விண்ணப்பிக்க	-8995
▁சூப்பிர	-8996
▁உரிமையை	-8997
▁குழந்தைக்கு	-8998
▁சில்ல	-8999
▁தோன்றுகிறது	-9000
▁அனுபவிக்க	-9001
விக்	-9002
▁கருணை	-9003
▁உதவிகள்	-9004
▁தொடரை	-9005
▁நிறைவ	-9006
▁படும்	-9007
ில்கள்	-9008
▁மிரட்டல்	-9009
▁வன்கொடு	-9010
கிருஷ்ண	-9011
▁உணவுகள்	-9012
ங்கட்கிழமை	-9013
▁சமாளிக்க	-9014
ிகளைத்	-9015
▁(1)	-9016
▁அவதூ	-9017
ரித	-9018
70	-9019
▁மண்ணில்	-9020
▁எடி	-9021
▁ஒளிய	-9022
ுகிறேன்	-9023
ார்களாம்	-9024
▁மதுபான	-9025
▁சரா	-9026
▁தொட்டு	-9027
▁கூறியிருந்தார்	-9028
குரு	-9029
▁ஈடுபடு	-9030
▁ராஜினாமா	-9031
கிறோம்	-9032
▁சுந்தர்	-9033
▁ஒருங்கிணைந்த	-9034
ஜிங்	-9035
▁துடை	-9036
▁இதன்படி	-9037
▁ஏற்படலாம்	-9038
▁நான்காவது	-9039
▁அருந்த	-9040
▁வருபவர்	-9041
▁தன்மையை	-9042
▁இருப்பார்	-9043
▁தொகுதிகளில்	-9044
▁எரு	-9045
டுகளின்	-9046
▁சித்தா	-9047
▁நட்ப	-9048
கங்கள்	-9049
ook	-9050
▁எலெக்ட்ரிக்	-9051
▁Go	-9052
▁முகாமில்	-9053
▁பவுன்	-9054
▁Res	-9055
▁மாதா	-9056
ப்பிள்ளை	-9057
▁வேட்ட	-9058
nt	-9059
▁மஹிந்த	-9060
:29	-9061
TEL	-9062
▁கடத்தல்	-9063
▁வெளிவ	-9064
▁அதற்குப்	-9065
▁வேரிய	-9066
ங்கால்	-9067
▁வாரிசு	-9068
▁சதி	-9069
▁இயலாது	-9070
வூ	-9071
▁வேறொரு	-9072
▁விலக்கு	-9073
க்கப்பட்டது	-9074
▁de	-9075
▁குழும	-9076
▁சபரி	-9077
▁ரூபா	-9078
ிரை	-9079
▁அமைச்சு	-9080
▁ஏது	-9081
க்கமாக	-9082
▁தெரிவித்தது	-9083
▁முன்னுரிமை	-9084
ிருக்கின்ற	-9085
ெடுப்ப	-9086
▁கமிஷனர்	-9087
▁வடிவமைப்பு	-9088
▁will	-9089
▁பிறந்து	-9090
▁கருப்ப	-9091
▁57,	-9092
மிட்டு	-9093
▁TATA	-9094
▁நடித்துள்ளனர்	-9095
▁ஒற்ற	-9096
▁விமானத்தில்	-9097
▁தலைவா்	-9098
▁அரசாங்கத்தின்	-9099
▁சம்பவத்தில்	-9100
வாடி	-9101
ாயினும்	-9102
▁சந்	-9103
▁சமந்தா	-9104
▁உயர்த்தி	-9105
per	-9106
ஸ்கே	-9107
▁விழாவை	-9108
தியுடன்	-9109
▁வெளியேறி	-9110
▁பிறகும்	-9111
▁Breaking	-9112
விடலாம்	-9113
▁உயிரின	-9114
▁காட்சிகளை	-9115
சிக்	-9116
ையிலே	-9117
▁சிறந்தது	-9118
▁ஸ்வ	-9119
▁பட்டது	-9120
ust	-9121
▁நெகிழ	-9122
▁நூலக	-9123
▁அவரே	-9124
▁தலைமைச்	-9125
▁297	-9126
▁என்றெல்லாம்	-9127
▁விவசாயிகளின்	-9128
▁செய்தியாளர்களை	-9129
▁பழம்	-9130
▁நிறுவனங்களுக்கு	-9131
▁வைத்துள்ளார்	-9132
▁தட்டி	-9133
▁அப்டேட்	-9134
6,	-9135
▁தமிழ்ப்	-9136
▁பரிசோத	-9137
▁சூடான	-9138
▁பெற்றுள்ள	-9139
ப்போல்	-9140
▁பான்	-9141
▁செல்வராஜ்	-9142
▁வைக்கப்பட்டது	-9143
டுத்தி	-9144
த்துக்குள்ள	-9145
▁தலைமறை	-9146
விடுகிறது	-9147
▁வெறி	-9148
▁விற்று	-9149
▁பிரக	-9150
▁மொழிய	-9151
▁செய்தியை	-9152
▁உம்	-9153
▁மதிப்பெண்	-9154
cri	-9155
▁யே	-9156
தேவி	-9157
▁பூண்டு	-9158
ெரு	-9159
▁ஆள	-9160
▁வேப்ப	-9161
▁சுற்றுப்பய	-9162
▁சேர்ப்ப	-9163
▁தொலைக்காட்சியை	-9164
ர்வால்	-9165
நாட்டின்	-9166
்தா	-9167
▁டிசை	-9168
▁அறிகுற	-9169
▁பாவம்	-9170
▁கணேசன்	-9171
திக்	-9172
▁கர்ம	-9173
▁Digital	-9174
▁இதைக்	-9175
ISH	-9176
▁ஜம்மு	-9177
▁பாண்டி	-9178
▁விநியோகம்	-9179
▁ஏக்க	-9180
▁பணிபுரியும்	-9181
ECT	-9182
▁பிரெ	-9183
▁கால்பந்து	-9184
நலம்	-9185
▁இஸ்ரே	-9186
ப்போன	-9187
▁71,	-9188
துரை	-9189
க்குழ	-9190
▁நிகழ்வுகள்	-9191
▁ஈடுபட்டுள்ளனர்	-9192
▁கீர்த்தி	-9193
▁பசுமை	-9194
▁மங்கள	-9195
▁வண்டி	-9196
▁41	-9197
▁திருக்க	-9198
▁முறையும்	-9199
tic	-9200
▁46,	-9201
▁ஒருவரின்	-9202
▁தாலுகா	-9203
▁ஸ்கூ	-9204
ப்பதன்	-9205
BLE	-9206
▁செவில	-9207
போக	-9208
▁இயக்கும்	-9209
▁எடுத்தது	-9210
▁வசதிகளை	-9211
▁அப்புறம்	-9212
▁முறையே	-9213
▁ஆன்மீக	-9214
ண்டாய்	-9215
▁ஆங்கா	-9216
ியுங்கள்	-9217
ங்களான	-9218
▁எதற்காக	-9219
▁சாறு	-9220
டையே	-9221
ற்கா	-9222
▁திறப்பு	-9223
ையாகும்	-9224
▁பிறப்பு	-9225
▁செய்யப்பட்டனர்	-9226
▁நாடி	-9227
▁ஆகியோரை	-9228
ure	-9229
ப்படுகிறார்	-9230
Latest	-9231
▁நோயாளிகள்	-9232
ற்றே	-9233
▁பொம்மை	-9234
Top	-9235
▁ஆடியோ	-9236
துக்க	-9237
க்குடி	-9238
▁எதிர்காலத்தில்	-9239
▁பாறை	-9240
▁இழக்க	-9241
ம்ஃ	-9242
uk	-9243
என்று	-9244
ுதல்	-9245
▁சாம்சங்	-9246
பாவ	-9247
▁தழுவ	-9248
▁இப்படிப்பட்ட	-9249
▁இயற்ற	-9250
▁இதைத்தொடர்ந்து	-9251
▁துறைகளில்	-9252
ொழ	-9253
▁காசு	-9254
ச்சிய	-9255
▁கோளாறு	-9256
▁முகத்தை	-9257
▁குமரி	-9258
தாகத்	-9259
கவிய	-9260
ையோர	-9261
▁பேரின்	-9262
ங்கியது	-9263
முன்ன	-9264
▁உயிரு	-9265
▁விசாரணையை	-9266
ப்படுப	-9267
▁விதித்து	-9268
ோரின்	-9269
▁அன்றாட	-9270
▁தேவையற்ற	-9271
▁ரீதியில்	-9272
▁கலவர	-9273
மக்கள்	-9274
▁விதிகள்	-9275
ித்துக்	-9276
▁ஆர்டர்	-9277
▁நாயகன்	-9278
்குடி	-9279
▁விடுவி	-9280
▁PLA	-9281
ென்னும்	-9282
▁விடுவிக்க	-9283
மேய	-9284
▁தெலுங்க	-9285
▁AIR	-9286
▁சப்த	-9287
காசி	-9288
▁சந்திரன்	-9289
▁உதிர	-9290
▁கூறியுள்ளனர்	-9291
தூர்	-9292
▁மதிப்பிலான	-9293
▁அரங்க	-9294
▁சிஸ்ட	-9295
▁பகுதிகளிலும்	-9296
▁அவரைப்	-9297
▁விரும்பி	-9298
ென்பது	-9299
▁மவு	-9300
▁காணப்பட்டது	-9301
மத்	-9302
▁post	-9303
▁மன்னன்	-9304
வர்களே	-9305
ப்படுகின்ற	-9306
▁நிதான	-9307
▁எதை	-9308
▁டாக்டர்கள்	-9309
▁அரசால்	-9310
▁கிராமம்	-9311
▁கவர்ச்சி	-9312
▁SUN	-9313
▁நாகர்கோவில்	-9314
▁கொடியே	-9315
▁சேமிப்பு	-9316
▁ஏலம்	-9317
▁புருஷ	-9318
▁அவர்களால்	-9319
▁வெயில்	-9320
▁படுகாய	-9321
▁சுவாச	-9322
▁இத்துடன்	-9323
▁விடுத்துள்ளனர்	-9324
▁அலைவரிசைகளில்	-9325
க்காய்	-9326
ASU	-9327
▁DIR	-9328
▁பிரை	-9329
▁அண்மைச்	-9330
▁மாலையில்	-9331
▁தீபக்	-9332
▁பெறுவது	-9333
▁எனக்கும்	-9334
▁தூது	-9335
வுக்குப்	-9336
▁ரோகித்	-9337
▁கிராமத்தை	-9338
ூல	-9339
▁பிரியங்கா	-9340
▁இக்	-9341
தலின்	-9342
▁ஏமாற்றிய	-9343
சம்ப	-9344
▁கல்யாணம்	-9345
▁எல்லையில்	-9346
▁DTH	-9347
▁வற்பு	-9348
▁கேட்டால்	-9349
ன்களில்	-9350
▁உட்கார்ந்து	-9351
▁மீனாட்சி	-9352
▁VK	-9353
ருவி	-9354
▁உத்திர	-9355
▁எத்தனையோ	-9356
▁DIRECT	-9357
டுத்தப்பட்ட	-9358
▁விவ	-9359
▁உள்ளிட்டவை	-9360
▁கிராமப்புற	-9361
▁250	-9362
▁மெல்லிய	-9363
▁மேனே	-9364
▁கதிர்	-9365
▁நுழைந்த	-9366
▁PLAY	-9367
னியின்	-9368
▁வளர்ப்ப	-9369
ப்புகளுக்கு	-9370
45	-9371
▁மூர்த்தி	-9372
▁ஊரட	-9373
நாளில்	-9374
▁வழிபட்ட	-9375
▁வங்கிகள்	-9376
▁துயர	-9377
▁ஒன்னு	-9378
▁சூர	-9379
மகள்	-9380
▁AIRTEL	-9381
ாந	-9382
ாமம்	-9383
▁108	-9384
▁SCV	-9385
▁DISH	-9386
ுவார்	-9387
▁இன்ஸ்டாகிராம்	-9388
▁ப்ப	-9389
▁782,	-9390
▁CABLE	-9391
▁ARASU	-9392
▁TCCL	-9393
▁2977,	-9394
▁1562,	-9395
றுத்து	-9396
:2977	-9397
சிக்கும்	-9398
▁அரசும்	-9399
4,	-9400
ரையின்	-9401
▁வடிவமைக்க	-9402
▁முறைகள்	-9403
▁திங்கள	-9404
▁திருடி	-9405
ையாவது	-9406
▁கூறியுள்ள	-9407
▁தகுதிய	-9408
பவர்	-9409
▁லைட்	-9410
▁பேராசிரிய	-9411
ிருப்பதை	-9412
வுமே	-9413
▁சபாநாயகர்	-9414
க்காத	-9415
ழகன்	-9416
▁உத்தரவிட்டது	-9417
▁உரிமையாளர்கள்	-9418
▁வெளிப்படுத்து	-9419
▁தயாரிப்பாள	-9420
▁உணவுகளை	-9421
▁பிரமாண்ட	-9422
▁உவ	-9423
▁வசூலி	-9424
▁மையமாக	-9425
வர்த	-9426
ையாளர்	-9427
▁கோழி	-9428
▁வாய்க்க	-9429
ேனா	-9430
ட்டியில்	-9431
க்கப்பட்டன	-9432
▁பொருந்தும்	-9433
ாயும்	-9434
ங்கொ	-9435
▁இவரின்	-9436
▁நள்ளிரவு	-9437
ip	-9438
▁தாங்கினார்	-9439
▁கொண்டிருந்தனர்	-9440
▁பயிர்	-9441
▁அமர்	-9442
ர்பு	-9443
▁மனது	-9444
ப்பரு	-9445
வையை	-9446
▁உயர்க	-9447
▁தீவு	-9448
▁செய்வதாக	-9449
ட்வ	-9450
▁5,	-9451
ார்க்கு	-9452
▁பிபி	-9453
▁ஆய்வில்	-9454
▁52	-9455
▁கொட்டி	-9456
▁பரந்த	-9457
▁பிரச்சாரம்	-9458
▁வடிவேலு	-9459
▁பிரசாத்	-9460
▁தெரிவித்துக்	-9461
▁வகித்தார்	-9462
▁ஏவுக	-9463
ம்கூட	-9464
▁தகவல	-9465
▁முறிய	-9466
▁பௌத்த	-9467
▁அதிசய	-9468
வர்களையும்	-9469
▁நிலத்தில்	-9470
ுகளாக	-9471
▁ஊற்ற	-9472
▁மரபு	-9473
ஸ்பூன்	-9474
த்தியம்	-9475
ிகூட	-9476
▁கிருமி	-9477
▁ரெயில்வே	-9478
▁சிந்திக்க	-9479
▁2011	-9480
ப்ஸ்	-9481
▁கொல்லப்பட்ட	-9482
▁முயற்சிக்க	-9483
▁பரவு	-9484
▁துல்லிய	-9485
▁சமயங்களில்	-9486
▁தொழிலாளி	-9487
▁ட்ர	-9488
லைட்	-9489
▁அகல	-9490
▁மிளகாய்	-9491
யின	-9492
▁உயிரிழந்தனர்	-9493
▁ரோந்து	-9494
▁வசந்த	-9495
▁சீராக	-9496
வதையும்	-9497
ங்களிலிருந்து	-9498
▁களி	-9499
▁இலட்சம்	-9500
▁வாண	-9501
▁கணக்கெ	-9502
சல	-9503
▁ஆகியோரின்	-9504
்ந்த	-9505
▁நிலவி	-9506
▁NO	-9507
▁அறுவடை	-9508
▁வரம்ப	-9509
ாகிருஷ்ணன்	-9510
ன்றோ	-9511
▁வயிற்றில்	-9512
▁இழை	-9513
▁அமேசான்	-9514
▁பயன்பாட்ட	-9515
▁கூந்த	-9516
▁செக்	-9517
▁காள	-9518
▁செஞ்ச	-9519
▁புரிந்துகொள்ள	-9520
▁நாகரிக	-9521
▁அல்லாத	-9522
▁பெயர	-9523
▁அடியாக	-9524
▁மன்னர்	-9525
▁வஞ்ச	-9526
▁ஒன்	-9527
▁பின்னணியில்	-9528
ப்பினை	-9529
▁மென	-9530
▁தோறும்	-9531
▁கள்ளக்குறிச்சி	-9532
திகார	-9533
▁அதிலிருந்து	-9534
▁அவங்க	-9535
க்கரை	-9536
▁பொழு	-9537
▁கட்டுப்பாடு	-9538
▁பேட்டியில்	-9539
▁இருபது	-9540
▁தோற்க	-9541
▁நலத்திட்ட	-9542
மாவது	-9543
▁ஆயுள்	-9544
▁கட்டுப்பாடுகள்	-9545
▁வந்தேன்	-9546
சின	-9547
▁கொள்ளாமல்	-9548
▁அமைக்கப்பட்டு	-9549
▁எதிரே	-9550
▁நியமன	-9551
▁ஷங்கர்	-9552
▁பேரவை	-9553
நொ	-9554
மனித	-9555
▁மணிகண்டன்	-9556
▁இவ்வாறான	-9557
ஜெ	-9558
▁எரிவாயு	-9559
த்தாள்	-9560
றாங்க	-9561
்கள	-9562
▁47	-9563
▁சிசி	-9564
▁கறி	-9565
▁பல்கலைக்கழகம்	-9566
▁விசுவாச	-9567
▁தொந்தர	-9568
மிர்	-9569
▁சகோதரர்	-9570
▁ஆத்	-9571
▁இப்படத்தை	-9572
தாம	-9573
▁இந்திரா	-9574
▁அசத்த	-9575
▁பாரி	-9576
▁தம்பதிய	-9577
ெஷ	-9578
க்கப்படும்	-9579
▁மோசமாக	-9580
▁தீபார	-9581
▁செய்வதற்கான	-9582
ரேட்	-9583
▁புத்திர	-9584
ம்தா	-9585
▁நடிப்பு	-9586
▁நார	-9587
▁சட்டப்பேரவை	-9588
▁போஸ்	-9589
▁நிலத்தை	-9590
▁உறுதியான	-9591
▁கமல	-9592
▁வெஸ்ட்	-9593
▁எழுப்பி	-9594
........	-9595
▁உயரம்	-9596
▁நிறத்தில்	-9597
▁மினி	-9598
▁ஊடு	-9599
▁காவல்துறைய	-9600
▁வழிநட	-9601
▁நீட்டிக்க	-9602
▁திருக்குற	-9603
ாவைப்	-9604
▁கட்டமாக	-9605
ச்சாலை	-9606
▁வியக்க	-9607
▁யுடைய	-9608
▁தொகுத்து	-9609
▁வங்கியில்	-9610
▁தெரிவு	-9611
ens	-9612
ச்செய்த	-9613
▁தயாரித்த	-9614
▁மாவட்டத்தின்	-9615
▁பார்த்தேன்	-9616
பெரு	-9617
▁காரியம்	-9618
▁சாந்தி	-9619
▁கம்பென	-9620
ug	-9621
▁எங்களது	-9622
▁கட்டுப்பாட்டில்	-9623
▁பலியாக	-9624
கார்	-9625
▁பிரிவின	-9626
▁கோஷ	-9627
ey	-9628
▁அதிசயம்	-9629
▁ஆங்கிலேய	-9630
▁முறைப்படி	-9631
▁செயற்கு	-9632
▁சென்றபோது	-9633
▁விரும்பினால்	-9634
▁எனச்	-9635
▁நிகழ்ச்சியை	-9636
டிகளை	-9637
▁காளி	-9638
▁இருக்கிறதா	-9639
▁நேர்த்த	-9640
▁பின்பற்றி	-9641
▁செய்ததாக	-9642
▁சென்னைக்கு	-9643
▁என்றுதான்	-9644
▁போர்க்க	-9645
ோரை	-9646
ிகளே	-9647
▁பொள்ளா	-9648
▁எனில்	-9649
ari	-9650
▁விடுத்துள்ளார்	-9651
ச்சம்	-9652
▁திருப்தி	-9653
▁போட்டியின்	-9654
▁அத்	-9655
வுள்ளார்	-9656
▁பயணத்தை	-9657
▁சிறுநீரக	-9658
▁புள்ளிகள்	-9659
▁குட்ட	-9660
▁வராமல்	-9661
▁புரிந்த	-9662
▁வழித்த	-9663
▁வைக்கவும்	-9664
தென்று	-9665
▁Ar	-9666
▁சிம்	-9667
▁600	-9668
ெல்லா	-9669
▁பாகம்	-9670
்கா	-9671
த்திரு	-9672
▁அவரால்	-9673
▁எடுத்துரை	-9674
▁தனிப்படை	-9675
▁அவகாசம்	-9676
பத	-9677
▁ஓவர்களில்	-9678
▁தெளிவான	-9679
▁9-	-9680
▁சூப்பிரண்டு	-9681
▁காலியாக	-9682
▁எல்லாரும்	-9683
வாசல்	-9684
▁அண்ட	-9685
▁ஆய்வுகள்	-9686
ர்ஆ	-9687
▁வெளிநாடுகளில்	-9688
▁கவனித்து	-9689
▁நெருங்கி	-9690
▁எலும்ப	-9691
▁உங்களிடம்	-9692
▁தொண்டு	-9693
▁ஸ்டாலின	-9694
▁முதலே	-9695
ண்ணை	-9696
றாக	-9697
னிங்	-9698
வாசி	-9699
▁வெளியீடு	-9700
ாயா	-9701
▁சட்டத்தில்	-9702
▁நாற்ப	-9703
▁அரைத்து	-9704
▁அக்கா	-9705
▁பதவிக்கு	-9706
மாறன்	-9707
▁மேன	-9708
▁ஆன்லைனில்	-9709
்கிழமை	-9710
▁டுவிட்டர்	-9711
▁மிளகு	-9712
▁எண்ணை	-9713
▁பயன்படுத்திக்	-9714
▁மள	-9715
▁கிழி	-9716
▁கும்பகோ	-9717
▁இப்படிய	-9718
▁கட்டப்பட்ட	-9719
ase	-9720
▁எச்சரி	-9721
▁சபையின்	-9722
ுக்கும்	-9723
▁சொன்னேன்	-9724
மேடு	-9725
▁கார்கள்	-9726
▁இச்சம்ப	-9727
▁கருது	-9728
ala	-9729
▁சட்டசப	-9730
▁மகாராஷ்டிர	-9731
▁கண்ணா	-9732
▁மதிப்புள்ள	-9733
▁சாதனையை	-9734
▁நாடகம்	-9735
ெங்கும்	-9736
▁போட்டியை	-9737
▁ஹிந்து	-9738
▁திரையரங்குகளில்	-9739
▁பொருட்களின்	-9740
▁சரண்	-9741
▁இவ்வி	-9742
▁சராசரி	-9743
▁வார்ட	-9744
▁வைத்துள்ளனர்	-9745
▁பெரம்பலூர்	-9746
▁நகரின்	-9747
▁இருந்தேன்	-9748
▁அந்நிய	-9749
▁அரபு	-9750
▁முன்னேற	-9751
▁உலகளாவிய	-9752
▁ரவீ	-9753
▁தெரிவிக்கும்	-9754
▁போனுக்கு	-9755
மடைய	-9756
▁எவரும்	-9757
▁ரயில்கள்	-9758
▁விவேக	-9759
▁மைக்ரோ	-9760
ளிக்	-9761
பல்	-9762
▁நாளான	-9763
மென்ற	-9764
▁ராமதாஸ்	-9765
ருளிய	-9766
▁எட்டி	-9767
ran	-9768
▁சேர்	-9769
ாயை	-9770
தீன்	-9771
▁வெளியிட்டது	-9772
▁குடியுரிமை	-9773
ப்பெரு	-9774
▁பேட்	-9775
▁ஆரம்பி	-9776
▁ப்ரீ	-9777
▁அம்சம்	-9778
யத்தில்	-9779
▁முன்வைக்க	-9780
ப்பூரில்	-9781
ோடி	-9782
▁நகைச்சுவை	-9783
▁காலில்	-9784
▁ال	-9785
▁வியாபாரத்தில்	-9786
▁வாசிக்க	-9787
▁விடிய	-9788
▁தொகுதிக	-9789
▁அவத	-9790
▁சிரித்த	-9791
▁களின்	-9792
▁விதிகளை	-9793
ழுக்கு	-9794
▁மேடையில்	-9795
▁வார்த்தைகள்	-9796
▁மாட்டு	-9797
▁கொண்டதாக	-9798
▁தருவதாக	-9799
▁கங்கை	-9800
▁கழுவ	-9801
விடாமல்	-9802
ண்டாக	-9803
ஷிய	-9804
▁நீர்மட்டம்	-9805
▁லிங்க	-9806
▁சாதகமாக	-9807
ுகிறார்கள்	-9808
▁மீதமுள்ள	-9809
▁வசதியாக	-9810
ார்ஜ்	-9811
▁ஆரிய	-9812
▁கருத்துக்கள்	-9813
▁முதி	-9814
▁பேசிக்	-9815
▁குழுக்கள்	-9816
▁நீக்கு	-9817
▁இனம்	-9818
▁பேசுவது	-9819
▁நிலைப்பா	-9820
னாகிய	-9821
▁பின்வரு	-9822
▁வருமாறு	-9823
▁காகி	-9824
▁போஸ்டர்	-9825
▁உதவிகளை	-9826
▁குறிக்கும்	-9827
▁ஊடகவிய	-9828
..?	-9829
▁மேனன்	-9830
▁பாஜகவ	-9831
நீங்கள்	-9832
▁ஆகியவற்றில்	-9833
▁புண	-9834
▁மேற்பார்	-9835
▁குற்றம்சாட்ட	-9836
▁அமைத்த	-9837
▁வந்தான்	-9838
ச்சர்	-9839
ய்யா	-9840
▁எழுத்தாள	-9841
▁மாறியது	-9842
▁எலும்பு	-9843
▁ஆதிக்க	-9844
35	-9845
▁விடுகிறது	-9846
▁பற்றிக்	-9847
▁உறுப்பு	-9848
▁நுழைந்து	-9849
▁தனித்த	-9850
▁பழமையான	-9851
ஸ்கார	-9852
ுவதாக	-9853
▁கதவை	-9854
▁எக்ஸ்பிரஸ்	-9855
▁புனை	-9856
▁மயங்கி	-9857
▁தாங்கி	-9858
ரது	-9859
▁கல்வித்	-9860
▁Rel	-9861
த்துறைய	-9862
ேசுவ	-9863
▁தேர்தலுக்கு	-9864
▁30-	-9865
▁ரீதியான	-9866
▁பதிய	-9867
▁யோசிக்க	-9868
ாவிர	-9869
▁do	-9870
ani	-9871
பார்க்க	-9872
ியர்கள்	-9873
ாவைச்	-9874
▁வேலைகள்	-9875
டிக	-9876
▁அபாயம்	-9877
▁நிரூபிக்க	-9878
▁போட்டியிட்ட	-9879
▁கலாசார	-9880
▁தினங்களுக்கு	-9881
்பி	-9882
▁மூட்டை	-9883
▁can	-9884
▁இன்னிங்	-9885
▁அப்படிப்பட்ட	-9886
▁ஒன்றியம்	-9887
▁பிறப்பிக்க	-9888
லன்ஸ்	-9889
▁அலங்காரம்	-9890
வர்க்க	-9891
▁உயிரை	-9892
▁சிந்து	-9893
▁கத்தி	-9894
ப்ரமண	-9895
▁ஒளிபரப்ப	-9896
▁கடற்படை	-9897
▁கட்டும்	-9898
▁நடித்தார்	-9899
ளத்தில்	-9900
▁was	-9901
▁இனியும்	-9902
▁மூழ்கி	-9903
▁தோழி	-9904
ப்பெற்று	-9905
▁வாதி	-9906
▁கோம	-9907
▁தனித்துவ	-9908
ில்லாத	-9909
9-	-9910
▁நாவல்	-9911
▁அரியலூர்	-9912
இன்ஸ்பெக்டர்	-9913
▁பேருந்துகள்	-9914
▁திரும்பப்	-9915
▁தூய	-9916
வதி	-9917
▁உரையாட	-9918
ந்துள்ளதாக	-9919
▁11-	-9920
மையு	-9921
▁பருத்தி	-9922
▁சிவில்	-9923
▁மின்க	-9924
▁நாகை	-9925
ியா்	-9926
▁பற்க	-9927
மேலும்	-9928
▁பதற்ற	-9929
▁தின்	-9930
▁பந்தில்	-9931
▁வாகனங்களில்	-9932
▁செய்கிற	-9933
▁பூரண	-9934
▁இனிமேல்	-9935
ப்பந்து	-9936
▁டெல்டா	-9937
▁கிருஷ்ணா	-9938
▁யூடிய	-9939
▁உள்ளடக்கிய	-9940
▁பிரபஞ்ச	-9941
Chennai	-9942
▁தாழ்வு	-9943
வரால்	-9944
▁பாரிய	-9945
ினரின்	-9946
ட்டது	-9947
▁நேரத்திற்கு	-9948
ங்குடி	-9949
▁அரங்கில்	-9950
▁மேட்டூர்	-9951
▁நின்றது	-9952
▁சாதாரணமாக	-9953
▁மசூ	-9954
▁மயக்க	-9955
▁படிய	-9956
இரு	-9957
▁கொண்டேன்	-9958
▁மிரட்டி	-9959
▁பெங்களூர்	-9960
▁புழு	-9961
▁ராணுவம்	-9962
ையினை	-9963
▁லண்ட	-9964
▁கூறப்படும்	-9965
▁கவித	-9966
▁மீண்டு	-9967
ாய்ப்	-9968
▁மயிலாடுதுறை	-9969
▁வங்கியின்	-9970
▁மரக்க	-9971
▁அவர்களுடன்	-9972
▁எந்தக்	-9973
▁வலைத்தளங்களில்	-9974
▁புரட்ச	-9975
▁மார்க்கெட்	-9976
▁பிரார்த்தனை	-9977
▁சிகர	-9978
▁காணப்படுகின்றன	-9979
போதிலும்	-9980
▁சீமான்	-9981
படுத்து	-9982
▁நிர்ணயிக்க	-9983
▁சம்பவத்தன்று	-9984
▁இதேவேளை	-9985
ேரி	-9986
▁நால்	-9987
▁வரைக்கும்	-9988
ிருக்	-9989
▁காளை	-9990
▁ரோட்டில்	-9991
▁கட்டிடம்	-9992
▁குழுவில்	-9993
த்தின்போது	-9994
▁விமர்சித்து	-9995
த்தானே	-9996
வரிட	-9997
க்காரன்	-9998
அடி	-9999
ல்ட்	-10000
▁உயிருக்கு	-10001
ருக்காக	-10002
25	-10003
டிகு	-10004
▁வரத	-10005
▁தவிர்ப்ப	-10006
ib	-10007
ence	-10008
ஸ்ஸ	-10009
▁வீதியில்	-10010
्त	-10011
▁மண்டபம்	-10012
▁சீனிவாசன்	-10013
வரா	-10014
க்ஸ	-10015
▁கில்	-10016
▁ஒருவரு	-10017
▁பட்டாசு	-10018
▁பழங்கள்	-10019
ise	-10020
▁நித்திய	-10021
▁குறைந்தபட்சம்	-10022
▁பிணை	-10023
புரா	-10024
▁பணிபுரிந்து	-10025
▁நடிகராக	-10026
விக	-10027
ks	-10028
ாவையும்	-10029
ருகிறது	-10030
▁செய்துகொள்ள	-10031
▁பங்களிப்பு	-10032
▁ஆற்று	-10033
▁மீடிய	-10034
▁தபால்	-10035
▁பெற்றுள்ளார்	-10036
▁மச	-10037
த்தர்	-10038
ூட்டியே	-10039
▁வந்துள்ளனர்	-10040
▁பறித்து	-10041
90	-10042
பாபு	-10043
▁கண்டறிந்து	-10044
▁லோன்	-10045
▁பொழுதுபோ	-10046
▁மியூ	-10047
▁எலுமிச்சை	-10048
▁வழங்கியது	-10049
aj	-10050
▁அடியில்	-10051
▁அடங்க	-10052
வர்களுடன்	-10053
▁விநாயக	-10054
▁அசு	-10055
▁தற்காலிகமாக	-10056
▁மாருதி	-10057
▁பிராமண	-10058
▁எம்ஜி	-10059
▁வசனம்	-10060
▁நடிகையாக	-10061
▁பரப்பு	-10062
வனம்	-10063
டிங்	-10064
▁பறக்கும்	-10065
ற்றல்	-10066
றுக்க	-10067
▁தொல்ல	-10068
ப்படுத்துவது	-10069
▁இலக்கியம்	-10070
▁பரவும்	-10071
லனை	-10072
▁நற்ப	-10073
▁அரவிந்த்	-10074
▁அதுபோல	-10075
▁சோனியா	-10076
ளர்	-10077
▁இதன்போது	-10078
ின்றும்	-10079
▁அளித்துள்ளது	-10080
az	-10081
தத்தை	-10082
▁பாடுப	-10083
▁ஒதுக்கி	-10084
ளஸ்	-10085
▁இலக்கண	-10086
▁நுழைய	-10087
▁தடுத்த	-10088
▁பொதுமக்க	-10089
▁தேவன்	-10090
நாயகம்	-10091
▁உள்ளதா	-10092
▁மேலான	-10093
▁ரோஹித்	-10094
▁விடுக	-10095
▁பொதுக்கூ	-10096
▁மோடியின்	-10097
▁அவமான	-10098
▁நேர்ம	-10099
▁பராமரி	-10100
▁அங்கீகாரம்	-10101
▁முன்னெச்சரிக்கை	-10102
▁உள்க	-10103
▁நிபந்தனை	-10104
▁பட்டியல	-10105
▁நடிகைகள்	-10106
ல்கள	-10107
▁பிட	-10108
▁திரையுலகில்	-10109
ினரும்	-10110
ாவிலிருந்து	-10111
▁களமிறங்கிய	-10112
▁பயன்பெ	-10113
தனை	-10114
ோடும்	-10115
▁தூள்	-10116
▁நதி	-10117
▁வாருங்கள்	-10118
▁அக்னி	-10119
▁நரசி	-10120
▁வீரர்களை	-10121
▁லுக்	-10122
▁வெட்க	-10123
மால்	-10124
▁அரே	-10125
ாளிகளுக்கு	-10126
▁கனகராஜ்	-10127
▁கடைசியில்	-10128
▁மாநிலங்கள	-10129
▁விமானங்கள்	-10130
▁பேசும்போது	-10131
▁தடவை	-10132
orm	-10133
ப்பதாகவும்	-10134
▁சேகர்	-10135
ogle	-10136
னர்கள்	-10137
ஷ்ம	-10138
▁பங்கள	-10139
▁அமைந்து	-10140
▁சிவபெருமான	-10141
▁எஃப்	-10142
▁நம்புகிறேன்	-10143
▁லியோ	-10144
▁பொருளாக	-10145
▁தற்பொழுது	-10146
▁வேண்டுமானால்	-10147
ாவிலும்	-10148
▁வீரராக	-10149
▁முதலாளி	-10150
▁பஞ்சாயத்து	-10151
களு	-10152
▁வழங்குவது	-10153
▁வழிகாட்ட	-10154
▁प	-10155
▁நிதியுத	-10156
▁செம்ப	-10157
▁மையங்கள்	-10158
ியான்	-10159
▁சுற்றுவ	-10160
▁யானைகள்	-10161
▁பிரிட்டிஷ்	-10162
▁ஆண்டுக்கான	-10163
▁நீடிக்க	-10164
மிதா	-10165
▁புதுச்சேரியில்	-10166
▁பற்றாக்குறை	-10167
மசிங்க	-10168
▁உடலு	-10169
▁பறக்க	-10170
▁அதேசமயம்	-10171
நேரத்தில்	-10172
▁குறைக்கும்	-10173
ka	-10174
▁சூத்திர	-10175
▁நாராயணன்	-10176
▁பெயர்கள்	-10177
▁புத்தாண்டு	-10178
▁தகவலின்	-10179
▁நிர்மலா	-10180
▁பாமக	-10181
▁தன்னார்	-10182
பெற்று	-10183
▁அஸ்வின்	-10184
இர	-10185
▁யி	-10186
▁You	-10187
▁மாரியம்மன்	-10188
▁இந்தோ	-10189
▁பொருளாளர்	-10190
▁வோ	-10191
▁செரு	-10192
▁ரேம்	-10193
▁ராயல்	-10194
லார்	-10195
▁நம்பர்	-10196
▁சமர்ப்பிக்க	-10197
▁சாட்ச	-10198
▁தலையை	-10199
▁பிண	-10200
▁பதிலடி	-10201
▁பொருத்தமான	-10202
க்கட்டு	-10203
▁செயல்பாடு	-10204
▁ஒருவராக	-10205
▁விவாதம்	-10206
▁மேற்கொண்டார்	-10207
வானது	-10208
▁தலைவன்	-10209
ெயில்	-10210
▁நடுவில்	-10211
ள்ளே	-10212
▁நோக்கு	-10213
▁மாடு	-10214
▁ஊதியம்	-10215
▁சர்வ	-10216
ட்ரிக்	-10217
▁நிபுணர்	-10218
▁இசையமைப்பாளர்	-10219
▁பாட்டி	-10220
▁சராச	-10221
▁பருப்பு	-10222
▁ரத்தம்	-10223
கலை	-10224
▁பிச்சை	-10225
▁முன்கூட்டியே	-10226
▁நீரிழிவு	-10227
▁முரளி	-10228
▁இந்தியப்	-10229
▁எம்பெ	-10230
▁எழுப்பிய	-10231
▁ஒப்புக்	-10232
ண்டே	-10233
▁காபி	-10234
▁நெட்டிச	-10235
த்தவர்	-10236
▁டேட்டா	-10237
ப்பிலும்	-10238
ெட்ட	-10239
ப்ச	-10240
▁மோதியது	-10241
▁அணையில்	-10242
▁புகார்கள்	-10243
▁பழனிச்சாமி	-10244
▁சோம	-10245
பிற	-10246
▁விவாகரத்து	-10247
▁போலும்	-10248
▁பிரத்ய	-10249
▁அக்கம்	-10250
முனி	-10251
வென்று	-10252
மைப்	-10253
▁ஆஜர்ப	-10254
▁குடித்த	-10255
ாமலேயே	-10256
▁ஓய்வூதிய	-10257
▁புத்தகங்கள்	-10258
▁கரி	-10259
▁பிரதேசம்	-10260
▁காணப்பட்ட	-10261
நபர்	-10262
▁கொவிட்	-10263
வனந்த	-10264
▁2013	-10265
▁காரைக்கால்	-10266
▁கதவு	-10267
▁சோ்ந்த	-10268
▁சரவண	-10269
த்தின்க	-10270
▁உத்தரவின்	-10271
▁கோபுர	-10272
▁கூட்டமைப்பின்	-10273
▁முயற்சிகளை	-10274
KIA	-10275
நிறுவன	-10276
ட்டைப்	-10277
..!!	-10278
▁ஒடுக்க	-10279
▁நோட்டீஸ்	-10280
ருக்குப்	-10281
லையை	-10282
▁யாழ்ப்பாணம்	-10283
▁மூலமும்	-10284
▁பொருள்களை	-10285
▁திருத்தம்	-10286
மழ	-10287
▁NOKIA	-10288
ிறதா	-10289
பஸ்	-10290
ார்களே	-10291
ஜோ	-10292
▁உடல	-10293
▁படுகாயம்	-10294
▁வெடித்து	-10295
சித்தி	-10296
▁ஆனார்	-10297
▁தத்த	-10298
▁விளையாடு	-10299
▁கருவிகள்	-10300
ாற்	-10301
▁7900	-10302
ங்ஙன	-10303
▁வீழ்த்தி	-10304
த்துள்ளனர்	-10305
▁சந்திக்கும்	-10306
▁கட்டமைப்பு	-10307
▁திருமதி	-10308
▁கேட்டபோது	-10309
▁செய்வார்கள்	-10310
▁எதிர்க்கட்சிகள்	-10311
தாரர்கள்	-10312
▁உகந்த	-10313
▁ஏங்கினோம்	-10314
▁நிவாரணம்	-10315
▁பின்வரும்	-10316
▁செய்யத்	-10317
ங்களோடு	-10318
▁டெஸ்ட	-10319
▁ஹூண்டாய்	-10320
▁வெளியாகியுள்ளன	-10321
▁உதவியாக	-10322
எஸ்டி	-10323
▁மகிழ்	-10324
▁செல்கின்றனர்	-10325
ம்பழ	-10326
▁செயலாளர்கள்	-10327
▁மகேஷ்	-10328
▁உலோக	-10329
▁வாக்குப்பதிவு	-10330
▁பரம்ப	-10331
▁20-	-10332
ப்பைப்	-10333
வீன்	-10334
▁எதிர்த்த	-10335
▁கனடா	-10336
ியடை	-10337
▁ஈர்க்க	-10338
விதமாக	-10339
ப்பாக்கம்	-10340
▁ரீமே	-10341
▁பரிந்துரைக்க	-10342
பாத்தில்	-10343
▁ஆட்டத்தை	-10344
▁குடும்பத்துடன்	-10345
ich	-10346
▁மாட்டோம்	-10347
▁வடகிழக்கு	-10348
காச	-10349
▁இறைச்சி	-10350
▁ஜடே	-10351
▁(2)	-10352
▁திறன	-10353
▁யான்	-10354
▁கொடுத்தனர்	-10355
▁மேற்கொள்ளும்	-10356
▁பரிவர்த்த	-10357
▁பலாத்காரம்	-10358
▁எல்லோருக்கும்	-10359
▁விற்ற	-10360
▁ஊழியர்களுக்கு	-10361
னான்	-10362
ப்படுத்தப்பட்ட	-10363
▁போனால்	-10364
▁ஆதரவாள	-10365
▁உருவாகியுள்ள	-10366
நர்கள்	-10367
▁கறுப்பு	-10368
▁பெருங்க	-10369
மாம	-10370
ுவோம்	-10371
▁ஹீரோவாக	-10372
▁56	-10373
▁நடைமுறையில்	-10374
▁மனிதர்	-10375
▁கோண	-10376
▁குறைபாடு	-10377
▁ஜெயக்குமார்	-10378
▁லாக	-10379
லுக்காக	-10380
▁சொன்னான்	-10381
▁சுந்த	-10382
▁திருப்த	-10383
▁இல்லத்தில்	-10384
▁சென்றுள்ளனர்	-10385
கவலை	-10386
▁குரோ	-10387
▁ஒன்றான	-10388
▁பேத	-10389
▁விஜய்யின்	-10390
▁துவங்கியது	-10391
▁அசோக்	-10392
▁சாதிய	-10393
▁பயன்பாட்டு	-10394
▁இறங்கிய	-10395
வரத்து	-10396
▁தருவ	-10397
வா்கள்	-10398
▁விளக்கம	-10399
ace	-10400
்டீ	-10401
▁மதிப்பீட்டில்	-10402
▁சீர்திருத்த	-10403
▁பஸ்ச	-10404
க்கரி	-10405
▁(5	-10406
டைப்பு	-10407
pl	-10408
ட்டான	-10409
▁அப்பட	-10410
ாட்ச	-10411
போய்	-10412
▁கொடுப்பது	-10413
▁புதுடெல்லி	-10414
▁செய்முறை	-10415
▁போவதாக	-10416
▁தீரும்	-10417
▁சக்தியை	-10418
க்காமல்	-10419
▁நடுவே	-10420
▁ஆங்காங்கே	-10421
▁51	-10422
க்கமும்	-10423
▁பதின	-10424
▁செய்யப்பட்டன	-10425
▁வெகுவாக	-10426
ப்ரா	-10427
ng	-10428
▁அறக்கட்டளை	-10429
▁இறக்கி	-10430
▁வைப்பது	-10431
▁பற்றிப்	-10432
▁நாடுகளை	-10433
▁பற்று	-10434
ங்குளம்	-10435
ரவி	-10436
▁j	-10437
▁தவணை	-10438
▁முன்னரே	-10439
▁சேதம்	-10440
மெல்லாம்	-10441
▁பொறி	-10442
ப்பாகும்	-10443
▁சிவாஜி	-10444
▁உலகப்	-10445
▁விஞ்ஞானிகள்	-10446
▁நிக்க	-10447
▁உண்ணாவிர	-10448
▁நடந்துள்ளது	-10449
▁அணையின்	-10450
▁சிறுமியை	-10451
▁செயல்பாடுகள்	-10452
▁தனியா	-10453
▁செரி	-10454
▁உணவ	-10455
▁முள்ள	-10456
▁தென்னா	-10457
ொள்க	-10458
▁பிரசாரம்	-10459
▁நகரை	-10460
▁வெடிகு	-10461
ef	-10462
▁ஆடம்பர	-10463
க்கன்	-10464
மிக்	-10465
▁அரசியலமைப்பு	-10466
▁ஊட்டி	-10467
▁ஞானம்	-10468
▁பணியாற்றும்	-10469
▁வங்காள	-10470
ட்ர	-10471
▁Z	-10472
▁வீடியோவில்	-10473
▁வரையிலும்	-10474
▁ஸ்பெஷ	-10475
▁பிரிவின்	-10476
த்தேர்வு	-10477
ஸ்வரர்	-10478
▁அனுமதிய	-10479
▁சென்றால்	-10480
▁திசையில்	-10481
▁கொண்டும்	-10482
▁கேரக்ட	-10483
▁கூர்	-10484
▁கன்னி	-10485
▁பேரணி	-10486
ிருப்பதாகவும்	-10487
▁பரவிய	-10488
ெல	-10489
▁cont	-10490
ிருத்	-10491
▁பாஸ்ப	-10492
▁யாவும்	-10493
▁பட்டியலை	-10494
▁வைகோ	-10495
▁தடவி	-10496
▁வளர்ச்சிக்கு	-10497
▁தமிழர்களின்	-10498
▁கன்னட	-10499
மையே	-10500
▁லும்	-10501
ரிகள்	-10502
▁பயணிக்க	-10503
▁காடு	-10504
▁வந்தவர்	-10505
▁தொடக்கம்	-10506
▁லண்டன்	-10507
நோக்கி	-10508
▁67	-10509
▁உதவியாளர்	-10510
▁ஆதரவாளர்கள்	-10511
▁சாலைகள்	-10512
▁திருவனந்த	-10513
ட்டாட்ச	-10514
▁அர்ப்பணி	-10515
▁மாநிலங்கள்	-10516
▁காய்கறிகள்	-10517
▁தொற்றால்	-10518
நிலைப்	-10519
▁லேசான	-10520
▁வைக்கப்பட்டு	-10521
ிகாரம்	-10522
▁வைத்துள்ளது	-10523
▁வெற்றிக்கு	-10524
▁கிறது	-10525
▁கார்க	-10526
தெல்லாம்	-10527
▁வேலைவாய்ப்ப	-10528
▁வாகனத்தை	-10529
▁நடித்திருந்தார்	-10530
▁விரைவு	-10531
▁ஆபத்த	-10532
▁கர்ப்பி	-10533
▁தழு	-10534
▁செந்தில	-10535
▁அடுத்தடுத்த	-10536
▁பெருமான	-10537
▁வணக்கம்	-10538
▁முழுதும்	-10539
▁பணியாளர்	-10540
பாண்ட	-10541
▁குறைந்துள்ளது	-10542
▁உள்ளோம்	-10543
▁புகைய	-10544
க்கமான	-10545
▁வெளியிடு	-10546
எஸ்கே	-10547
▁எடுக்கப்பட்டு	-10548
▁நச்சு	-10549
தென	-10550
▁செயலாளராக	-10551
ாதேவி	-10552
▁வைரலாக	-10553
har	-10554
▁குடிநீ	-10555
▁உறுப்பினராக	-10556
▁தீர்த்து	-10557
▁முஸ்லிம்கள்	-10558
▁ராஜேந்திரன்	-10559
▁வீண்	-10560
▁சூதா	-10561
ச்சில்	-10562
வுக்க	-10563
▁sp	-10564
▁டிரம்ப்	-10565
▁தூரத்தில்	-10566
தவ	-10567
▁துருக்கிய	-10568
▁அழித்து	-10569
▁வன்கொடுமை	-10570
▁மக்களவை	-10571
▁சமரச	-10572
ollow	-10573
ne	-10574
▁கூறலாம்	-10575
▁குழாய்	-10576
▁காலனி	-10577
▁தொழிற்சங்க	-10578
ப்பாட்டு	-10579
ம்பாளையம்	-10580
▁பகுதிகளுக்கு	-10581
▁அபராத	-10582
ானால்	-10583
▁நன்கொ	-10584
▁மாத்திரம்	-10585
▁நேரிடும்	-10586
ீத்	-10587
▁மாடலில்	-10588
▁வார்த்தைகளை	-10589
▁போர	-10590
▁விடவும்	-10591
▁விவரி	-10592
▁54	-10593
▁Related	-10594
▁ஜல்லிக்கட்டு	-10595
த்தேன்	-10596
▁மகிழ்ச்சியாக	-10597
▁ஏற்பட்டால்	-10598
ெதிர	-10599
ஷை	-10600
▁ஹாலி	-10601
▁ஜு	-10602
▁செய்துவ	-10603
▁சஹ	-10604
வர்தான்	-10605
▁அதிகப்படியான	-10606
▁சந்தித்தார்	-10607
▁இளையராஜா	-10608
ர்வோர்	-10609
தமான	-10610
▁ஆன்மா	-10611
நம்	-10612
▁உருக	-10613
▁பித்த	-10614
▁சேர்த்தனர்	-10615
▁All	-10616
▁உடுமலை	-10617
▁ஏவுகணை	-10618
▁மேல்முறைய	-10619
▁பார்த்தபோது	-10620
▁இன்னி	-10621
▁ஹெலிகா	-10622
▁ஜய	-10623
▁பெருமையை	-10624
▁பாதிப்புகள்	-10625
▁சிட்டி	-10626
▁ஓடும்	-10627
▁திங்கட்கிழமை	-10628
▁அதிர்ச்சியடைந்த	-10629
▁செய்வதில்	-10630
▁வெள்ளத்தில்	-10631
▁அகர்வால்	-10632
▁வன்ன	-10633
▁தருகிறது	-10634
▁களும்	-10635
சக்தி	-10636
▁போராள	-10637
▁தீர	-10638
▁தாத்தா	-10639
ாரிடம்	-10640
ுவதற்கான	-10641
▁58	-10642
ுகளையும்	-10643
▁தானம்	-10644
▁கிரிக்கெட்டில்	-10645
▁தலித்	-10646
▁அம்மாநில	-10647
▁ஆதிக்கம்	-10648
ணாம	-10649
ூம்	-10650
▁அடக்கம்	-10651
▁விடுதி	-10652
▁செயற்குழு	-10653
▁செய்யவேண்டும்	-10654
னமாக	-10655
▁குளம்	-10656
▁விரதம்	-10657
▁சமூகத்தின்	-10658
▁கணபதி	-10659
▁மஹா	-10660
▁கொண்டான்	-10661
▁கிராமத்தைச்	-10662
▁சார்ஜ்	-10663
▁பைய	-10664
▁சூற	-10665
▁சுப்பிரமணியன்	-10666
றியும்	-10667
▁கம்ப்	-10668
▁தகுதியான	-10669
ட்டமைப்பு	-10670
▁கம்பெ	-10671
ப்பட்டினம்	-10672
▁கொண்டுள்ளார்	-10673
▁நாற்கால	-10674
ேஸ்வரி	-10675
▁நீண்டகால	-10676
▁சரீர	-10677
▁புதுப்பி	-10678
▁அழிந்து	-10679
▁வாக்கிய	-10680
ினா்	-10681
▁ராதாகிருஷ்ணன்	-10682
▁அமலுக்கு	-10683
▁ஷோ	-10684
▁குஷ	-10685
▁பெறுவதற்கு	-10686
▁சதம்	-10687
▁எப்போதுமே	-10688
பாட	-10689
ம்போல்	-10690
▁மேட்டு	-10691
▁டிவியில்	-10692
பொழுது	-10693
▁இடம்பெற	-10694
▁கருத்தர	-10695
▁டிரெய்	-10696
▁ஆகியோருக்கு	-10697
▁மேற்கொள்ளப்பட்ட	-10698
▁இழி	-10699
▁ராமர்	-10700
▁மிகச்சிற	-10701
▁அதற்குள்	-10702
▁அபிஷேக	-10703
▁சுத்திக	-10704
வாயில்	-10705
▁ஆதரிக்க	-10706
ட்சும	-10707
▁எழும்ப	-10708
மாடி	-10709
▁இருந்தார்கள்	-10710
▁பேசியுள்ளார்	-10711
▁சுவர்	-10712
▁தாராள	-10713
▁இம்முறை	-10714
▁பத்தி	-10715
▁சொல்கிறார்கள்	-10716
▁vi	-10717
▁நிகழ்ச்சியின்	-10718
▁பார்ப்பது	-10719
டிக்கண	-10720
▁அடைந்துள்ளனர்	-10721
▁வெளியிடப்பட்டது	-10722
நின்ற	-10723
எஃப்	-10724
??	-10725
▁தொடங்கியுள்ளது	-10726
▁எப்பொழுதும்	-10727
▁எடைய	-10728
ical	-10729
ணையின்	-10730
▁செல்ப	-10731
▁தமி	-10732
▁பார்வையிட்டு	-10733
:1	-10734
த்தீவு	-10735
▁பிரதமராக	-10736
▁எஸ்ட	-10737
▁வேட்டை	-10738
▁நிகழும்	-10739
▁தாமதம்	-10740
▁கலந்துகொண்டனர்	-10741
▁போவது	-10742
▁ஆர்வலர்கள்	-10743
▁நீங்களே	-10744
chi	-10745
ப்பிடி	-10746
▁வங்கிக்	-10747
▁பள்ளிக்	-10748
▁இந்தியர்கள்	-10749
போர்	-10750
ின்று	-10751
▁சட்டை	-10752
த்திற்குச்	-10753
▁தெலுங்கில்	-10754
▁செய்வதை	-10755
.5	-10756
▁கிடக்க	-10757
▁கிமீ	-10758
▁அமைப்பில்	-10759
▁நெருக்கமான	-10760
▁யொ	-10761
மைக்கும்	-10762
▁நாயுடு	-10763
▁மார்க்சி	-10764
ியிலும்	-10765
ர்பி	-10766
▁நீளம்	-10767
▁முதலியன	-10768
▁விஷயத்தை	-10769
▁விளி	-10770
▁85	-10771
▁புத்து	-10772
▁காரணங்களால்	-10773
▁கூறினார்கள்	-10774
ுவதற்காக	-10775
▁கல்க	-10776
்தொ	-10777
▁மன்	-10778
▁பேசியது	-10779
▁வருங்கால	-10780
மன்ன	-10781
▁என்னு	-10782
▁வளர்ச்சியை	-10783
▁டைம்	-10784
▁இறப்பு	-10785
னியை	-10786
▁படுக்கை	-10787
▁கம்ம	-10788
▁சச்சின்	-10789
▁உறி	-10790
▁முயன்று	-10791
▁வயதுடைய	-10792
ையினால்	-10793
▁கோது	-10794
லாய	-10795
தாரர்	-10796
▁செயல்படுகிறது	-10797
நாக	-10798
▁ஹோட்டல்	-10799
▁பெட்டி	-10800
...!!!	-10801
▁திறனை	-10802
▁இறைவனை	-10803
ப்படாது	-10804
▁குரலில்	-10805
▁உச்சநீதிமன்றம்	-10806
ong	-10807
▁நிகழ்ச்சிக்கு	-10808
டியு	-10809
ஷனல்	-10810
▁சினிமாவின்	-10811
▁அண்டை	-10812
▁நிலுவையில்	-10813
▁கருணாநி	-10814
கத்தை	-10815
▁கண்டறி	-10816
ிலிருந்தே	-10817
▁இனிப்பு	-10818
்ரீ	-10819
▁சுலப	-10820
▁ஹெச்	-10821
▁பல்லடம்	-10822
ளவும்	-10823
▁விடலாம்	-10824
்தி	-10825
▁ஃபை	-10826
▁காதலை	-10827
▁வாசனை	-10828
▁i	-10829
▁அரசிடம்	-10830
▁அரசியலுக்கு	-10831
ெண்ட்	-10832
▁72	-10833
▁வந்திருந்த	-10834
▁ஜன்ன	-10835
▁பொடி	-10836
▁ஓட்டுநர்	-10837
▁ஆகிறது	-10838
▁வினோத்	-10839
▁கிழமை	-10840
▁இன்ச்	-10841
▁அவரவர்	-10842
▁டேவிட்	-10843
நாம்	-10844
▁தாக்கத்தை	-10845
ப்பிட்ட	-10846
ெடி	-10847
▁ஹாட்	-10848
▁பின்வருமாறு	-10849
பது	-10850
▁குவித்து	-10851
▁வரவேண்டும்	-10852
▁தாலி	-10853
▁கேலக்	-10854
ச்சிக்க	-10855
▁இருதய	-10856
▁ஐபோன்	-10857
▁பறந்து	-10858
▁சாதகமான	-10859
▁தமிழீழ	-10860
சிசிஐ	-10861
▁என்ஜின்	-10862
▁அப்போதுதான்	-10863
ில்லாமல்	-10864
▁விழுந்தது	-10865
▁எண்ணிக்கையில்	-10866
▁கல்லு	-10867
▁கம்பெனி	-10868
ிற்குள்	-10869
▁நிறுவனர்	-10870
வாழ்	-10871
▁திகழ்க	-10872
▁அளித்தது	-10873
▁தாழ்த்த	-10874
▁தலைப்பு	-10875
ெய்து	-10876
▁6,	-10877
▁பண்ணை	-10878
▁உளு	-10879
▁திருப்பத்தூர்	-10880
▁மன்ம	-10881
வனு	-10882
▁வெண்ப	-10883
▁நபரை	-10884
▁கேட்டேன்	-10885
▁வாக்கெ	-10886
▁தெருவை	-10887
▁சிறித	-10888
▁பதிலளித்த	-10889
ங்ச	-10890
▁என்றேன்	-10891
▁வளர்ப்பு	-10892
▁இரங்கல்	-10893
▁கோவிந்த	-10894
திக்கும்	-10895
வர்க்கு	-10896
▁நூற்றுக்கணக்கான	-10897
▁ரன்ன	-10898
lick	-10899
▁நடனம்	-10900
▁வாடிக்கையாளரை	-10901
லைன்	-10902
▁கொடுத்தால்	-10903
▁கோவ	-10904
▁சாலைகளில்	-10905
▁மறுப்பு	-10906
▁சிறுகதை	-10907
▁விதம்	-10908
▁நூற்றாண்டில்	-10909
லான்	-10910
▁போராட	-10911
▁குறிக்கோ	-10912
▁ஐடி	-10913
▁தேவர்	-10914
▁சிரிக்க	-10915
▁ஆசி	-10916
atch	-10917
ாளர்களின்	-10918
விட்டான்	-10919
▁நடவடிக்கையை	-10920
▁கடிதத்தில்	-10921
ர்களு	-10922
▁ஆங்கிலத்தில்	-10923
▁புலவர்	-10924
▁நுண்ண	-10925
▁திரவ	-10926
▁செவி	-10927
▁விஸ்வ	-10928
▁உபகரணங்கள்	-10929
ட்டால்	-10930
▁அவா்	-10931
▁இன்பம்	-10932
▁எப்	-10933
▁ஆரோக்கியம்	-10934
▁எந்திர	-10935
▁சின்னம்	-10936
▁இன்றே	-10937
▁நியாயமான	-10938
▁இதையொட்டி	-10939
▁கல்லூரிகளில்	-10940
▁ஆங்கிலம்	-10941
▁முற்றுக	-10942
▁நேராக	-10943
ச்சென்ற	-10944
▁கொண்டவர்	-10945
▁வரத்து	-10946
ஞ்சிய	-10947
▁இயலாத	-10948
▁பெற்றனர்	-10949
▁கேலக்ஸி	-10950
ஷ்குமார்	-10951
▁படைப்பு	-10952
▁குழப்பம்	-10953
▁அணிவகு	-10954
▁வேடத்தில்	-10955
▁இரக	-10956
▁குரூப்	-10957
▁நிர்வா	-10958
▁ள்	-10959
▁ஆக்சிஜன்	-10960
ானோ	-10961
▁63	-10962
▁ஓட்டம்	-10963
▁நேர்காண	-10964
▁பொருந்திய	-10965
▁கலக்க	-10966
ச்சாரம்	-10967
▁பேரிடர்	-10968
▁ராவ்	-10969
▁ஒன்றரை	-10970
▁கேப்டனாக	-10971
▁கூட்டத்தை	-10972
▁ஆகியோரும்	-10973
▁Google	-10974
▁பனை	-10975
▁வயிறு	-10976
▁முன்னெடுத்து	-10977
▁பெய்தது	-10978
▁ஹைதராபாத்	-10979
▁யாரையும்	-10980
▁நிலையிலும்	-10981
▁போட்டியிடும்	-10982
▁குழாய	-10983
த்திலிருந்த	-10984
▁இதெல்லாம்	-10985
ாகத்	-10986
ஸ்வா	-10987
▁have	-10988
▁குழுவின	-10989
▁htt	-10990
yr	-10991
▁Com	-10992
▁வேள	-10993
.-	-10994
ானின்	-10995
▁டீஸ்பூன்	-10996
▁நடத்தியது	-10997
▁குறிக்க	-10998
ூறிய	-10999
ப்போய்	-11000
▁பரவியது	-11001
க்கிட்டு	-11002
ame	-11003
▁ஆந்திரா	-11004
ங்கின்	-11005
▁தேடும்	-11006
▁இறுதிப்	-11007
▁டெங்கு	-11008
▁பிரித்தானிய	-11009
▁இட்	-11010
▁ஆழ்த்த	-11011
▁வெங்கட்	-11012
▁திரைப்படங்களில்	-11013
▁சுக்கிர	-11014
ிலர்	-11015
▁பயன்படுத்துவது	-11016
▁கட்	-11017
▁வீடுக	-11018
்குமார	-11019
▁சிறிலங்கா	-11020
▁எழுதியுள்ளார்	-11021
▁தயிர்	-11022
▁பேட்ஸ்மே	-11023
▁செலவுகள்	-11024
▁மாகாணத்தில்	-11025
▁53	-11026
▁கூடவே	-11027
▁எடுத்தார்	-11028
ப்பதற்கும்	-11029
யிலை	-11030
▁கூறியிருப்ப	-11031
ெனின்	-11032
▁நுரைய	-11033
▁முப்ப	-11034
த்துக்க	-11035
▁அடிப்படையாகக்	-11036
▁தைய	-11037
▁டைன	-11038
▁டான்	-11039
▁சிவன	-11040
கண	-11041
▁என்கிறது	-11042
▁துருக்கி	-11043
ப்பன	-11044
rou	-11045
▁செல்வாக்கு	-11046
ட்டார	-11047
ள்களை	-11048
▁பஸ்க	-11049
▁பிறகே	-11050
▁திச	-11051
▁மிருக	-11052
▁பார்த்தி	-11053
▁வீரர்களுக்கு	-11054
▁டெலிவரி	-11055
▁சீரியலில்	-11056
▁மாற்றத்தை	-11057
▁தீர்ப்பை	-11058
▁வைத்துக்கொண்டு	-11059
▁ஈடுபடுத்த	-11060
▁உலகக்கோ	-11061
▁மின்னணு	-11062
▁கிஷ	-11063
ளிக்கிறது	-11064
▁ஏராளமானோர்	-11065
▁சவால்	-11066
▁ராசிக்கு	-11067
நிறுத்த	-11068
▁வேட்பாளர்கள்	-11069
▁ஒளிப்பதிவு	-11070
▁வழங்கியுள்ளது	-11071
▁வெப்பம்	-11072
▁கலாய	-11073
▁இடத்திலும்	-11074
தாவ	-11075
முர	-11076
▁வேட்பாளராக	-11077
டில்	-11078
▁கட்சிகளின்	-11079
▁வாக்குவாதம்	-11080
▁எகி	-11081
▁கெள	-11082
▁மீன்பிடி	-11083
▁கண்காணிப்பாளர்	-11084
▁மசால	-11085
▁இஸ்தான்	-11086
▁இட்டு	-11087
▁பார்க்கும்போது	-11088
▁கடற்கரையில்	-11089
▁சரஸ்வ	-11090
மலர்	-11091
▁இவர்களில்	-11092
மல்லி	-11093
பிக்	-11094
▁ஆகியவற்று	-11095
▁செல்வதற்கு	-11096
்தல்	-11097
▁(19	-11098
▁அப்படியான	-11099
▁2012	-11100
▁சூட்ட	-11101
▁சிறுவர்கள்	-11102
பத்து	-11103
▁டொயோ	-11104
▁திணைக்கள	-11105
▁நீங்களும்	-11106
ந்துறை	-11107
▁தேர்வுகள்	-11108
ம்பிக்க	-11109
▁இருந்தவர்	-11110
றியலில்	-11111
act	-11112
றிக	-11113
▁சட்டமன்றத்	-11114
ட்படுத்த	-11115
க்கப்பட்டனர்	-11116
▁ஜாதி	-11117
.3	-11118
▁ஐயா	-11119
▁பொள்ளாச்சி	-11120
▁அரண்மனை	-11121
▁எஸ்யூ	-11122
காஷ்	-11123
▁கேட்டது	-11124
ர்ஷ	-11125
ன்னுடைய	-11126
▁எடுக்கவில்லை	-11127
▁செய்கின்றனர்	-11128
▁உதாரண	-11129
சேன	-11130
▁இவற்று	-11131
▁வீட்டிலேயே	-11132
्व	-11133
▁சீதார	-11134
▁அடைத்தனர்	-11135
▁சுழற்சி	-11136
வாளி	-11137
▁சீசனில்	-11138
▁க்கள்	-11139
▁தேவத	-11140
▁நுகர்வோர்	-11141
▁தினத்தை	-11142
ரணி	-11143
ஸ்சி	-11144
▁உச்சி	-11145
▁பிசிசிஐ	-11146
▁சமுத்திர	-11147
▁அள்ளி	-11148
▁படத்திலும்	-11149
்காலத்தில்	-11150
▁கழுத்தில்	-11151
வில்லைய	-11152
▁பெற்றவர்	-11153
▁சுவாமிகள்	-11154
▁கடைபிடிக்க	-11155
▁டென்	-11156
ேரில்	-11157
▁இயக்கத்தின்	-11158
▁உத்தரவிட்ட	-11159
▁சர்ச்சைக்கு	-11160
▁தளர்வு	-11161
▁வளம்	-11162
▁விசா	-11163
▁கைகளை	-11164
▁சரித்திர	-11165
▁போராட்டங்கள்	-11166
▁மெயின்	-11167
▁வொ	-11168
▁செய்தேன்	-11169
▁முஹ	-11170
▁பெரும்பான்மை	-11171
▁இந்நூ	-11172
ழ்வார்	-11173
▁வெளியி	-11174
க்கல	-11175
லைகள்	-11176
▁66	-11177
▁பேருக்கும்	-11178
ின்றான்	-11179
▁கொந்த	-11180
▁தெய்வம்	-11181
▁அனுமதிக்கப்பட்ட	-11182
▁விஷம்	-11183
▁கீழ்க்க	-11184
▁வித்	-11185
▁மாமா	-11186
▁நரம்ப	-11187
▁செய்யக்	-11188
▁அசுர	-11189
▁மாணவன்	-11190
▁ஆன்மிக	-11191
zee	-11192
▁அல்லாஹ	-11193
▁68	-11194
▁புல்ல	-11195
்களையும்	-11196
▁மம்தா	-11197
க்கத்	-11198
▁பாலசு	-11199
வட	-11200
▁செய்துவிட்டு	-11201
▁விக்கெட்டு	-11202
▁அதையும்	-11203
▁சோகத்தை	-11204
ேன	-11205
தைக்கு	-11206
ப்படுவதில்லை	-11207
▁அங்கேயே	-11208
▁செங்கு	-11209
படும்	-11210
▁நடத்துவது	-11211
▁கண்காட்சி	-11212
▁பேச்சை	-11213
▁பாதுகாப்பை	-11214
▁பிறர்	-11215
▁ஓடிய	-11216
▁நேரமும்	-11217
▁வாள	-11218
▁அக்ஷ	-11219
்கோ	-11220
ப்படம்	-11221
▁சேவைகளை	-11222
்சன்	-11223
ாதான்	-11224
▁பட்ஜெட்டில்	-11225
▁எளிதான	-11226
ticle	-11227
able	-11228
▁கார்ப்ப	-11229
▁அவளுடைய	-11230
▁site	-11231
▁செய்வீங்களா	-11232
▁உருளை	-11233
ற்றது	-11234
▁2010	-11235
னிக்	-11236
▁போகலாம்	-11237
▁வெளிப்புற	-11238
▁மனுக்கள்	-11239
பியா	-11240
▁காவலர்	-11241
▁முதலாம்	-11242
ேயுள்ள	-11243
ph	-11244
குல	-11245
▁நிறைவடை	-11246
▁நடவடிக்கையும்	-11247
▁கல்வித்துறை	-11248
▁வாரங்களுக்கு	-11249
▁நிலைமையை	-11250
▁பிளவு	-11251
▁காலத்திற்கு	-11252
.....	-11253
▁மகாராஷ்டிரா	-11254
▁resp	-11255
▁கணின	-11256
▁துளை	-11257
▁இஞ்சி	-11258
▁காக	-11259
ங்கிக்	-11260
மன்றி	-11261
▁கலவை	-11262
▁நிறுவனத்தை	-11263
▁புதன்	-11264
▁இளம்பெண்	-11265
தவிர	-11266
ிருத	-11267
ரொ	-11268
▁நம்மால்	-11269
ாவள	-11270
▁இப்படிகூட	-11271
▁ஜெனரல்	-11272
illzee	-11273
பேர்	-11274
▁வீராங்கனை	-11275
▁கோரிக்கைகள்	-11276
▁கலக	-11277
▁தெரிந்துகொள்ள	-11278
பார்த்த	-11279
ஸ்ப்	-11280
▁சந்தன	-11281
ீஸ்வரர்	-11282
▁நிர்வாகி	-11283
▁வம்ச	-11284
வர்களால்	-11285
▁14-	-11286
▁தங்கை	-11287
▁எடுத்துக்கொண்ட	-11288
▁கிளம்பி	-11289
▁மாற்றும்	-11290
▁நிருப	-11291
▁பிரபாகரன்	-11292
▁திருநா	-11293
!'	-11294
▁(0	-11295
▁தயவு	-11296
▁கூறப்பட்ட	-11297
▁மாறுபட்ட	-11298
▁his	-11299
திரா	-11300
▁சற்றே	-11301
▁கருண	-11302
▁நாளித	-11303
▁கிறிஸ்தவ	-11304
▁பார்த்தார்	-11305
▁முற்போ	-11306
▁த்ரி	-11307
▁முடிவடை	-11308
ific	-11309
மாக்கி	-11310
வுட்டில்	-11311
▁முதன்முறையாக	-11312
▁படைகள்	-11313
▁பூமியில்	-11314
அரச	-11315
▁இல்லா	-11316
▁சன்னி	-11317
ஃப்ட்	-11318
▁விளங்குக	-11319
▁பகிர்ந்த	-11320
ொற்று	-11321
▁வருத்தம்	-11322
▁தாசில	-11323
த்தியும்	-11324
▁தமிழ்நாட்டின்	-11325
ரியம்	-11326
▁ராஜீவ்	-11327
▁வகுப்புகள்	-11328
▁களமிறங்க	-11329
▁வழிபட	-11330
▁has	-11331
ா்ந்து	-11332
▁கழகத்தின்	-11333
சும்	-11334
▁மணிர	-11335
▁மையங்களில்	-11336
▁குழி	-11337
ள்ளதாகவும்	-11338
▁எழுதுக	-11339
▁ஏமாற்றி	-11340
▁முரு	-11341
ட்ரி	-11342
▁நிலவ	-11343
▁நெறிமுறை	-11344
ட்டியை	-11345
ஞ்சீ	-11346
▁அடைத்து	-11347
▁பிரத்யேக	-11348
▁மழையால்	-11349
▁அரசா	-11350
▁சேகரிக்க	-11351
▁பொறுப்பை	-11352
▁ஒருவரான	-11353
ுவார்கள்	-11354
ப்புகளும்	-11355
▁கைகளில்	-11356
▁கடினமாக	-11357
▁துக்க	-11358
தாரி	-11359
ப்பிலிருந்து	-11360
▁பஸ்கள்	-11361
▁சீர்	-11362
▁வெளியேறிய	-11363
▁விட்டேன்	-11364
சென்னை	-11365
▁கொதிக்க	-11366
▁தனித்தனியாக	-11367
ன்களும்	-11368
▁பிஎஸ்	-11369
▁ஒருசில	-11370
▁இவர்களது	-11371
க்கீல்	-11372
யான்	-11373
▁என்பதைத்	-11374
▁வாக்காளர்	-11375
▁சீத	-11376
▁கல்லூரிகள்	-11377
▁சட்டப்படி	-11378
ஞ்சை	-11379
▁தேதிகளில்	-11380
▁சஞ்சய்	-11381
▁அருள்ப	-11382
ப்பாய்	-11383
ர்கா	-11384
▁வைத்தியசாலையில்	-11385
▁பார்வதி	-11386
▁உண்மையாக	-11387
▁விட்டார்கள்	-11388
▁முறைகேடு	-11389
▁உயர்நீதிமன்றம்	-11390
▁மதிப்பீடு	-11391
▁பெண்ணுக்கு	-11392
▁கற	-11393
ிருப்பார்கள்	-11394
▁திவ்ய	-11395
▁அழுது	-11396
ப்போடு	-11397
▁விளம்பரம்	-11398
னைச்	-11399
்தோறும்	-11400
▁காணவில்லை	-11401
▁மக்களுக்கும்	-11402
▁பெண்களும்	-11403
▁சரமார	-11404
▁இக்கால	-11405
▁ஜாக	-11406
த்தறி	-11407
▁மென்மையான	-11408
aw	-11409
▁பாலு	-11410
ஐடி	-11411
▁ஃபேஸ்புக்	-11412
▁பாசி	-11413
ிக்கொண்டே	-11414
▁வலியுறுத்து	-11415
ையி	-11416
முற்ற	-11417
வதைத்	-11418
▁இனிமே	-11419
ரியன்	-11420
▁நெட்வ	-11421
▁ரம்யா	-11422
▁தில்லி	-11423
ont	-11424
ப்பெய	-11425
ாளர்களை	-11426
ுவா	-11427
▁தனித்து	-11428
ிகொ	-11429
▁குடும்பங்கள்	-11430
▁கண்காட்ச	-11431
▁193	-11432
▁டிராக	-11433
▁அழுத	-11434
▁பெறுகிறது	-11435
▁புகுந்த	-11436
▁பெற்றுக்கொள்ள	-11437
▁அப்போதைய	-11438
▁புளிய	-11439
ராத்திரி	-11440
ளியல்	-11441
▁இன்டர்	-11442
ாலில்	-11443
்கிறது	-11444
▁வட்டாரங்கள்	-11445
த்தடி	-11446
த்தியது	-11447
ாயி	-11448
▁வனத்துறை	-11449
▁இரச	-11450
▁ஸ்பூன்	-11451
ிகளுக்காக	-11452
▁கண்களில்	-11453
▁அவமதி	-11454
▁அழைத்த	-11455
▁தென்னாப்பிரிக்க	-11456
யோகம்	-11457
▁தலைவருமான	-11458
சம	-11459
ஜெய	-11460
விவர	-11461
சேகரன்	-11462
▁பொதுமக்களின்	-11463
▁கம்ப்யூ	-11464
ர்த்திய	-11465
▁சண்முகம்	-11466
ுகிறோம்	-11467
ரேஷன்	-11468
▁ஏகா	-11469
▁பயனர்கள்	-11470
வாசிகள்	-11471
▁யூத	-11472
▁குறும்ப	-11473
▁பட்டி	-11474
▁சித்திரை	-11475
AN	-11476
▁மூதா	-11477
▁இவற்றின்	-11478
▁சித்ரா	-11479
ெட்டை	-11480
▁பக்கத்து	-11481
த்துறையின்	-11482
▁இக	-11483
▁தணி	-11484
வெள்ள	-11485
▁பிரிட்டன்	-11486
னஸ்	-11487
ினையும்	-11488
▁தாசில்த	-11489
ிகளான	-11490
▁நூல்களை	-11491
கர்கள்	-11492
▁அதிருப்த	-11493
▁அஷ்ட	-11494
▁செய்தார்கள்	-11495
ெங்க	-11496
▁அத்துமீ	-11497
▁உடனடி	-11498
▁ஜாமீன்	-11499
க்குறைய	-11500
டுகையில்	-11501
▁மண்டலம்	-11502
ொன்	-11503
▁வெங்காய	-11504
▁கவிஞ	-11505
▁அம்பா	-11506
▁எனக்குப்	-11507
▁நெட்டிசன்கள்	-11508
▁நிலவுகிறது	-11509
▁பிரச்சினைகளை	-11510
ற்றுப்	-11511
▁தானும்	-11512
மதிய	-11513
▁துடி	-11514
▁வீடுகளை	-11515
▁அருமையான	-11516
▁வெய	-11517
▁தேசம்	-11518
▁ஜெயலலிதாவின்	-11519
▁வென்றது	-11520
▁ஸ்திர	-11521
▁பதவியே	-11522
▁முதுகு	-11523
▁தேரோ	-11524
▁ஆட்க	-11525
▁பேக்	-11526
▁கட்டுக்குள்	-11527
ya	-11528
▁பிரவே	-11529
▁சிலைகள்	-11530
ுவே	-11531
லைச்	-11532
▁லட்சும	-11533
row	-11534
▁ஐகோ	-11535
▁யோசி	-11536
▁விவரிக்க	-11537
நிறுவனம்	-11538
▁சிவபெருமான்	-11539
▁உரிமம்	-11540
▁பந்தை	-11541
▁மெர்	-11542
▁சொன்னார்கள்	-11543
▁விலங்குகள்	-11544
▁கருத்துகள்	-11545
▁கடைக்கு	-11546
முதிக	-11547
▁முன	-11548
ரஸ்	-11549
▁பெயரிட	-11550
ினில்	-11551
▁தேர்வை	-11552
▁வீட்டுக்குள்	-11553
▁திய	-11554
▁57	-11555
ாய்வ	-11556
ஆனால்	-11557
▁மகளை	-11558
▁பொன்னியின்	-11559
▁கலைஞர்கள்	-11560
▁ஹால்	-11561
):	-11562
▁வாணி	-11563
▁கடலுக்கு	-11564
▁வாக்களிக்க	-11565
▁வெந்த	-11566
ப்பவர்	-11567
ட்டத்தை	-11568
▁தில்ல	-11569
▁கனட	-11570
▁வெளியிடப்பட்ட	-11571
▁ரசிக்க	-11572
▁ரோஜா	-11573
▁ராமசாமி	-11574
▁திகை	-11575
▁கோப்பையை	-11576
▁மாதவிட	-11577
மூல	-11578
▁திரைப்படத்தை	-11579
▁குற்றச்சா	-11580
▁பணக்கார	-11581
இய	-11582
▁வேடிக்கை	-11583
▁டொயோட்டா	-11584
▁முதலீட்டு	-11585
பாலா	-11586
▁வித்யா	-11587
▁எடுத்துக்கொண்டு	-11588
ச்சியில்	-11589
▁வாழ்க்கையின்	-11590
செய்	-11591
வாய்ந்த	-11592
▁போவதில்லை	-11593
▁திருமலை	-11594
▁10,	-11595
▁தன்மைய	-11596
▁ரூபாயை	-11597
▁தோஷ	-11598
ையிட்டு	-11599
▁பரிமாற	-11600
டிகளில்	-11601
▁சாத்தியம்	-11602
▁இதயம்	-11603
▁ஒவ்வொருவரும்	-11604
▁மகனை	-11605
▁ஒல	-11606
▁முடிந்ததும்	-11607
▁சர்ச்சையை	-11608
▁சபையில்	-11609
▁பைக்கை	-11610
▁மனநிலை	-11611
▁பயிலும்	-11612
▁குடும்பத்தை	-11613
▁புரியும்	-11614
▁அப்பால்	-11615
இல	-11616
ort	-11617
▁இலா	-11618
▁வேண	-11619
▁ஜிஎஸ்டி	-11620
▁உயரும்	-11621
▁வரலாற்றை	-11622
உலக	-11623
▁அளிக்கப்படும்	-11624
:30	-11625
▁திங்கள்கிழமை	-11626
▁நிலவரப்படி	-11627
▁பாக்டீ	-11628
▁போட்டியி	-11629
▁உயர்த	-11630
ஸ்வரி	-11631
▁சிறிதளவு	-11632
▁நடைமுறைப்படுத்த	-11633
பழ	-11634
▁இருக்கவேண்டும்	-11635
▁அருகிலுள்ள	-11636
▁மிது	-11637
▁காய்கற	-11638
▁நீச்சல்	-11639
▁ஜீவ	-11640
▁ஒலிம்பிக்	-11641
விடை	-11642
▁செய்வோம்	-11643
▁பொறியாளர்	-11644
▁எழுதப்பட்ட	-11645
▁வந்தார்கள்	-11646
ree	-11647
▁வெளிப்படுத்தி	-11648
▁நெட்வொ	-11649
ள்ளும்	-11650
▁வளி	-11651
▁அணிக்காக	-11652
▁விசி	-11653
▁கொள்ளவில்லை	-11654
ிக்கொள்	-11655
▁சார்ந்து	-11656
▁கருத்துகளை	-11657
▁சொல்லிவிட்டு	-11658
▁யதார்த்த	-11659
ப்பானது	-11660
்பா	-11661
க்கென	-11662
தாசன்	-11663
ுகி	-11664
▁வகுப்பில்	-11665
▁எதிர்கொண்ட	-11666
ஸாக	-11667
▁சரமாரியாக	-11668
க்கோரி	-11669
▁தாக்குதலுக்கு	-11670
▁பவ	-11671
▁அலக	-11672
▁விற்பனைய	-11673
▁தேவர	-11674
▁ஞாயிறு	-11675
ராய்	-11676
▁விபத்துக்குள்ள	-11677
▁துர்	-11678
▁சம்பவத்தை	-11679
▁மரா	-11680
▁நிதியை	-11681
வாஸ்	-11682
▁வாழ்வின்	-11683
▁சாதிக்க	-11684
▁நரம்பு	-11685
மனே	-11686
▁வாழ்த்துக்கள்	-11687
▁அருங்கா	-11688
▁மனைவியும்	-11689
▁வறுமை	-11690
▁குளிர்ந்த	-11691
ப்போர்	-11692
▁நாலு	-11693
▁கர்நாடகாவில்	-11694
▁தமிழகத்திற்கு	-11695
▁அமிர்த	-11696
▁மணம்	-11697
▁நள	-11698
▁நம்பக	-11699
▁திருமணத்திற்கு	-11700
▁காவலில்	-11701
▁வாய்ப்புகளை	-11702
▁சிறுபான்மைய	-11703
சபை	-11704
▁வளர்	-11705
சீர	-11706
▁ஜடேஜா	-11707
ாமலே	-11708
▁வாசு	-11709
▁தொந்தரவு	-11710
▁தணிக்கை	-11711
▁கிடக்கும்	-11712
▁எடையை	-11713
▁எழுதும்	-11714
▁வர்த்தகம்	-11715
ானும்	-11716
▁ஆம்புலன்ஸ்	-11717
▁பதிவிட்ட	-11718
வாம்	-11719
▁விறுவிறுப்பாக	-11720
▁ரத்	-11721
▁நால	-11722
ப்படுவதற்கு	-11723
வசமாக	-11724
▁Chillzee	-11725
▁ஷூட்டிங்	-11726
▁95	-11727
▁அடக்க	-11728
ியூர்	-11729
▁பெய்யும்	-11730
▁வாசலில்	-11731
▁பரிசுத்த	-11732
ாய்க்	-11733
▁கூற்று	-11734
க்கூடியது	-11735
▁வாட்ஸ்அப்	-11736
▁தேமுதிக	-11737
ப்பதே	-11738
▁காம்ப	-11739
▁ஒப்படைக்க	-11740
▁சிஎஸ்கே	-11741
▁கண்டிக்க	-11742
▁மாணவிகளுக்கு	-11743
▁கபூர்	-11744
▁59	-11745
னைந்து	-11746
▁வெளிவர	-11747
▁ஊசி	-11748
மாறும்	-11749
▁அவதான	-11750
▁ஒப்பிட	-11751
▁ஆலயம்	-11752
ாதவர்கள்	-11753
▁பிரசித்தி	-11754
▁அப்படித்தான்	-11755
▁ஊக்குவி	-11756
▁குளிக்க	-11757
க்டர்	-11758
▁any	-11759
மியம்	-11760
▁தீபாராதனை	-11761
▁கண்டுபிடித்த	-11762
▁தன்னிடம்	-11763
▁சய	-11764
ாதல்	-11765
▁உருவெ	-11766
▁பலருக்கு	-11767
▁உட்படுத்த	-11768
▁அதிகாரிகளிடம்	-11769
▁மார்க்சிஸ்ட்	-11770
▁சேகரி	-11771
ாண்டில்	-11772
▁ஆலோ	-11773
▁பின்னரே	-11774
▁தும்	-11775
▁:-	-11776
▁ரயிலில்	-11777
▁பின்புற	-11778
▁காவலர்கள்	-11779
▁நாட்டுக்கு	-11780
▁பல்கலைக்	-11781
▁கடினம்	-11782
▁காலத்தை	-11783
▁வட்டம்	-11784
▁கவர்ந்த	-11785
▁செய்யும்போது	-11786
▁ஆய்வாளர்கள்	-11787
▁நொறு	-11788
ணவ	-11789
▁திரைக்கதை	-11790
▁மாவட்டச்	-11791
▁விசாரணைகளை	-11792
▁கிளிநொ	-11793
▁நகைகள்	-11794
▁பிரிந்த	-11795
▁ஃபி	-11796
▁வாஷி	-11797
▁விவேக்	-11798
க்கூறு	-11799
▁""	-11800
▁மகர	-11801
▁ஹார்மோ	-11802
▁சமாதானம்	-11803
புக	-11804
▁ஸ்கூட்ட	-11805
▁தேவைப்படுகிறது	-11806
▁அற்ற	-11807
▁செல்லு	-11808
▁எளிமையான	-11809
ாயு	-11810
▁வட்டாரத்தில்	-11811
ஷ்மி	-11812
▁வேர்	-11813
ண்ய	-11814
▁காத்திருக்க	-11815
▁பள	-11816
▁காக்கும்	-11817
▁போராடிய	-11818
▁பறவைகள்	-11819
ஷ்டிர	-11820
▁மகிழ்ந்த	-11821
▁கடைப்பிடிக்க	-11822
டுகின்ற	-11823
▁பதிலளிக்க	-11824
ப்படுத்துகிறது	-11825
▁மலையாளம்	-11826
▁மனோக	-11827
ழில	-11828
▁ஹவு	-11829
▁சீட்டு	-11830
▁கண்காணித்து	-11831
▁எரிந்து	-11832
த்தல	-11833
▁கழுவி	-11834
ட்டைக்	-11835
▁கேள்விகளுக்கு	-11836
ணையாக	-11837
▁இடஒ	-11838
▁மூக்கு	-11839
▁லட்சக்கணக்கான	-11840
▁பதிவிற	-11841
▁அலட்சிய	-11842
▁விட்டன	-11843
ச்சென்று	-11844
ர்ட்ட	-11845
▁நம்மிடம்	-11846
▁வேறுபட்ட	-11847
▁வேலைகளை	-11848
▁உமா	-11849
▁விட்டுவிட்டு	-11850
▁மாட்டார்	-11851
▁வசதியை	-11852
▁உருவம்	-11853
▁திரண்டு	-11854
▁வெளியிடப்படும்	-11855
▁பேஸ்புக்	-11856
▁00	-11857
ப்புகளின்	-11858
▁செல்கிறார்	-11859
▁கேளு	-11860
▁நாயகி	-11861
▁இடம்பெற்றுள்ளது	-11862
▁தீங்கு	-11863
▁பலருக்கும்	-11864
▁மாவட்டங்கள்	-11865
ings	-11866
▁சிறுமியின்	-11867
▁ஹெட்	-11868
விடக்	-11869
▁கோபால	-11870
▁பருக	-11871
ோரும்	-11872
▁உணர்க	-11873
விலக்கு	-11874
ானந்த	-11875
▁நம்பிக்கையை	-11876
▁கோடிக்கு	-11877
▁நிலையத்தை	-11878
வேரி	-11879
▁படமும்	-11880
்தே	-11881
▁வைத்துக்கொள்ள	-11882
▁ஆதாரம்	-11883
▁திரண்ட	-11884
▁வீடுகளுக்கு	-11885
▁கேலி	-11886
▁ஜென்	-11887
▁நியாயம்	-11888
ஸம்	-11889
▁பாஜகவின்	-11890
▁அரைய	-11891
▁ஆவி	-11892
▁அணிகளுக்கு	-11893
▁அதனுடன்	-11894
▁நோய்த்த	-11895
▁கிணறு	-11896
▁வந்ததாக	-11897
ுகின்றனர்	-11898
▁ஓராண்டு	-11899
▁இயந்திரம்	-11900
▁சரிசெய்ய	-11901
ஸ்ஸி	-11902
▁App	-11903
▁விஷயங்களில்	-11904
▁தேவாலய	-11905
▁அருங்காட்சிய	-11906
ுவும்	-11907
▁சுற்றுப்பயணம்	-11908
▁அணைக்கு	-11909
▁இரை	-11910
▁ஸ்டே	-11911
▁பிரதிபலி	-11912
▁உள்ளம்	-11913
▁அரிச	-11914
▁இப்படித்தான்	-11915
▁அமைக்கப்படும்	-11916
▁தாக்குதலை	-11917
▁பிறக்கும்	-11918
▁சுப்ரீம்	-11919
ர்போ	-11920
ன்களின்	-11921
▁மேனேஜ்	-11922
▁உட்கொள்ள	-11923
▁நேப	-11924
விலில்	-11925
▁இன்றிய	-11926
▁நீடித்த	-11927
ூருக்கு	-11928
▁கலந்துகொள்ள	-11929
▁கிண்ண	-11930
திலிருந்து	-11931
▁உண்மையிலேயே	-11932
▁இழப்பீடு	-11933
▁தொண்டை	-11934
▁மில்லி	-11935
ளோடு	-11936
▁கொடுக்கப்பட்ட	-11937
ஸ்தி	-11938
▁செக்ஸ்	-11939
▁தொல்கா	-11940
▁நிறுவனத்திற்கு	-11941
றில்	-11942
▁படுகிறது	-11943
▁மிட	-11944
▁பரா	-11945
▁மறைக்க	-11946
▁ஓம்	-11947
▁கட்சிகளும்	-11948
▁பீகார்	-11949
▁ஜக	-11950
▁பழுது	-11951
▁கமிட்டி	-11952
EA	-11953
மொழிய	-11954
▁பின்னடை	-11955
▁துறைக்கு	-11956
▁விற்பன	-11957
▁எழுதினார்	-11958
தலால்	-11959
▁tra	-11960
▁2024	-11961
8,	-11962
ாவல்	-11963
▁தலைமறைவாக	-11964
▁புதுப்பிக்க	-11965
▁மாளிகை	-11966
▁மழைநீர்	-11967
▁வச்ச	-11968
▁ஆபர	-11969
▁விற்பனையில்	-11970
▁ஆத்மி	-11971
▁வனத்துறையினர்	-11972
▁தோல்வியை	-11973
▁மறுபுறம்	-11974
ுட	-11975
▁சென்சார்	-11976
▁மூவரும்	-11977
▁கரிய	-11978
▁புறம்	-11979
▁செயல்கள்	-11980
▁வும்	-11981
▁பின்தொட	-11982
▁ad	-11983
ach	-11984
க்கரு	-11985
▁அடைந்தது	-11986
▁உலகளவில்	-11987
▁சிகிச்சைக்கு	-11988
▁ஷாக்	-11989
▁எமக்கு	-11990
▁காலமானார்	-11991
ாய்த்	-11992
▁வேதிய	-11993
▁சிலிண்டர்	-11994
▁வவுனியா	-11995
மண்டல	-11996
▁மயில்	-11997
பேரில்	-11998
▁காரணமான	-11999
▁விளையாடும்	-12000
▁போகுது	-12001
▁அகற்றி	-12002
கா்	-12003
▁அமைதியான	-12004
▁ரஹ்மான்	-12005
▁வகிக்க	-12006
ோதெல்லாம்	-12007
▁ஆவணங்களை	-12008
▁சிசிடிவி	-12009
▁பாஸ்க	-12010
த்தாக	-12011
▁அசல்	-12012
ினது	-12013
▁உழைப்பு	-12014
▁இதைச்	-12015
▁அளித்துள்ள	-12016
▁குடிசை	-12017
▁தந்தையின்	-12018
▁இடையூறு	-12019
சங்க	-12020
▁و	-12021
டீ	-12022
▁ஜான	-12023
ண்களை	-12024
▁ஓடு	-12025
▁சளி	-12026
▁நட்சத்திரம்	-12027
▁350	-12028
▁செய்திருந்தனர்	-12029
▁தாது	-12030
▁கடற்படைய	-12031
▁ராஜன்	-12032
▁முகக்க	-12033
வியும்	-12034
ிட்டனர்	-12035
த்துக்குச்	-12036
▁கொண்டாடும்	-12037
▁எதிர்க்கட்சித்	-12038
▁தென்னை	-12039
▁செயல்களை	-12040
▁ஆய்வின்	-12041
▁800	-12042
▁man	-12043
▁சிம்ம	-12044
▁மேற்கோ	-12045
ന്	-12046
மாரி	-12047
▁192	-12048
▁நிரம்பி	-12049
▁உண்ப	-12050
▁எண்ணிக்கையை	-12051
▁99	-12052
▁மேக்	-12053
▁தலைநகரில்	-12054
▁புறக்கண	-12055
▁லக்னோ	-12056
▁தாயின்	-12057
▁பள்ளியின்	-12058
ஜிய	-12059
▁தொடர்புக	-12060
▁அம்பேத்கர்	-12061
▁குழுவை	-12062
▁Sam	-12063
▁ஜீவா	-12064
▁வாதம்	-12065
ணர்வை	-12066
▁பரிசாக	-12067
▁சேமிக்க	-12068
▁ஐரோப்ப	-12069
▁கூட்டத்தொட	-12070
ங்டன்	-12071
லங்கா	-12072
▁துரித	-12073
த்துவத்தை	-12074
▁முனைவர்	-12075
ினுள்	-12076
▁ஃபர்	-12077
▁தாத	-12078
▁உதாரணம்	-12079
▁செட்	-12080
▁யோசித்து	-12081
▁ரன்களுக்கு	-12082
▁ஆழமான	-12083
▁கடனை	-12084
சைக்கி	-12085
▁நடைபெறவுள்ளது	-12086
▁எடுத்தால்	-12087
▁பாதுகாக்கும்	-12088
▁நடவடிக்கைகளில்	-12089
▁நியமிக்கப்பட்ட	-12090
▁சுமந்து	-12091
▁பயனுள்ள	-12092
முய	-12093
த்தைய	-12094
ையாகவும்	-12095
IN	-12096
▁உறவுகள்	-12097
▁முத்திரை	-12098
▁ட்ரெ	-12099
▁தட்டுப்பாடு	-12100
▁Ex	-12101
▁யாத்திரை	-12102
▁மாச	-12103
▁1,000	-12104
▁மூர்த்த	-12105
▁கண்டித்த	-12106
▁வித்தியாசம்	-12107
▁அந்தோ	-12108
▁கால்வாய்	-12109
be	-12110
ங்கிள்	-12111
ர்மா	-12112
▁இந்நிகழ்ச்ச	-12113
மாட்டார்கள்	-12114
ஞ்ஞ	-12115
வற்றில்	-12116
▁சுகாதாரத்	-12117
▁16-	-12118
ராவ	-12119
▁இசையமைக்க	-12120
▁படங்களுக்கு	-12121
▁ஆசிரியை	-12122
▁நடத்தப்பட	-12123
▁ஆதரி	-12124
மார்க்க	-12125
▁சிக்கலான	-12126
வாட	-12127
▁ஆவே	-12128
ட்ரூ	-12129
▁கூறுகிறார்கள்	-12130
வேர்	-12131
ஸ்கி	-12132
பிக்க	-12133
▁விம	-12134
▁விடயம்	-12135
குதியை	-12136
ண்டாம்	-12137
▁மன்னார்	-12138
்களாக	-12139
▁இச்சம்பவம்	-12140
நெறி	-12141
▁மாதத்திற்கு	-12142
▁ஒன்றே	-12143
ஹோ	-12144
▁சொல்ற	-12145
▁வரியை	-12146
▁நாமும்	-12147
வில்லையே	-12148
▁முரண	-12149
▁பிரசவ	-12150
▁பண்பாட்டு	-12151
▁posts	-12152
▁இப்போதும்	-12153
▁கண்ணீ	-12154
▁மென்று	-12155
மொன்ற	-12156
மையைக்	-12157
▁கல்விக்	-12158
▁விலங்குக	-12159
▁வெண்க	-12160
▁ஹெக்ட	-12161
▁மக்களால்	-12162
▁நெருக்கமாக	-12163
▁அதுவரை	-12164
▁வழக்கின்	-12165
▁ப்ரா	-12166
,'	-12167
ஸ்பு	-12168
மாக்கு	-12169
ாயின	-12170
▁ஆயத்த	-12171
மால	-12172
▁இருந்ததாக	-12173
விளக்கு	-12174
▁லஞ்சம்	-12175
ற்றின்	-12176
▁செல்லும்போது	-12177
▁காகித	-12178
என்ற	-12179
ப்பைத்	-12180
ரன்ஸ்	-12181
▁எந்தத்	-12182
டுகளையும்	-12183
ியிலிருந்து	-12184
▁செய்தாலும்	-12185
▁புறப்பட்ட	-12186
▁காலநிலை	-12187
▁செய்தியில்	-12188
பரி	-12189
▁நிலங்கள்	-12190
▁பாணியில்	-12191
▁டென்னி	-12192
▁en	-12193
▁இறைய	-12194
▁உலகத்தில்	-12195
வெளியில்	-12196
▁வேணும்	-12197
▁சோதி	-12198
ெடுக்கும்	-12199
▁நபர்களை	-12200
வையின்	-12201
▁நந்தி	-12202
▁பெருமா	-12203
டுங்கள்	-12204
▁வரிகள்	-12205
▁சொல்லவில்லை	-12206
▁முதலிடம்	-12207
▁சரத்குமார்	-12208
▁அம்பல	-12209
விஜ	-12210
▁ஆறுமுக	-12211
44	-12212
நாங்கள்	-12213
▁விருதுகள்	-12214
▁விண்ணப்பங்கள்	-12215
▁இசையில்	-12216
▁போட்டிக்கு	-12217
▁முன்வர	-12218
▁7,	-12219
▁திருச்செந்த	-12220
▁கொள்வோம்	-12221
▁புறநகர்	-12222
▁இதேபோல	-12223
னாள்	-12224
நாராய	-12225
▁மன்றம்	-12226
▁காமராஜர்	-12227
▁ஒன்றின்	-12228
▁பாக்	-12229
▁இடம்பெறும்	-12230
▁வலைதளத்தில்	-12231
▁sa	-12232
▁வெளிப்படுத்தும்	-12233
சொல்ல	-12234
▁திரைப்படங்கள்	-12235
ப்பண	-12236
ஜூன்	-12237
▁வழிபாட்டு	-12238
னியர்	-12239
▁வருவார்	-12240
தில	-12241
▁அறிக	-12242
ட்டாட்சியர்	-12243
▁பலன்கள்	-12244
▁விருத்த	-12245
ொன்றை	-12246
▁வெள	-12247
▁This	-12248
▁செங்கோ	-12249
ஞ்செய்த	-12250
▁கூடியது	-12251
ப்பிடித்து	-12252
▁நடராஜன்	-12253
▁சுப்பிரமணிய	-12254
க்காலம்	-12255
▁முழங்க	-12256
ஹ்ம	-12257
▁மீரா	-12258
▁சந்தோஷ்	-12259
▁பொற	-12260
▁ஆணைக்குழு	-12261
▁உயர்கல்வி	-12262
மாா்	-12263
ையாய்	-12264
விடத்தில்	-12265
▁கொசு	-12266
ond	-12267
▁கேள	-12268
▁சபரிமலை	-12269
▁சிறுநீர்	-12270
ியியல்	-12271
ிகளு	-12272
▁என்னவோ	-12273
▁தேவஸ்தான	-12274
▁விழாவ	-12275
▁உட்கார்ந்த	-12276
▁முழுவதுமாக	-12277
▁நாட்டிற்கு	-12278
▁ஆர்ட	-12279
▁தில்லை	-12280
▁நெடுஞ்சாலையில்	-12281
▁லவ்	-12282
த்துடனும்	-12283
▁நடத்தை	-12284
▁அவச	-12285
பிறகு	-12286
▁இவள்	-12287
▁என்னைக்	-12288
▁அவல	-12289
▁புற்றுநோய	-12290
▁தென்மேற்கு	-12291
▁தலைநக	-12292
▁நடா	-12293
cl	-12294
▁அர்ஜுன்	-12295
▁மாற்றிக்	-12296
▁வானம்	-12297
▁உள்ளு	-12298
ர்மன்	-12299
▁செய்திருந்தார்	-12300
▁அனுக	-12301
▁தொடர்கிறது	-12302
▁சிக்கல்கள்	-12303
▁உருவானது	-12304
▁கீரை	-12305
▁மேற்பர	-12306
▁வைப்பு	-12307
▁ரஜினியின்	-12308
▁மகால	-12309
▁வெறுப்பு	-12310
தியா	-12311
ஸ்தானில்	-12312
▁வேகப்பந்து	-12313
▁ரஹ	-12314
▁read	-12315
▁கும்பகோணம்	-12316
▁துக	-12317
▁செயல்திறன்	-12318
ூல்	-12319
▁தம்ம	-12320
▁அம்மனுக்கு	-12321
▁தோட்டத்தில்	-12322
na	-12323
▁பக்கு	-12324
னால	-12325
▁பார்வையாளர்கள்	-12326
ாராக	-12327
▁Wh	-12328
முன	-12329
▁தீயை	-12330
▁மடி	-12331
▁கவுன்சிலர்	-12332
▁கடக்க	-12333
▁வில்லியம்	-12334
▁திருக்கு	-12335
▁ஒட்டிய	-12336
▁கவுன்சில்	-12337
▁me	-12338
▁பக்	-12339
ம்பரில்	-12340
▁புராணம்	-12341
▁ரன்களில்	-12342
பெரிய	-12343
ையன்ஸ்	-12344
ுமோ	-12345
▁ஆதரவை	-12346
மூர்த்த	-12347
▁இருதர	-12348
▁ஒழுக்க	-12349
gh	-12350
▁பாய்ந்து	-12351
▁இத்	-12352
▁ராஜ்ய	-12353
▁இணைக்கும்	-12354
ப்பிரதேச	-12355
▁வைத்தியசாலை	-12356
மிங்	-12357
▁துப்பாக்க	-12358
▁சொல்லுங்கள்	-12359
▁றி	-12360
▁பும்	-12361
ஹர்	-12362
▁பிரேச	-12363
▁உயிருடன்	-12364
▁பண்ணுவ	-12365
ண்ணும்	-12366
▁எங்களின்	-12367
▁2019-	-12368
▁கர்ப்பிணி	-12369
▁வருந்த	-12370
▁என்பர்	-12371
▁சட்டப்	-12372
▁விண்க	-12373
▁விமர்சனங்கள்	-12374
▁பிபிசி	-12375
▁இத்தால	-12376
ஷ்வ	-12377
▁மாற்றங்களை	-12378
▁வில்லனாக	-12379
▁பெருமான்	-12380
ake	-12381
75	-12382
▁நடத்துவ	-12383
▁திருமாவள	-12384
▁திரையில்	-12385
▁ஜோச	-12386
▁சிரமம்	-12387
▁தமிழிசை	-12388
▁முடிவெடுக்க	-12389
▁விமர்சி	-12390
▁உத்தம	-12391
▁13-	-12392
▁ஆஞ்ச	-12393
▁தாமதமாக	-12394
▁இவ்விரு	-12395
▁கருதப்படும்	-12396
▁கல்வெட்டு	-12397
▁கணக்கிட	-12398
▁கார்களை	-12399
▁ஈடுபடும்	-12400
▁யாது	-12401
▁குறிக்கிறது	-12402
▁ஃபெ	-12403
க்கொண்டிருந்த	-12404
▁61	-12405
▁அதிகரிப்பு	-12406
▁வழங்கினர்	-12407
▁comments	-12408
▁வீரர்களின்	-12409
ck	-12410
▁வீற்ற	-12411
▁சொற்கள்	-12412
▁இல்லையென்றால்	-12413
▁கீழ்ப்ப	-12414
▁செய்யாத	-12415
▁படங்களின்	-12416
▁வெளிநாட்டில்	-12417
▁மேல்நிலைப்	-12418
▁மசோத	-12419
▁இருக்கை	-12420
▁பேரறி	-12421
▁துறையை	-12422
▁அதிருப்தி	-12423
▁கோட்பா	-12424
▁25-	-12425
▁விட்டுக்	-12426
▁பயணித்த	-12427
▁குற்றவியல்	-12428
▁அனுபவி	-12429
ose	-12430
கன	-12431
றையான	-12432
ிறந்த	-12433
ையுமே	-12434
▁செல்வி	-12435
▁வராத	-12436
▁சார்ஜிங்	-12437
▁சித்தாந்த	-12438
▁டம்	-12439
ஸ்ப்ளே	-12440
▁டைய	-12441
மிரு	-12442
ரிடமிருந்து	-12443
ram	-12444
▁ஃபிர	-12445
▁சிஸ்டம்	-12446
▁ஆண்டி	-12447
▁மெமரி	-12448
தாகவே	-12449
▁அவதார	-12450
scri	-12451
▁தனிய	-12452
▁கொள்கையை	-12453
▁நிகழ்ச்சிகளில்	-12454
டைகள்	-12455
ழிந்து	-12456
ாலயம்	-12457
▁கணேஷ்	-12458
▁உடைந்து	-12459
▁மாத்திரை	-12460
▁உல்ல	-12461
விடுக	-12462
▁னும்	-12463
▁தேதிக்குள்	-12464
▁ஃபார்	-12465
▁படிவ	-12466
▁புதுடெல்லிஃ	-12467
▁we	-12468
லஸ்	-12469
▁துப்பு	-12470
▁பரத	-12471
▁வந்தா	-12472
▁வாழ்நாள்	-12473
▁பெறவில்லை	-12474
▁அடக்கு	-12475
hed	-12476
▁குறைப்பு	-12477
▁மனிதனின்	-12478
▁நெருங்க	-12479
▁அருளி	-12480
▁செயல்படுத்து	-12481
▁Than	-12482
▁அணிவித்து	-12483
▁நித்ய	-12484
▁ஹிந்தி	-12485
▁கேது	-12486
▁தேர்ந்தெடுத்து	-12487
ர்பா	-12488
▁பண்பு	-12489
▁தொடங்கினர்	-12490
▁விருதை	-12491
▁கோவில்களில்	-12492
▁त	-12493
▁வீழ்ச்ச	-12494
ிகம்	-12495
▁ஏறக்குறைய	-12496
▁பாத்திரத்தில்	-12497
▁சிறப்பம்	-12498
ஜ்ரி	-12499
▁கொடியேற்ற	-12500
▁காந்தியின்	-12501
▁ஜெயம்	-12502
▁பொழுதுபோக்கு	-12503
▁சமூகவலை	-12504
▁செலவிட	-12505
▁இணையதளம்	-12506
பிக	-12507
லர்கள்	-12508
ையிற	-12509
ிட்டே	-12510
▁தூக்கம்	-12511
▁நெரிசல்	-12512
விஷ	-12513
▁ஒருவருக்க	-12514
▁சொல்கிறது	-12515
▁மகனும்	-12516
▁பரிமாற்ற	-12517
▁மனைவியின்	-12518
▁விசய	-12519
▁18-	-12520
ியோடு	-12521
▁கலெக்ட	-12522
▁தால்	-12523
rit	-12524
▁விடுவார்கள்	-12525
ாந்த	-12526
எனக்கு	-12527
ாக்ஷ	-12528
ம்போல	-12529
ண்ணன்	-12530
▁கையக	-12531
▁சகோதரி	-12532
▁ரிஷப்	-12533
▁ஏடி	-12534
▁மருந்தை	-12535
▁wor	-12536
▁இதுகுறித்த	-12537
▁சுற்றுவட்டார	-12538
ராகிய	-12539
▁பூட்டி	-12540
▁செலுத்தினர்	-12541
▁சொல்லப்பட்ட	-12542
▁அதுமட்டுமல்ல	-12543
▁செட்ட	-12544
ருக்குள்	-12545
▁கேட்டான்	-12546
▁சராசரியாக	-12547
ations	-12548
oth	-12549
ாவோ	-12550
▁பிடித்துக்	-12551
▁தூதரக	-12552
ue	-12553
▁ஆண்ட்ராய்டு	-12554
▁தொடர்ந்தும்	-12555
▁தெற்க	-12556
▁விடுதியில்	-12557
▁ஒழிக்க	-12558
களிலிருந்து	-12559
▁உயிரிழப்பு	-12560
▁பேசுகிறார்	-12561
ாதாரண	-12562
▁தீபம்	-12563
ாஜ்	-12564
தெய்வ	-12565
ep	-12566
▁புதல்	-12567
ோசர்	-12568
▁வசிக்க	-12569
▁குறிப்புகள்	-12570
▁ஆலோசனைக்	-12571
▁கதாநாயகியாக	-12572
வேப்ப	-12573
ம்பலம்	-12574
▁அறியாத	-12575
▁தந்திர	-12576
▁புன்னகை	-12577
▁பாட்	-12578
▁மீறிய	-12579
▁பன்னாட்டு	-12580
▁சுறு	-12581
▁சித்தி	-12582
▁புவனே	-12583
ினாலே	-12584
▁தயாரிப்பாளர்கள்	-12585
▁வால	-12586
ஹெ	-12587
▁கனிமொழி	-12588
ிருக்கே	-12589
▁விளங்கிய	-12590
▁பையன்	-12591
த்தாழ	-12592
▁குடிமக்கள்	-12593
▁விளங்குகிறது	-12594
ண்டுகள்	-12595
▁திருப்பு	-12596
▁ஆக்ஸி	-12597
▁மணிரத்	-12598
ஸன்	-12599
▁ஆசீர்	-12600
▁சஸ்ப	-12601
▁இருந்தவர்கள்	-12602
▁ஆன்ம	-12603
▁நகைகளை	-12604
▁எனலாம்	-12605
▁குலு	-12606
▁புழ	-12607
▁காற்றழுத்த	-12608
▁தமிழகத்தை	-12609
ப்பாறை	-12610
▁விடுதல	-12611
▁பதிப்பு	-12612
23	-12613
▁கொரிய	-12614
▁கவனத்தில்	-12615
▁வேட்டையா	-12616
.10	-12617
▁வைகு	-12618
▁பாண	-12619
▁தொடர்ச்சி	-12620
▁ட்வீட்	-12621
65	-12622
▁துப்பாக்கிச்	-12623
க்களம்	-12624
▁கூறுகின்றன	-12625
சுவாமி	-12626
மாட்டேன்	-12627
▁இயல்பான	-12628
▁கொண்டாடு	-12629
▁அனைவரின்	-12630
▁பகிரங்க	-12631
தாகி	-12632
▁சென்ட்	-12633
▁யை	-12634
ம்பம்	-12635
▁பஜ	-12636
▁அறிமுகமானார்	-12637
▁திருவு	-12638
▁எழுப்பினர்	-12639
▁அதன்பின்னர்	-12640
opyr	-12641
▁இயக்கப்படும்	-12642
▁வக்கீல்	-12643
▁அட்டவணை	-12644
▁ராதிகா	-12645
▁வங்கதேச	-12646
▁மாஸ்	-12647
விட்டோம்	-12648
▁சிந்தி	-12649
▁ஸம்	-12650
ாளில்	-12651
are	-12652
▁பாதுகாப்புப்	-12653
▁மாணவிய	-12654
▁கொண்டவர்கள்	-12655
▁கடலை	-12656
ல்கர்	-12657
கமாக	-12658
▁பரபரப்பாக	-12659
▁பொதுப்பணி	-12660
▁ஆகா	-12661
▁உளை	-12662
இப்படி	-12663
▁எப்படியாவது	-12664
ric	-12665
ோரையும்	-12666
▁சுபா	-12667
வித்	-12668
▁கேட்	-12669
▁நூலில்	-12670
▁முனிவர்	-12671
ானந்தா	-12672
▁பெற்றுள்ளனர்	-12673
▁விதிமுறைகளை	-12674
▁சிரு	-12675
opyright	-12676
▁நோயாளிகளுக்கு	-12677
▁கல்வியில்	-12678
▁அவா	-12679
▁व	-12680
▁சுற்றுலாப்	-12681
▁பாடத்திட்ட	-12682
▁நடப்பது	-12683
▁ஆரஞ்சு	-12684
▁சதா	-12685
▁மருத்துவப்	-12686
▁சாலையை	-12687
த்யாதி	-12688
▁காப்பீடு	-12689
,-	-12690
▁களையும்	-12691
ater	-12692
▁அழகை	-12693
▁வாடகைக்கு	-12694
▁கொளு	-12695
▁தீவிரம்	-12696
▁தர்மபுரி	-12697
▁ஒப்பி	-12698
▁சுமை	-12699
ையாகவே	-12700
ையாலே	-12701
விஸ்	-12702
▁2008	-12703
▁எய்த	-12704
▁வரம்பு	-12705
▁உடம்பு	-12706
▁இவ்வுலக	-12707
▁கலந்துரையாட	-12708
க்கேற்ப	-12709
▁திறமையான	-12710
▁தோழர்	-12711
னார்கள்	-12712
▁இங்கிலாந்தில்	-12713
▁சிறுத்தைகள்	-12714
▁நாயகம்	-12715
▁தள்ளிய	-12716
▁நிறைவேற்றி	-12717
▁ஜார்ஜ்	-12718
▁ஸ்கிர	-12719
▁விளக்கி	-12720
ஃபோ	-12721
றுகின்றன	-12722
▁தலைவரான	-12723
ழ்ச்சி	-12724
▁போதைப்	-12725
▁நாள்தோறும்	-12726
்ட்ஸ்	-12727
▁அறிவிய	-12728
▁Sub	-12729
▁தொலைபேச	-12730
▁அவசரமாக	-12731
▁ஒளிப்பதி	-12732
▁மேற்	-12733
▁டீசர்	-12734
ult	-12735
▁ரோபோ	-12736
▁म	-12737
வாளர்	-12738
ம்மாள்	-12739
own	-12740
▁Read	-12741
oy	-12742
▁நியூய	-12743
▁ஹீரோயின	-12744
▁சதீஷ்	-12745
▁நான்காம்	-12746
மலையில்	-12747
விடுவார்கள்	-12748
ிக்கப்பட்டது	-12749
▁ஃபீல்	-12750
▁வனிதா	-12751
▁வெளியேறினார்	-12752
▁அனிதா	-12753
▁தாரா	-12754
▁வருவார்கள்	-12755
ினின்று	-12756
தம	-12757
▁சரஸ்வதி	-12758
get	-12759
▁அமலா	-12760
▁காத்திருந்த	-12761
ுவதை	-12762
▁கமிஷன்	-12763
▁பில	-12764
க்கொள்வது	-12765
▁திங்கள்	-12766
ங்கொண்ட	-12767
999	-12768
▁தயாரிக்கப்பட்ட	-12769
▁கெடு	-12770
▁நடவடிக்கையில்	-12771
▁டார்	-12772
nder	-12773
▁டைரக	-12774
ிருக்கிறான்	-12775
தாத	-12776
▁நல்லிண	-12777
anth	-12778
▁தேவைகளை	-12779
▁செய்வார்	-12780
▁அண்ட்	-12781
▁விற்பனையாக	-12782
ப்போட்டு	-12783
▁துளசி	-12784
▁பெருமி	-12785
▁விமர்சனங்களை	-12786
▁போலீஸாா்	-12787
▁ஜவு	-12788
▁யுத்தம்	-12789
▁ஏற்றுக்கொண்ட	-12790
▁pl	-12791
▁சூழலை	-12792
▁ஒருவருக்கொருவர்	-12793
▁தமிழ்நாட்டு	-12794
▁இயற்ப	-12795
விங்	-12796
▁வள்ளி	-12797
▁தமிழ்ச்	-12798
ிகளைச்	-12799
▁தொங்க	-12800
▁ஐயர்	-12801
▁சுவையான	-12802
க்குட்பட்ட	-12803
▁முடக்க	-12804
▁புகழ்ந்து	-12805
▁படுகாயமடைந்த	-12806
▁எங்களிடம்	-12807
▁நள்ளிர	-12808
▁உதவித்தொகை	-12809
▁உளவியல்	-12810
▁வழிகா	-12811
▁கேமர	-12812
▁இருக்கக்	-12813
▁ங	-12814
ational	-12815
▁எதிர்பார்த்து	-12816
▁ஏற்படவில்லை	-12817
▁கௌரவ	-12818
▁எதிர்காலம்	-12819
▁அத்தி	-12820
▁ஊர்வலம்	-12821
ச்செல்ல	-12822
ற்றுக்	-12823
▁கார்த்திகை	-12824
▁துருவ	-12825
▁ஆப்கானிஸ்தான்	-12826
▁வேன்	-12827
▁தங்கு	-12828
ம்பிக்கை	-12829
வில்லையா	-12830
▁மைத்திரி	-12831
▁பள்ளிக்கல்வி	-12832
▁தாசில்தார்	-12833
▁நாடாக	-12834
▁எதற்கு	-12835
▁நிர்வக	-12836
▁ஈர்த்த	-12837
▁சாண	-12838
▁பணியிடம்	-12839
▁பயனுள்ளதாக	-12840
▁அதிர்ச்சியில்	-12841
▁பரமே	-12842
▁சிட்	-12843
▁காப்பீட்டு	-12844
▁குவிந்து	-12845
▁மகிழ்ச்சியை	-12846
▁முப்பது	-12847
▁வைகை	-12848
▁ஆக்கிரமிப்பு	-12849
▁செய்தியாளர்	-12850
▁வழங்கப்பட்டன	-12851
▁பாரா	-12852
ிக்கே	-12853
▁செயலில்	-12854
▁நாயகனாக	-12855
▁லால்	-12856
▁தரப்பினர்	-12857
▁ஒருவரும்	-12858
wn	-12859
▁முதலிடத்தில்	-12860
▁நைட்	-12861
▁இரகசிய	-12862
▁திருமே	-12863
▁வேள்	-12864
▁படக்குழுவினர்	-12865
▁விளைவுகளை	-12866
▁கைவிட்டு	-12867
▁செல்போனில்	-12868
ஸ்ட்ட	-12869
▁இப்படத்திற்கு	-12870
▁ஏகப்பட்ட	-12871
▁மூட்டு	-12872
▁மிரண்டு	-12873
ev	-12874
▁குணமடைந்து	-12875
▁டிஸ்ப்ளே	-12876
▁மனசு	-12877
▁விடைய	-12878
13	-12879
▁அருமை	-12880
திகளும்	-12881
ாசலம்	-12882
▁சிறுவர்	-12883
▁ac	-12884
▁செய்கின்றன	-12885
▁திணி	-12886
த்துக்குக்	-12887
்கிர	-12888
▁வேண்டியுள்ளது	-12889
▁கொடைக்கான	-12890
அக	-12891
▁என்கின்றனர்	-12892
▁டிரா	-12893
▁பிரச்சனைகளை	-12894
▁கோதுமை	-12895
▁69	-12896
▁விலகிய	-12897
▁ஆச்சர்ய	-12898
▁ரஞ்சித்	-12899
▁ஆத்மா	-12900
▁திரா	-12901
ங்கார	-12902
▁அதிகாரபூர்வ	-12903
▁கச்சா	-12904
▁வாடி	-12905
▁அபிர	-12906
வேந்த	-12907
ராகப்	-12908
▁பெரியவர்கள்	-12909
டுக்கி	-12910
▁அரையிறு	-12911
▁கூறின	-12912
▁ஹாலிவுட்	-12913
▁ெ	-12914
▁திருச்சியில்	-12915
▁ஒப்பிட்டு	-12916
▁சதவீதமாக	-12917
▁அன்பும	-12918
▁கணித	-12919
▁பைக்கில்	-12920
▁வெளிநாட்ட	-12921
▁ne	-12922
▁சீரான	-12923
▁தச	-12924
நாயகி	-12925
▁மறியல்	-12926
ஜியின்	-12927
▁அவர்களைப்	-12928
அவர்	-12929
▁கேன்	-12930
▁தொடா்ந்து	-12931
முட	-12932
▁பயன்படும்	-12933
▁வழிகளில்	-12934
க்களாக	-12935
ையிடம்	-12936
▁பார்வையில்	-12937
ாவாசை	-12938
▁தலைவர்களும்	-12939
▁ரன்களும்	-12940
க்கலாம்	-12941
▁அதுமட்டுமின்றி	-12942
▁ஸ்டெர்	-12943
▁0.	-12944
▁மாதவிடாய்	-12945
▁சான்	-12946
form	-12947
▁min	-12948
▁காண்ட	-12949
ம்பாடி	-12950
பாய	-12951
ிடை	-12952
▁பள்ளிகளுக்கு	-12953
▁லலி	-12954
சப	-12955
▁இருங்கள்	-12956
ாளையத்தில்	-12957
▁தொடா்ப	-12958
▁அறிஞர்	-12959
▁பின்னும்	-12960
▁அவதூறு	-12961
▁ரிலையன்ஸ்	-12962
▁நிற்கிறது	-12963
ணவு	-12964
▁போன்றே	-12965
▁பிறகுதான்	-12966
கடந்த	-12967
ுக்குள்	-12968
▁உலகு	-12969
▁வகித்தனர்	-12970
▁இடித்து	-12971
▁அனுபவத்தை	-12972
▁அங்கீகரிக்க	-12973
▁வெளிச்சத்தில்	-12974
▁An	-12975
ान	-12976
வியத்	-12977
▁கொள்வார்கள்	-12978
▁ஆணையத்தின்	-12979
▁அவ்வாறே	-12980
▁மூலிகை	-12981
▁வர்ண	-12982
up	-12983
▁ஆன்டி	-12984
▁டென்னிஸ்	-12985
▁துவக்கி	-12986
▁பலகை	-12987
▁இல்லாவிட்டால்	-12988
சான்	-12989
▁முஸ்லிம்க	-12990
▁அன்னதானம்	-12991
▁சாப்பிடும்	-12992
▁கழிவ	-12993
▁பெருமளவில்	-12994
▁பிறந்தது	-12995
ங்கள்தான்	-12996
ights	-12997
▁மோட்டார்சைக்கி	-12998
▁பின்புறம்	-12999
16	-13000
▁னி	-13001
ுவதில்	-13002
▁நீர்வரத்து	-13003
▁மகாத்மா	-13004
▁ஆகாய	-13005
▁19-	-13006
▁காற்றில்	-13007
▁மஹிந்திரா	-13008
▁கும்பாபிஷேகம்	-13009
ருந்த	-13010
▁தங்கும்	-13011
▁கொண்டுள்ளனர்	-13012
ப்படவுள்ளது	-13013
ொடி	-13014
▁விழாவின்	-13015
▁திரையிட	-13016
▁73	-13017
▁ஆற்றின்	-13018
▁உங்களுக்குத்	-13019
▁தப்பிக்க	-13020
▁நிறுத்தம்	-13021
க்ஷன்	-13022
▁ஆட்சே	-13023
ிக்கப்படும்	-13024
▁அந்தவகையில்	-13025
▁மசாலா	-13026
▁நோயால்	-13027
▁பார்த்துவிட்டு	-13028
ிண்ட்	-13029
▁ஆகவும்	-13030
▁பெறுவீர்கள்	-13031
▁உல்லாச	-13032
▁பூக்கள்	-13033
▁சேகரித்து	-13034
▁மய்ய	-13035
▁கலங்க	-13036
▁பெறப்பட்ட	-13037
▁கூறியதாவது	-13038
14	-13039
▁குங்கு	-13040
▁வாக்குவாத	-13041
தேவ	-13042
▁ஈரான்	-13043
ஹை	-13044
ட்டன்	-13045
▁நிரம்பிய	-13046
▁சக்க	-13047
▁இந்தியாவிற்கு	-13048
▁தொழில்துறை	-13049
▁உங்களால்	-13050
▁எண்ணற்ற	-13051
▁தேடு	-13052
▁17-	-13053
▁நாடுகளும்	-13054
ப்படுவார்	-13055
ர்தல்	-13056
▁உள்ளாட்சித்	-13057
▁அவளின்	-13058
▁போனார்	-13059
▁வைக்கிறது	-13060
▁அதிகரிக்கிறது	-13061
▁திருநாவுக்க	-13062
▁அரசாணை	-13063
ப்பள்ளியில்	-13064
▁திருவரு	-13065
▁நினைக்கும்	-13066
ப்படுவதாகவும்	-13067
▁சுத்தமான	-13068
▁இரண்டையும்	-13069
▁வழிபட்டு	-13070
▁மணிநேர	-13071
▁முஸ்லீம்	-13072
▁தடையை	-13073
▁மானியம்	-13074
▁இதுதவிர	-13075
▁பொதுப்	-13076
மேத	-13077
ிகே	-13078
▁தொழிலை	-13079
ர்கு	-13080
லியில்	-13081
ாவைக்	-13082
லோடு	-13083
▁ஒன்ப	-13084
▁8,	-13085
▁அமாவாசை	-13086
▁வைக்கப்படும்	-13087
▁பல்கலை	-13088
▁அனிருத்	-13089
வேலை	-13090
▁opt	-13091
▁உத்தியோகத்தில்	-13092
▁வெளியேறும்	-13093
▁கன்று	-13094
▁கால்கள்	-13095
▁எஸ்டேட்	-13096
குழ	-13097
▁வில்லன்	-13098
ூத்	-13099
▁கிரீ	-13100
▁எழுந்தருளி	-13101
்சோ	-13102
எச்	-13103
ப்பாதை	-13104
▁தவம்	-13105
▁தளப	-13106
▁எஞ்சிய	-13107
திராவிட	-13108
▁இஸ்லாம்	-13109
▁என்றாலே	-13110
▁செல்லலாம்	-13111
▁வெளிநாடு	-13112
▁ஜால	-13113
▁பிரிவுகளில்	-13114
▁சைபர்	-13115
நூறு	-13116
▁நிதியுதவி	-13117
▁அச்சுறுத்தல்	-13118
மாகிறது	-13119
ரியல்	-13120
▁கேள்வியை	-13121
தியே	-13122
▁குற்றவாளிகள்	-13123
▁அதிகாரிகளை	-13124
▁என்னதான்	-13125
▁ஆகியன	-13126
▁வழக்கறிஞ	-13127
▁பரிவர்த்தனை	-13128
▁பயிற்சியாளர்	-13129
▁சேல	-13130
▁ரவிச்சந்திரன்	-13131
▁வரவேற்றார்	-13132
▁வழக்குகளில்	-13133
▁சான்றிதழ	-13134
▁தீவிரவாதிகள்	-13135
மாயின்	-13136
▁வீழ்ச்சி	-13137
▁இக்கூ	-13138
▁சிந்தித்து	-13139
▁இந்தோனே	-13140
பகவ	-13141
▁விட்டுப்	-13142
▁ராஜேந்திர	-13143
த்திரைப்பட	-13144
▁மாநா	-13145
▁பொருட்படுத்த	-13146
▁கூட்டண	-13147
காலத்தில்	-13148
▁கவிதைகள்	-13149
▁லண்டனில்	-13150
▁ஆத்திரமடைந்த	-13151
▁பொறுப்பில்	-13152
▁காவேரி	-13153
குட	-13154
▁op	-13155
▁அதேநேரம்	-13156
ிகரமான	-13157
▁விண்ணப்பம்	-13158
▁பதிவுகள்	-13159
▁தருண	-13160
▁பதிவாகி	-13161
▁போலவும்	-13162
▁பதவியேற்ற	-13163
ச்சோ	-13164
▁who	-13165
ல்லாத	-13166
▁மென்பொருள்	-13167
▁நிறுவனங்களும்	-13168
▁மோது	-13169
▁காமா	-13170
▁ஹெல்	-13171
▁செழி	-13172
▁சில்லறை	-13173
வழிக்	-13174
▁பரோ	-13175
▁சந்திரசேகர்	-13176
▁ஒருவர	-13177
▁வரவேற்ற	-13178
ப்பீர்கள்	-13179
▁மேம்பட்ட	-13180
▁தவறாமல்	-13181
▁வெடித்த	-13182
ல்லது	-13183
▁நிலக்கரி	-13184
▁இருப்பவர்	-13185
▁பாதிக்கப்படும்	-13186
த்தினம்	-13187
▁செய்துள்ளதாக	-13188
▁பாஜகவில்	-13189
▁உங்கள	-13190
▁மக்களவைத்	-13191
▁வெண்	-13192
▁மகத்தான	-13193
ையாளர்கள்	-13194
ச்செய்ய	-13195
▁கஸ்த	-13196
▁இப்பகுதியில்	-13197
▁ன்	-13198
மாவட்ட	-13199
▁காவி	-13200
▁சம்பந்தமான	-13201
▁நூற்றாண்டின்	-13202
▁சொல்கிறேன்	-13203
▁ராமன்	-13204
ர்களுக்காக	-13205
வுடைய	-13206
▁சட்டங்கள்	-13207
▁அதிகாரியாக	-13208
▁பானர்ஜி	-13209
வனிடம்	-13210
சாத்	-13211
▁பணிப்பாளர்	-13212
▁செயல்களில்	-13213
ப்புள்ளி	-13214
ின்ஸ்	-13215
▁எஸ்பி	-13216
▁திட்டத்திற்கு	-13217
▁கவசம்	-13218
ளையின்	-13219
▁டக்	-13220
▁வேட்பும	-13221
▁கோயம்பு	-13222
▁மட்டுமல்லாது	-13223
▁உடைத்த	-13224
ினோ	-13225
▁பழகி	-13226
தைச்	-13227
▁ஜல	-13228
▁அறியும்	-13229
விதம்	-13230
▁நீர்ப்ப	-13231
ஹான்	-13232
▁காத்திருக்கும்	-13233
▁நடைபெறவுள்ள	-13234
▁அதிகரித்தது	-13235
▁முற்றிலு	-13236
mail	-13237
பிரதேச	-13238
ould	-13239
▁குடை	-13240
▁மகிந்த	-13241
▁திரளான	-13242
▁இண்டீஸ்	-13243
▁இதனைக்	-13244
▁விளைவுகள்	-13245
▁அவரைக்	-13246
/0	-13247
▁எடுப்பது	-13248
▁ஆயிரத்துக்கும்	-13249
வுக்கான	-13250
▁பூச்சி	-13251
▁வீட்டிற்குள்	-13252
டியுடன்	-13253
▁மரக்கன்று	-13254
ஸ்டாலின்	-13255
▁நிதியமைச்சர்	-13256
led	-13257
▁நம்பிய	-13258
▁சிறந்து	-13259
னிக்கு	-13260
ையான்	-13261
▁24-	-13262
▁ஆரம்பித்தது	-13263
▁அட்வ	-13264
▁வரவேற்று	-13265
▁வந்ததால்	-13266
▁ஆல்ப	-13267
படுத்தி	-13268
▁கத்தியால்	-13269
▁வாடிக்கையாளர்	-13270
▁கலாய்த்து	-13271
▁காட்டினார்	-13272
▁உத்	-13273
▁தேக	-13274
▁Sm	-13275
▁வெளியிடும்	-13276
▁மைல்	-13277
▁விஜயகுமார்	-13278
▁பங்குச்	-13279
வோடு	-13280
▁மசா	-13281
▁சிறிசேன	-13282
▁சிங்கம்	-13283
▁ஹர்த	-13284
▁வெற்றிபெற்ற	-13285
▁ஹார	-13286
▁தேதிக்கு	-13287
▁இயலும்	-13288
tern	-13289
ேனும்	-13290
▁சாதனம்	-13291
▁மருத	-13292
▁குத	-13293
▁பெற்றுள்ளன	-13294
காலம்	-13295
க்காய	-13296
▁கேட்டா	-13297
▁மலேசியா	-13298
▁இருந்துள்ளார்	-13299
▁விடுத்தார்	-13300
▁முடிவடைந்த	-13301
▁வெடிப்பு	-13302
முதலிய	-13303
▁சென்னையை	-13304
னாய்	-13305
▁செந்தில்குமார்	-13306
▁வழிவகுக்கும்	-13307
படு	-13308
▁செயல்பாடுகளை	-13309
▁பிஸ	-13310
பாய்	-13311
▁வந்தவர்கள்	-13312
ER	-13313
▁இருத்தல்	-13314
▁காட்சியில்	-13315
▁அக்கட்சியின்	-13316
▁அதானி	-13317
ays	-13318
▁பாகிஸ்தானில்	-13319
oss	-13320
▁வேண்டியதில்லை	-13321
▁காதில்	-13322
▁தெலுங்கானா	-13323
▁குற்றவாளி	-13324
▁அரசியல்வாதிகள்	-13325
▁ஏர்ட	-13326
▁இருமல்	-13327
▁நகரத்தில்	-13328
▁வெளிவரும்	-13329
▁தூங்கு	-13330
▁பத்தாம்	-13331
விக்கு	-13332
முதலில்	-13333
ூட்	-13334
▁கற்கை	-13335
▁மஞ்சு	-13336
▁சீட்	-13337
▁ரசாயன	-13338
▁அணிகளும்	-13339
▁டார்க்	-13340
22	-13341
▁கொள	-13342
▁சிம்ப	-13343
▁கணிசமான	-13344
▁அம்சங்களை	-13345
▁இருந்தான்	-13346
▁பேய	-13347
▁செய்தும்	-13348
▁மலையில்	-13349
▁அலுவலகத்திற்கு	-13350
▁உதை	-13351
ress	-13352
▁உடையில்	-13353
▁சர்வீ	-13354
▁ch	-13355
▁மறைய	-13356
▁இன்றியமைய	-13357
▁வெளியேறு	-13358
▁பெல்	-13359
▁கதாபாத்திரம்	-13360
▁நோட்டு	-13361
மென்ப	-13362
▁குளத்தில்	-13363
▁நபர்களுக்கு	-13364
▁அமுத	-13365
▁கொண்டுவந்து	-13366
▁ட்ரை	-13367
▁மறுசீர	-13368
▁அதிமுகவில்	-13369
▁இடம்பெற்றது	-13370
▁அதன்பேரில்	-13371
▁100-	-13372
▁பாரு	-13373
த்தியை	-13374
▁பார்ப்பன	-13375
நின்	-13376
▁கட்டுரைகள்	-13377
▁வதந்த	-13378
▁திரட்ட	-13379
▁23-	-13380
ூற	-13381
▁மெரி	-13382
ளித்தது	-13383
▁படிப்பை	-13384
▁அளிக்கப்பட்ட	-13385
▁துன்பம்	-13386
▁தானாக	-13387
ில்லா	-13388
▁தற்	-13389
த்தவர்கள்	-13390
▁பரிசோதனைக்கு	-13391
▁கோடியாக	-13392
ெனக்	-13393
▁அமைச்சின்	-13394
▁வந்துவிட்டது	-13395
▁காட்சியை	-13396
▁எத்தகைய	-13397
▁எடுத்துள்ளது	-13398
▁நெச	-13399
▁ஸ்வர	-13400
ினுடைய	-13401
▁சீக்கிரம்	-13402
▁ஐடியா	-13403
ருகே	-13404
ுமொரு	-13405
மட்ட	-13406
▁நரசிம்ம	-13407
ார்த்	-13408
▁டைனோசர்	-13409
▁நகராட்ச	-13410
▁சிதம்பர	-13411
▁வகித்து	-13412
▁ழ	-13413
▁முதன்மையான	-13414
▁முதலாக	-13415
க்கங்கள்	-13416
▁அனைத்துப்	-13417
▁மனத	-13418
▁ஹரிய	-13419
வாரிய	-13420
ுவல்	-13421
▁சிலையை	-13422
▁न	-13423
▁முகப்பரு	-13424
amb	-13425
▁பிரபலம்	-13426
▁பிரச்னைகள்	-13427
▁வலியுறுத்தினார்	-13428
▁செய்தான்	-13429
▁பிரத்திய	-13430
▁அமைச்சக	-13431
வீங்க	-13432
▁பேன	-13433
க்கத	-13434
▁துவங்கிய	-13435
விலேயே	-13436
▁தொட்டி	-13437
▁கேள்விகளை	-13438
GB	-13439
▁நிராகரிக்க	-13440
▁காஜ	-13441
▁ஞாபக	-13442
▁சால்	-13443
▁எதுவுமே	-13444
ரங்கு	-13445
▁700	-13446
▁சவுதி	-13447
▁இஃ	-13448
▁சிக்ச	-13449
▁தொழிற்ப	-13450
லாக்	-13451
ாளா்	-13452
▁நிழல்	-13453
▁இருந்தா	-13454
ினைப்	-13455
ர்களோ	-13456
▁போதைப்பொருள்	-13457
▁ரஷிய	-13458
▁யாவரும்	-13459
▁னா	-13460
▁உயர்ந்தது	-13461
▁பண்டைய	-13462
▁கையால்	-13463
▁தண்டவாள	-13464
▁வருடா	-13465
▁இன்ஜின	-13466
▁எந்தெந்த	-13467
▁பாபா	-13468
▁நம்பிக்கையில்	-13469
ஹே	-13470
▁சலுகைகள்	-13471
▁டிக்	-13472
▁நண்பர்களுடன்	-13473
▁கழுத்து	-13474
▁சுறுசு	-13475
▁வழிகள்	-13476
▁ஸ்பெஷல்	-13477
▁அதிகாரிகளின்	-13478
ను	-13479
மற	-13480
▁விடுவா	-13481
▁தியேட்டர்	-13482
ம்பட	-13483
▁பங்கேற்கும்	-13484
▁தயங்க	-13485
▁நரக	-13486
▁கீதா	-13487
வாதிகள்	-13488
▁குன்ன	-13489
▁சரியா	-13490
ana	-13491
▁உலகக்கோப்பை	-13492
▁மின்னஞ்சல்	-13493
▁குமர	-13494
▁மாண்ட	-13495
▁கார்பன்	-13496
▁மெட்ரிக்	-13497
▁யுவன்	-13498
▁வலைத்தளத்தில்	-13499
சிபி	-13500
▁கிடைக்காமல்	-13501
▁அடிக்கல்	-13502
▁காந்திய	-13503
▁இலையை	-13504
▁சொல்லாமல்	-13505
▁பேருந்தில்	-13506
க்கச்	-13507
▁பட்டை	-13508
▁ஒருப	-13509
▁பீட	-13510
மென்றும்	-13511
▁சீதாராமன்	-13512
▁மாணவியின்	-13513
▁சாஸ்த	-13514
ஸும்	-13515
னேன்	-13516
▁குறுக்கே	-13517
▁வெறுமனே	-13518
▁எங்களுடைய	-13519
▁31-	-13520
17	-13521
▁சேர்க்கும்	-13522
▁விழுக்காடு	-13523
▁கொங்கு	-13524
▁உறுது	-13525
ப்படையில்	-13526
▁For	-13527
ிக்கோ	-13528
விளையா	-13529
ர்ஆன்	-13530
சுந்தரம்	-13531
ப்போகுது	-13532
▁மால்	-13533
▁மாணவர்களும்	-13534
▁190	-13535
சந்த	-13536
▁பயணிகளை	-13537
▁கைப்பற்றிய	-13538
▁மகன்கள்	-13539
▁படிப்பில்	-13540
▁பங்குகள்	-13541
▁சல்மான்	-13542
▁ஆசன	-13543
▁பண்டி	-13544
▁அழுக	-13545
▁யூடியூப்	-13546
▁செய்கிறோம்	-13547
ியாகிய	-13548
ென்றே	-13549
▁யோகம்	-13550
▁திருமணமாகி	-13551
▁அறிவிக்கப்பட்டு	-13552
▁அணுகுமுறை	-13553
பூர்	-13554
▁விட்டான்	-13555
▁ஆசார	-13556
▁கிணற்றில்	-13557
▁குற்றங்கள்	-13558
▁கலைய	-13559
▁முதலியவை	-13560
▁ஆதாரங்கள்	-13561
▁இதழ்	-13562
▁21-	-13563
ன்களுக்கு	-13564
▁முற்பட்ட	-13565
ாய்ப்ப	-13566
▁Also	-13567
த்தமிழ	-13568
▁பரமா	-13569
▁சலி	-13570
ட்கா	-13571
லையே	-13572
▁பண்புகள்	-13573
▁தரப்பினரும்	-13574
▁IN	-13575
க்கிற	-13576
▁தேவதை	-13577
▁இயக்குனராக	-13578
▁செய்தோம்	-13579
▁சுட்டிக்	-13580
ரமான	-13581
ள்தான்	-13582
ல்லாஹு	-13583
▁கேச	-13584
ரியது	-13585
திகளாக	-13586
ப்போகிறது	-13587
▁போரி	-13588
▁நிமிடத்தில்	-13589
▁பிரதமரின்	-13590
ரங்கம்	-13591
att	-13592
▁செரிமான	-13593
▁கோலாக	-13594
▁110	-13595
▁கட்டுப்பாட்டை	-13596
பிள்யூ	-13597
▁அமித்ஷா	-13598
▁காலத்தின்	-13599
▁தற்கா	-13600
▁பேசிக்கொண்ட	-13601
▁வருஷம்	-13602
▁மாநிலங்களுக்கு	-13603
ij	-13604
▁வைக்கப்பட்டுள்ள	-13605
▁சாா்ப	-13606
▁விரோ	-13607
மீன்	-13608
▁இடிந்து	-13609
ல்களால்	-13610
▁லாஸ்	-13611
▁மாடி	-13612
▁கட்டுப்படுத்து	-13613
ல்களிலும்	-13614
▁நிலநடுக்கம்	-13615
ன்றம்	-13616
ப்ள	-13617
விருந்த	-13618
▁காணொளி	-13619
▁திறமையை	-13620
▁தம்முடைய	-13621
▁பகிர்ந்துள்ளார்	-13622
▁வெடிகுண்டு	-13623
▁பைக்கு	-13624
▁விதித்த	-13625
▁சமத்துவ	-13626
▁பிறந்தநாளை	-13627
AR	-13628
▁தனித்துவமான	-13629
5,	-13630
▁ஆக்ஷன்	-13631
▁உயரத்தில்	-13632
வேண்டாம்	-13633
▁ராமேஸ்வர	-13634
▁மாது	-13635
▁சுவாரஸ்யமான	-13636
▁வடகொ	-13637
சியும்	-13638
▁கண்ணில்	-13639
த்தன்மையை	-13640
▁புலிகளின்	-13641
▁சொர்க்க	-13642
தோர்	-13643
▁தாழ்வ	-13644
▁பாதாள	-13645
▁ஊராட்ச	-13646
▁நெய்ய	-13647
ாயணம்	-13648
▁ஓட்டிகள்	-13649
▁நண்பன்	-13650
▁ஏறத்தாழ	-13651
▁வழங்கல்	-13652
▁தனிநபர்	-13653
▁அமலாக்கத்துறை	-13654
செய்வ	-13655
கொள்க	-13656
▁சிறப்புப்	-13657
▁முடியாம	-13658
▁அதிகாரத்தை	-13659
▁சம்பந்தமாக	-13660
ப்பெற	-13661
▁ஷேர்	-13662
▁சூழ்ந்த	-13663
▁பாதிக்கப்பட்டது	-13664
▁அசாம்	-13665
ென்ஸ்	-13666
▁ஹு	-13667
▁பார்ப்பதற்கு	-13668
▁கோர்ட்டு	-13669
▁சுட்டுக்	-13670
▁செயின்	-13671
மட	-13672
ீடுகள்	-13673
▁மக்களுக்காக	-13674
▁சரிந்து	-13675
▁அடுப்பில்	-13676
▁இச்	-13677
▁எதிர்மறை	-13678
▁அதனால	-13679
▁பிள்ளையார்	-13680
▁இல்லையெனில்	-13681
▁As	-13682
▁விஜயபா	-13683
earch	-13684
▁பாக்ஸ்	-13685
▁என்னுடன்	-13686
▁(3)	-13687
ஸ்டன்	-13688
▁வாக்குச்சாவ	-13689
ood	-13690
படம்	-13691
ரிடமும்	-13692
ரீதியாக	-13693
▁புள	-13694
▁சரத்	-13695
▁பதிவான	-13696
▁பார்க்கவும்	-13697
்களைப்	-13698
ையுள்ள	-13699
▁காஷ்மீரில்	-13700
▁நடைபெற்றன	-13701
▁மைக்கே	-13702
▁சுப்ப	-13703
▁செஸ்	-13704
பிடி	-13705
▁சியோ	-13706
ானுக்கு	-13707
▁இம்மாத	-13708
▁கால்களை	-13709
▁சசிகல	-13710
▁விளைவிக்கும்	-13711
▁அறநிலையத்துறை	-13712
ெழுந்த	-13713
▁போனில்	-13714
விட்டதால்	-13715
9,	-13716
▁கோடிக்கண	-13717
▁பாதியில்	-13718
ித்தல்	-13719
▁மாவீர	-13720
▁முத்துக்கு	-13721
▁ஆவின்	-13722
▁பரும	-13723
▁அதற்கும்	-13724
▁தேர்வுக்கு	-13725
▁சாப	-13726
ரகம்	-13727
ப்டி	-13728
▁நிலத்தடி	-13729
▁பதக்கம்	-13730
▁வைக்கிறார்	-13731
ப்போக்கு	-13732
▁பெறுங்கள்	-13733
▁கதாநாயகனாக	-13734
ப்படுத்திக்	-13735
▁சம்பாதிக்க	-13736
▁உள்கட்டமைப்பு	-13737
▁மடக்கி	-13738
▁கனிம	-13739
▁ஆட்கள்	-13740
▁ஏலத்தில்	-13741
▁லாம்	-13742
▁அகா	-13743
▁பிராண்ட	-13744
▁மாடலை	-13745
▁ஆட்டமிழந்தார்	-13746
:3	-13747
▁பள்ளிக்கூட	-13748
▁நெற்ற	-13749
▁இருந்துள்ளது	-13750
▁தீமை	-13751
▁கேட்டுள்ளார்	-13752
▁வைரல்	-13753
▁முஹம்ம	-13754
▁முகாமை	-13755
▁கொண்டார்கள்	-13756
▁பார்த்ததும்	-13757
▁பதற்றம்	-13758
▁அரசியலை	-13759
▁தழை	-13760
பள	-13761
▁இடஒதுக்க	-13762
ாட்டின்	-13763
▁மீடியா	-13764
▁கவுண்ட	-13765
▁ஆகு	-13766
▁சிங்கப்பூரில்	-13767
▁விரட்டி	-13768
ஹம்	-13769
▁மாமல்ல	-13770
▁சுப்பு	-13771
▁கொள்கிறோம்	-13772
▁தனியே	-13773
▁அவரைத்	-13774
▁கிண்டல்	-13775
▁பத்திரிக்க	-13776
▁யாத்திர	-13777
னாலும்	-13778
▁சேமித்து	-13779
▁தலைவர்ஃ	-13780
▁வெளியூர்	-13781
▁கோயம்பே	-13782
▁யூனிட்	-13783
▁சென்றான்	-13784
▁நினைத்தால்	-13785
▁லிருந்து	-13786
க்காகவும்	-13787
யாண	-13788
றீங்களா	-13789
▁இருக்கட்டும்	-13790
ித்	-13791
ett	-13792
▁அமைக்கப்பட்டது	-13793
▁அரசே	-13794
▁உள்ளவர்களுக்கு	-13795
▁அதிகாரிகளும்	-13796
▁மூலதன	-13797
▁விமானப்	-13798
▁ஆரம்பம்	-13799
▁தர்ப	-13800
▁அழகிரி	-13801
▁படமான	-13802
ப்படுமா	-13803
▁ஆராய்	-13804
▁விதிக்கப்பட்ட	-13805
ிருந்தோம்	-13806
▁உணர்வை	-13807
▁அப்பாவி	-13808
▁வந்திருக்கிறது	-13809
▁விழும்	-13810
▁தெலங்க	-13811
ியலில்	-13812
கொண்டே	-13813
▁தேங்கி	-13814
ீல்டு	-13815
ரப்	-13816
▁He	-13817
▁தூண்டி	-13818
▁ஒருபுறம்	-13819
▁அமர்த்த	-13820
க்களைப்	-13821
ஞ்சா	-13822
▁மோடிக்கு	-13823
▁சொந்தமாக	-13824
குண	-13825
▁தூவி	-13826
▁துன்புறுத்த	-13827
▁ஷ்	-13828
▁இராவ	-13829
ரவைத்	-13830
▁அமைப்பாளர்	-13831
▁இருக்கையில்	-13832
▁குடும்பத்தின்	-13833
▁ஆட்சியின்	-13834
ப்படுவர்	-13835
▁சசி	-13836
▁யாரை	-13837
செல்ல	-13838
சிடி	-13839
▁கோழ	-13840
▁நடுக்க	-13841
வதைக்	-13842
சிறந்த	-13843
▁மோடியை	-13844
▁Ad	-13845
ஷியல்	-13846
பாண்டியன்	-13847
▁பயணிகளுக்கு	-13848
கீ	-13849
ஷ்கா	-13850
▁உபய	-13851
திகா	-13852
▁பெற்றுத்	-13853
த்தின்கீழ்	-13854
▁லேப்ட	-13855
நந்த	-13856
▁அவுஸ்திரே	-13857
▁அனைத்துக்	-13858
▁வாத்திய	-13859
▁எரிய	-13860
▁நீடித்து	-13861
▁கல்வியை	-13862
▁ஏறு	-13863
▁பயணிகளின்	-13864
▁பதிந்து	-13865
▁பெயரும்	-13866
▁உணர்வ	-13867
ாயுத	-13868
▁முன்வைத்து	-13869
ection	-13870
▁திரும்பினார்	-13871
▁கண்டுகொள்ள	-13872
▁சுமத்த	-13873
▁விமர்சிக்க	-13874
▁தினத்தில்	-13875
▁டிசைன்	-13876
▁நினைத்துக்	-13877
லங்கள்	-13878
ணர்ந்த	-13879
ON	-13880
▁நிலையத்துக்கு	-13881
▁பரவலை	-13882
▁பவுண்டரி	-13883
▁மூவர்	-13884
ெரி	-13885
▁செய்வதன்	-13886
ூடாக	-13887
▁ஐம்பது	-13888
▁கட்டப்பட்டு	-13889
சய	-13890
ட்டே	-13891
▁சுப்ரமண	-13892
▁பெய்யக்கூடும்	-13893
ப்படைய	-13894
ள்ளேன்	-13895
தேய	-13896
▁கிடைக்காத	-13897
▁உற்சவ	-13898
றிக்கை	-13899
▁புல்	-13900
களோடு	-13901
▁காவல்நிலைய	-13902
னுள்	-13903
▁இன்றுவரை	-13904
நினை	-13905
▁சிறிதும்	-13906
மிடெட்	-13907
▁தூண்டும்	-13908
▁ஈடுபட்டார்	-13909
ுது	-13910
▁போட்டியாக	-13911
▁கணவரை	-13912
▁எதிர்கொள்ளும்	-13913
▁ஏதுவாக	-13914
▁மெட்டல்	-13915
ினரை	-13916
▁மாயா	-13917
▁பியூ	-13918
▁கலாச்சாரம்	-13919
uth	-13920
▁சரிபார்க்க	-13921
▁கிடைக்காது	-13922
▁செய்வதால்	-13923
▁மாவை	-13924
▁மாநிலத்	-13925
ியுள்ளோம்	-13926
▁பிரியாணி	-13927
▁ஆடும்	-13928
▁கதையில்	-13929
▁விரத	-13930
▁குப்ப	-13931
▁அவர்களுக்கும்	-13932
▁இருக்காங்க	-13933
▁மதுர	-13934
ோமா	-13935
▁போன்றது	-13936
▁நூலை	-13937
▁And	-13938
▁அழிய	-13939
▁ஆலி	-13940
க்கிட	-13941
▁எளிமையாக	-13942
▁நடத்தப்படுகிறது	-13943
▁வச்சு	-13944
▁நாடாளுமன்றத்	-13945
▁வாழ்வை	-13946
▁மரங்களை	-13947
▁என்பதற்கான	-13948
▁காரணத்தினால்	-13949
▁நலத்துறை	-13950
ம்பல்	-13951
ுள்ளது	-13952
▁இந்தியத்	-13953
▁தானா	-13954
▁ஜெர்மனி	-13955
▁எழுவ	-13956
▁ரீதியாகவும்	-13957
▁ஹோண்டா	-13958
திப்	-13959
▁காயத்ரி	-13960
▁ஆரம்பித்தார்	-13961
ப்பட்	-13962
▁ஸ்வா	-13963
▁விளக்குகள்	-13964
▁பெருகி	-13965
▁ஓம	-13966
▁28-	-13967
▁மாநகராட்ச	-13968
▁வெங்கடேசன்	-13969
▁தளங்களில்	-13970
ிருந்தாள்	-13971
▁கொழும்பில்	-13972
mi	-13973
▁எழும்	-13974
▁நகர்த்த	-13975
யாக	-13976
▁குடல்	-13977
வாரம்	-13978
லிக	-13979
▁ஆளுமை	-13980
▁கையெழுத்து	-13981
▁தரத்தை	-13982
hin	-13983
▁டீச	-13984
▁மணிநேரம்	-13985
▁கேக்	-13986
▁வேலி	-13987
▁பயிற்சியாள	-13988
▁கேவல	-13989
்களைக்	-13990
▁நிலப்பர	-13991
▁சுயே	-13992
▁தாய்ப்ப	-13993
▁தொகுதிகள்	-13994
▁செல்லாமல்	-13995
▁own	-13996
▁27-	-13997
ஷாந்த்	-13998
/-	-13999
▁விரல்	-14000
▁வழு	-14001
▁!!	-14002
ற்கும்	-14003
▁பிரெஞ்சு	-14004
▁ab	-14005
▁நீடிக்கும்	-14006
▁சம்மந்த	-14007
▁புவி	-14008
▁அம்பு	-14009
மேல	-14010
▁சிவசேனா	-14011
▁ஈரான	-14012
▁முறு	-14013
எக்ஸ்	-14014
▁என்ஜின	-14015
▁பேசியதாவதுஃ	-14016
▁அனல்	-14017
▁ஒன்றுதான்	-14018
▁அவனிடம்	-14019
▁பரப்பி	-14020
ோா்	-14021
▁பருவத்தில்	-14022
▁ஆண்டுகளுக்குப்	-14023
▁நினைவுக்கு	-14024
▁மரபணு	-14025
▁பாழ	-14026
▁அல்லாமல்	-14027
ையுங்	-14028
▁சாா்பில்	-14029
▁டாக்	-14030
▁சேவையில்	-14031
▁அதுக்கு	-14032
▁தொழு	-14033
▁ஆணையாளர்	-14034
▁தொடர்பாளர்	-14035
▁இவங்க	-14036
▁கௌதம்	-14037
▁காரணமாகவே	-14038
▁விநா	-14039
▁அகமது	-14040
ர்களைத்	-14041
▁அதிமுகவின்	-14042
▁நோயாளி	-14043
வனது	-14044
ரிட்டி	-14045
சியை	-14046
ark	-14047
▁பணிகளுக்கு	-14048
▁சூழ்ந்து	-14049
▁பீட்டர்	-14050
▁எபி	-14051
▁அன்புமணி	-14052
▁மசாஜ்	-14053
த்தூரில்	-14054
▁டும்	-14055
▁சீரிஸ்	-14056
▁சாக்கடை	-14057
க்கின	-14058
▁ராணிப்பேட்டை	-14059
பார்	-14060
▁சிரித்து	-14061
▁தீர்மானத்தை	-14062
▁ஃபால	-14063
▁தேவைகள்	-14064
▁கொள்கிறார்கள்	-14065
▁போய்ட	-14066
▁திருவனந்தபுரம்	-14067
▁பட்டதாரி	-14068
▁பிரச்சினையை	-14069
▁கட்டுப்பாடுகளை	-14070
▁இலக்காக	-14071
▁மேனேஜ்மெண்ட்	-14072
ண்ட்ஸ்	-14073
▁உள்ளா	-14074
▁இயங்கு	-14075
ையின்போது	-14076
▁நெருப்பு	-14077
ங்களுக்குப்	-14078
▁இட்லி	-14079
ஸ்லி	-14080
▁முருகேசன்	-14081
▁மற்றவர்களுக்கு	-14082
▁திரவிய	-14083
▁இத்திரைப்பட	-14084
▁கவச	-14085
▁பொண்ணு	-14086
▁தொடங்கப்பட்டது	-14087
▁கிளப்ப	-14088
ளுக்கிடையே	-14089
▁இல்லம்	-14090
▁பாலின	-14091
▁பெயரி	-14092
▁நாகப்பட்டினம்	-14093
▁கலைந்து	-14094
▁ரத	-14095
▁பயங்கரவாதிகள்	-14096
▁சிறுபான்மை	-14097
▁ஜமா	-14098
ஸ்ர	-14099
்வா	-14100
த்திற்குக்	-14101
▁பழனிசாம	-14102
press	-14103
ஆயிர	-14104
▁பூனை	-14105
▁முயன்றார்	-14106
▁பூர்வீ	-14107
▁என்னோட	-14108
▁அனி	-14109
▁உடற்க	-14110
▁சங்கட	-14111
ளித்துள்ளார்	-14112
▁கின்றன	-14113
மண்	-14114
▁துள்ள	-14115
சிறு	-14116
▁புதுமை	-14117
▁பிரிவினை	-14118
▁நீதிமன்றத்தின்	-14119
▁ஓவர்கள்	-14120
▁கற்கள்	-14121
▁வீட	-14122
▁சோவியத்	-14123
▁டெபாச	-14124
த்தார்கள்	-14125
▁ஜீவன்	-14126
▁எல்லைக்குள்	-14127
▁ரீமேக்	-14128
▁விதைகள்	-14129
▁கிளிநொச்சி	-14130
ல்வெ	-14131
▁விலங்கு	-14132
▁விபரீ	-14133
▁அறிமுகமாக	-14134
▁கொள்கைகளை	-14135
▁அத்தியாய	-14136
க்குது	-14137
▁தொல்லியல்	-14138
▁பணவீ	-14139
▁இஸ்ரேல்	-14140
த்தனமாக	-14141
erm	-14142
▁எல்லாப்	-14143
▁Sc	-14144
▁செய்யப்படவில்லை	-14145
மாகாண	-14146
21	-14147
▁உற்பத்தியை	-14148
ile	-14149
▁பொறுப்பேற்ற	-14150
▁கவர்ந்து	-14151
▁தடுப்பூசிகள்	-14152
▁குக்	-14153
▁என்பார்கள்	-14154
ம்பிர	-14155
▁பழமை	-14156
▁ஒத்திவைக்க	-14157
▁ஒத்திவை	-14158
▁திருமாவளவன்	-14159
ட்டிலும்	-14160
எங்கள்	-14161
▁செய்யுமாறு	-14162
▁முன்னேறி	-14163
▁கற்றல்	-14164
▁குவிக்க	-14165
▁டெண்டர்	-14166
தார்	-14167
▁காலத்திலும்	-14168
ாடம்	-14169
▁உடன்படிக்க	-14170
▁நாயகியாக	-14171
▁நாள்கள்	-14172
ருக்குத்	-14173
▁திருநங்கை	-14174
▁விஷயங்கள	-14175
▁இல்லனா	-14176
▁புரிக	-14177
நிறை	-14178
▁ஒடிசா	-14179
▁ஆறுமுகம்	-14180
த்திறன்	-14181
ாட்டில்	-14182
▁மாளிகையில்	-14183
▁ராஜு	-14184
ிருத்தல்	-14185
▁கொடியை	-14186
▁வெளிச்சம்	-14187
▁இந்தியன்ஸ்	-14188
தியையும்	-14189
▁22-	-14190
த்தேர்	-14191
▁கட்டடம்	-14192
▁கன்னடம்	-14193
▁தூர்	-14194
மாதிரி	-14195
▁பகுப்ப	-14196
▁சிறப்பி	-14197
▁சீரு	-14198
▁கங்கு	-14199
▁மயக்கம்	-14200
னாவ	-14201
டையாக	-14202
▁சிங்கப்பூ	-14203
▁அஞ்சல்	-14204
சேகர்	-14205
க்கக்	-14206
▁இடத்தைப்	-14207
▁வரிசையாக	-14208
▁இளைஞன்	-14209
▁மறியலில்	-14210
ட்டினம்	-14211
▁திரைக்கு	-14212
த்துக்குத்	-14213
▁பழங்குடியின	-14214
க்கிட்ட	-14215
▁குதித்து	-14216
▁பெட்டியில்	-14217
▁ஊழியர்களின்	-14218
நோக்கு	-14219
▁பசுவ	-14220
ல்லவா	-14221
ிரக	-14222
▁விருந்தினராக	-14223
▁பிக்சர்ஸ்	-14224
ப்பட்டுள்ளதால்	-14225
▁மாவட்டங்களிலும்	-14226
▁தரையிற	-14227
▁முதியவர்	-14228
▁திருவள்ளுவர்	-14229
▁இயற்கையான	-14230
யர்ந்த	-14231
▁கண்ணுக்கு	-14232
ons	-14233
▁தோசை	-14234
▁உற்பத்தியில்	-14235
▁பாதுகாத்து	-14236
▁ஸ்டெர்லைட்	-14237
எப்	-14238
▁தினந்தோறும்	-14239
▁கிறிஸ்து	-14240
▁அடிப்படையிலான	-14241
க்களால்	-14242
▁உறவை	-14243
திக்காக	-14244
▁சட்டப்பேரவையில்	-14245
▁ஆஞ்சநேய	-14246
வொ	-14247
ும்போ	-14248
மோகன்	-14249
ள்ளாக	-14250
ட்டியின்	-14251
▁எதிர்கொண்டு	-14252
▁பயிற்று	-14253
▁பலன்களை	-14254
பதிவு	-14255
த்தனமான	-14256
வராய	-14257
ிலிருக்கும்	-14258
▁பட்டுள்ளது	-14259
▁திரும்பும்	-14260
▁ரசி	-14261
▁அயர்	-14262
▁இஷ்ட	-14263
▁பேய்	-14264
▁ஆயிரத்திற்கும்	-14265
த்தகு	-14266
▁காரு	-14267
▁சொல்லுவ	-14268
▁ராசியில்	-14269
▁ஏற்படுத்துகிறது	-14270
▁உனது	-14271
▁நடந்தன	-14272
▁சீரமைக்க	-14273
ியாகக்	-14274
▁இங்ஙனம்	-14275
வையே	-14276
ர்ணமி	-14277
▁ஜேம்ஸ்	-14278
த்திற்குத்	-14279
▁96	-14280
▁செய்வேன்	-14281
▁எவ்வாற	-14282
டுகள	-14283
▁சமாளி	-14284
▁5000	-14285
▁ஆக்டி	-14286
▁புகையிலை	-14287
▁நகர்ந்து	-14288
ரலி	-14289
▁நோக்கிச்	-14290
▁பின்னரும்	-14291
▁கைதான	-14292
▁போலீஸ்கார	-14293
▁தகவலும்	-14294
சைய	-14295
▁மெசே	-14296
னுக்குப்	-14297
▁னர்	-14298
▁பெற்றவர்கள்	-14299
▁செயில்	-14300
▁விரித்து	-14301
▁கிடந்தது	-14302
▁ஐந்தாவது	-14303
▁அத்தியாயம்	-14304
▁வேதம்	-14305
நாம	-14306
▁என்றார்கள்	-14307
வீர்	-14308
ட்டையும்	-14309
▁இஸ்லா	-14310
வெல்	-14311
மரம்	-14312
▁வீடியோக்கள்	-14313
▁வெளிப்படுத்திய	-14314
▁எஸ்யூவி	-14315
ருமே	-14316
▁பார்த்திபன்	-14317
▁எழுச்சி	-14318
▁குரங்கு	-14319
▁உற்சவம்	-14320
▁பாரதிரா	-14321
▁வைத்தால்	-14322
▁வாசல்	-14323
▁ஊர்வலமாக	-14324
▁சாப்பிட்டால்	-14325
▁கட்டிக்	-14326
▁கைலா	-14327
▁காலகட்ட	-14328
▁தென்கிழ	-14329
▁கலர்	-14330
▁74	-14331
▁நர்	-14332
▁விடுத்துள்ளது	-14333
▁சுகாதாரம்	-14334
▁டோஸ்	-14335
▁விதிக்கப்பட்டது	-14336
▁லொ	-14337
▁நிமிடங்களில்	-14338
▁இவரும்	-14339
▁கட்டுரையில்	-14340
▁சிவக்குமார்	-14341
ாவர்	-14342
.8	-14343
▁அன்றி	-14344
▁குவித்த	-14345
▁கதற	-14346
▁நிா்வ	-14347
▁முற்றிலுமாக	-14348
ீது	-14349
▁அதேபோன்று	-14350
▁காரைக்கு	-14351
▁ஏர்டெல்	-14352
லேட்	-14353
▁செயலிழ	-14354
▁செய்தித்	-14355
▁போட்டியாளர்கள்	-14356
▁ஆண்டனி	-14357
▁முடிவெடுத்த	-14358
மித்த	-14359
்களுக்கும்	-14360
▁போட்டியிட்டு	-14361
க்கங்களை	-14362
▁மணிமே	-14363
▁மின்னல்	-14364
▁தாஸ்	-14365
செல்	-14366
▁போகிறார்	-14367
▁குகை	-14368
▁கோவா	-14369
▁ஓய்	-14370
▁கைகள்	-14371
▁பேச்சாளர்	-14372
▁பாண்டியா	-14373
▁வாக்களி	-14374
▁சுற்றுப்புற	-14375
▁புரத	-14376
பவர்களுக்கு	-14377
▁வஸ	-14378
வேந்திர	-14379
▁விஜயன்	-14380
▁சீர்கா	-14381
▁பிரகட	-14382
முண்டு	-14383
▁கட்டை	-14384
▁பாடலுக்கு	-14385
ியடைந்து	-14386
▁தந்தது	-14387
▁பத்திரிகையாள	-14388
▁வாள்	-14389
பெறும்	-14390
ங்களிலேயே	-14391
களான	-14392
▁பட்டின	-14393
▁சுற்றிலும்	-14394
▁மெலி	-14395
scribe	-14396
▁கதறி	-14397
▁வெல்	-14398
பாலன்	-14399
▁வழக்குகளை	-14400
ங்கிப்	-14401
▁சமையல	-14402
▁வீக்கம்	-14403
▁பிரேக்	-14404
of	-14405
▁அறிஞ	-14406
ினரால்	-14407
▁போராடும்	-14408
▁கட்டளைய	-14409
▁இதழில்	-14410
▁போஸ்ட்	-14411
ளாகிய	-14412
ற்கள்	-14413
▁அடித்தார்	-14414
ப்பட்டதால்	-14415
▁வாங்குவது	-14416
மோச	-14417
அப்ப	-14418
கோண	-14419
▁ராதா	-14420
▁New	-14421
▁டிரெய்னி	-14422
▁நனை	-14423
ert	-14424
▁வாய்ப்பில்லை	-14425
▁சமமாக	-14426
▁சட்டவிரோதமாக	-14427
▁கரையில்	-14428
கால்	-14429
▁தொடர்ந்தார்	-14430
▁மற்றவர்களை	-14431
▁Smart	-14432
▁உட்கார	-14433
ப்புகளையும்	-14434
▁காலத்துல	-14435
▁செயலை	-14436
ப்புவ	-14437
▁சுனில்	-14438
▁ராஜகோ	-14439
ாயாக	-14440
▁தாமிர	-14441
▁பற்ப	-14442
▁தங்கியிருந்த	-14443
▁சீட	-14444
ினைக்	-14445
▁டேபிள்	-14446
▁ஊக்குவிக்க	-14447
வாறே	-14448
▁எவ்வள	-14449
▁இணையவழிக்	-14450
▁சீல்	-14451
ள்ளதால்	-14452
▁திமுகவின்	-14453
▁அஜித்தின்	-14454
▁விசிட்	-14455
▁லுக்கில்	-14456
▁என்பார்	-14457
▁பிரமாண	-14458
ung	-14459
▁வெப்	-14460
▁ஜோசப்	-14461
ஸார	-14462
▁நிறுவனங்களை	-14463
ரேகை	-14464
▁காய்ந்த	-14465
ெல்வன்	-14466
▁பரிகாரம்	-14467
ிக்கா	-14468
▁தெருக்க	-14469
ண்டனை	-14470
▁நற்	-14471
▁கோபால்	-14472
▁சாப்பாடு	-14473
▁உருளைக்கிழ	-14474
▁கணக்கை	-14475
▁மனப்பான்	-14476
விலிருந்து	-14477
▁நள்ளிரவில்	-14478
▁ஒய்	-14479
▁இழப்புக்கு	-14480
▁எண்ணிய	-14481
ட்ல	-14482
▁எதிர்பார்ப்பை	-14483
▁மகேந்திர	-14484
குறி	-14485
ியாகி	-14486
▁புண்ண	-14487
▁சுனிதா	-14488
[...]
