<unk>	0
<s>	0
</s>	0
<pad>	0
்க	-0
்த	-1
ம்	-2
ன்	-3
ல்	-4
▁ப	-5
▁க	-6
க்க	-7
்ட	-8
▁வ	-9
▁ம	-10
த்த	-11
்ப	-12
▁த	-13
▁அ	-14
ும்	-15
ர்	-16
▁ச	-17
ிய	-18
ள்	-19
▁இ	-20
ரு	-21
ந்த	-22
து	-23
ப்ப	-24
ில்	-25
ட்ட	-26
▁ந	-27
▁எ	-28
ைய	-29
ங்க	-30
ாக	-31
ிற	-32
ன்ற	-33
▁உ	-34
டு	-35
ிர	-36
ிக	-37
க்கு	-38
ற்	-39
ண்ட	-40
ள்ள	-41
்ச	-42
ற்ற	-43
ார	-44
த்து	-45
▁ஆ	-46
ின்	-47
ில	-48
▁செ	-49
▁மு	-50
டி	-51
ான	-52
ார்	-53
ர்க	-54
▁வி	-55
லை	-56
தி	-57
வி	-58
ட்டு	-59
ந்து	-60
ரி	-61
ிரு	-62
▁கு	-63
ப்	-64
▁ஒ	-65
வு	-66
ால்	-67
ளை	-68
▁செய	-69
▁போ	-70
▁கொ	-71
▁இரு	-72
ின	-73
க்	-74
▁அவ	-75
ல்ல	-76
ச்ச	-77
▁மா	-78
று	-79
ன்று	-80
▁கா	-81
ன்ன	-82
▁ர	-83
த்	-84
த்தில்	-85
ாய	-86
▁அத	-87
▁பெ	-88
▁இந்த	-89
ான்	-90
றி	-91
ையில்	-92
ளு	-93
ஸ்	-94
டை	-95
மை	-96
▁வே	-97
ுக	-98
▁தொ	-99
க்கும்	-100
ண்	-101
னை	-102
ம்ப	-103
ுவ	-104
ர்கள்	-105
னர்	-106
ங்கள்	-107
ற்க	-108
▁வெ	-109
ாவ	-110
ன்ப	-111
மி	-112
▁கூ	-113
ாத	-114
ப்பு	-115
▁ஏ	-116
▁ஒரு	-117
டிய	-118
ால	-119
ண்டு	-120
▁உள்ள	-121
ிறது	-122
கு	-123
ாள	-124
▁என	-125
▁தே	-126
ளில்	-127
வே	-128
ரை	-129
ாம	-130
ிக்க	-131
மாக	-132
ப்பட்ட	-133
ற்ப	-134
ாம்	-135
றை	-136
▁தெ	-137
்கள்	-138
▁நட	-139
▁1	-140
▁பு	-141
▁மற்ற	-142
ச்	-143
த்தை	-144
▁மே	-145
ழு	-146
ட்ச	-147
▁பிர	-148
திய	-149
▁இத	-150
▁பொ	-151
▁பா	-152
ிட	-153
ரிய	-154
ளுக்கு	-155
▁-	-156
டுத்த	-157
்த்த	-158
வர்	-159
▁வரு	-160
மான	-161
▁பே	-162
▁2	-163
ையும்	-164
▁செய்த	-165
▁மற்றும்	-166
்ய	-167
▁என்று	-168
ரும்	-169
ின்ற	-170
▁வழ	-171
▁நா	-172
ணி	-173
ப்பட	-174
▁கோ	-175
வும்	-176
▁நீ	-177
▁என்ற	-178
்வ	-179
ற்று	-180
▁வா	-181
டுக	-182
▁தொட	-183
▁ய	-184
▁ஜ	-185
ரா	-186
ரச	-187
ண்ண	-188
ள்ளது	-189
வை	-190
ட்	-191
ண்டும்	-192
டன்	-193
வில்	-194
ளி	-195
மா	-196
தாக	-197
ிகள்	-198
▁நில	-199
▁(	-200
்கு	-201
▁முத	-202
ிட்ட	-203
கள்	-204
னு	-205
ப்பட்டு	-206
▁சு	-207
மு	-208
▁சே	-209
னி	-210
▁வீ	-211
▁செய்ய	-212
▁அரச	-213
ோது	-214
ளின்	-215
▁வை	-216
மிழ	-217
▁ட	-218
▁திரு	-219
▁கே	-220
▁மூ	-221
▁என்ப	-222
சி	-223
▁து	-224
தை	-225
டைய	-226
னால்	-227
▁சொ	-228
▁ல	-229
▁அதிக	-230
▁நிற	-231
▁கட	-232
▁தமிழ	-233
▁"	-234
▁பல	-235
▁மீ	-236
ையை	-237
▁பய	-238
டுத்து	-239
▁சிற	-240
▁வருக	-241
▁இது	-242
▁சி	-243
ியில்	-244
▁குறி	-245
▁பட	-246
ும்ப	-247
▁பார	-248
▁வேண்டும்	-249
வர	-250
லி	-251
▁அமை	-252
▁தெரி	-253
ணை	-254
▁கொண்ட	-255
▁அந்த	-256
ஞ்ச	-257
▁நே	-258
..	-259
▁தலை	-260
▁அறி	-261
▁பி	-262
ளிய	-263
▁ஆக	-264
வா	-265
டிக்க	-266
நில	-267
ார்கள்	-268
த்தின்	-269
ங்கள	-270
ிருந்த	-271
திர	-272
ாய்	-273
▁இருந்த	-274
்ப்ப	-275
▁நி	-276
ியு	-277
ிக்	-278
▁'	-279
ிற்கு	-280
▁வந்த	-281
▁கி	-282
ங்கு	-283
▁இருக்க	-284
ற்கு	-285
ட்டி	-286
ிலும்	-287
▁.	-288
ய்	-289
மே	-290
▁ஏற்ப	-291
த்திய	-292
▁தெரிவி	-293
மைய	-294
▁வெளிய	-295
ள்ளார்	-296
ஸ்ட	-297
▁கார	-298
ிருக்க	-299
ரோ	-300
▁இய	-301
களை	-302
▁இர	-303
வத	-304
▁ஓ	-305
▁இட	-306
▁அவர்	-307
்க்க	-308
லம்	-309
▁தீ	-310
▁உட	-311
ங்களை	-312
ூர்	-313
▁கூற	-314
ேன்	-315
ியை	-316
▁என்ன	-317
▁முதல்	-318
▁இந்திய	-319
ங்களில்	-320
க்கிய	-321
னா	-322
வர்க	-323
00	-324
லக	-325
▁ஊ	-326
▁3	-327
ற்றி	-328
▁மேல	-329
நா	-330
▁பண	-331
லாம்	-332
▁வர	-333
ழை	-334
▁சா	-335
▁மக்க	-336
ிறார்	-337
பு	-338
▁எதிர	-339
ர்ந்த	-340
தும்	-341
பெ	-342
லு	-343
சிய	-344
▁உய	-345
கா	-346
▁போல	-347
பி	-348
▁செய்து	-349
ழி	-350
வாக	-351
ருக்கு	-352
▁சில	-353
வர்கள்	-354
ர்ந்து	-355
ளும்	-356
▁பின்	-357
▁சம	-358
▁அப்ப	-359
டுக்க	-360
▁பிற	-361
ாது	-362
ாமல்	-363
த்தி	-364
▁ஹ	-365
▁தன	-366
▁கரு	-367
ழ்	-368
▁திர	-369
ெய	-370
▁வழங்க	-371
▁முன்ன	-372
ோம்	-373
ந்	-374
வது	-375
வ்வ	-376
லா	-377
▁பகு	-378
க்கி	-379
ரம்	-380
▁பொரு	-381
தா	-382
ட்சி	-383
▁மிக	-384
லில்	-385
ப்படுக	-386
த்திர	-387
ர்த்த	-388
பா	-389
▁மாவ	-390
▁ஆனால்	-391
▁முடிய	-392
▁அரசு	-393
ப்பி	-394
ங்	-395
▁முடி	-396
▁நடை	-397
▁மாவட்ட	-398
ப்படும்	-399
▁5	-400
▁தா	-401
ர்ப	-402
▁விர	-403
▁சந்த	-404
ொரு	-405
வில்லை	-406
சார	-407
ஷ்	-408
னம்	-409
▁அனு	-410
ணம்	-411
ங்கி	-412
▁இருந்து	-413
▁ரூ	-414
▁அது	-415
ாலும்	-416
ினை	-417
▁ஈ	-418
போ	-419
▁அள	-420
மும்	-421
▁ஐ	-422
in	-423
▁தோ	-424
▁கொண்டு	-425
ரிக்க	-426
▁மரு	-427
த்திற்கு	-428
▁ரா	-429
▁மேலும்	-430
ியா	-431
ரில்	-432
▁தான்	-433
ல்க	-434
▁அனை	-435
ருக	-436
▁எழு	-437
ப்பா	-438
▁20	-439
▁கை	-440
த்துவ	-441
▁ஆகிய	-442
▁மக	-443
ியாக	-444
▁பர	-445
ப்பட்டது	-446
முக	-447
▁4	-448
▁பூ	-449
▁சீ	-450
▁கல	-451
▁உள்ளது	-452
விட்ட	-453
▁சூ	-454
மெ	-455
ிருந்து	-456
டும்	-457
ட்டை	-458
தம்	-459
▁விள	-460
ல்லை	-461
ினார்	-462
ட்க	-463
▁கால	-464
ியின்	-465
▁நோ	-466
▁கடந்த	-467
▁கண	-468
ிடம்	-469
▁தி	-470
▁கட்ட	-471
ினர்	-472
சு	-473
ின்றனர்	-474
▁நிறுவ	-475
ின்றன	-476
▁நடைபெ	-477
▁சொல்ல	-478
▁அல்ல	-479
ேய	-480
▁அவர்க	-481
▁நெ	-482
ஸ்த	-483
தல்	-484
▁இப்ப	-485
கம்	-486
▁கிர	-487
ாளர்	-488
கவ	-489
▁மோ	-490
ியல்	-491
ட்டில்	-492
க்கம்	-493
தால்	-494
்ச்ச	-495
▁மாண	-496
▁உண	-497
▁இருக்கும்	-498
தே	-499
▁நிலையில்	-500
▁குழ	-501
▁போலீ	-502
ாவது	-503
ர்ச்ச	-504
க்கொ	-505
ப்பட்டுள்ளது	-506
▁பொது	-507
ையா	-508
▁t	-509
ன்னை	-510
▁என்பது	-511
▁குறை	-512
▁திட்ட	-513
an	-514
▁இல	-515
ந்திர	-516
ரே	-517
கை	-518
▁இருப்ப	-519
▁பத	-520
றைய	-521
திக்க	-522
▁தமிழ்	-523
▁உத	-524
ளாக	-525
▁புக	-526
▁நான்	-527
திக	-528
ர்த	-529
▁வரும்	-530
▁வாழ	-531
er	-532
டித்து	-533
விர	-534
ாவில்	-535
ள்ளனர்	-536
ங்களுக்கு	-537
▁உரு	-538
ப்படுகிறது	-539
▁கொள்ள	-540
ோர்	-541
▁தொழ	-542
வன்	-543
▁காண	-544
சை	-545
தியில்	-546
▁ஆய	-547
▁டி	-548
ோத	-549
▁பதி	-550
▁பெற்ற	-551
▁உறு	-552
▁தற்ப	-553
மன்ற	-554
▁இன்று	-555
▁குறிப்ப	-556
▁அதி	-557
ாரி	-558
றிய	-559
▁உலக	-560
ந்தை	-561
ந்தது	-562
த்தார்	-563
▁தூ	-564
ர்வு	-565
தான்	-566
▁அவர்கள்	-567
▁சம்ப	-568
▁தய	-569
▁வரை	-570
▁கிடை	-571
த்துக்கு	-572
▁தொடர்ப	-573
▁வில	-574
on	-575
ப்படுத்த	-576
▁வந்து	-577
▁கூட்ட	-578
▁நிக	-579
ிழ	-580
சா	-581
▁சட்ட	-582
▁சேர்ந்த	-583
▁இல்ல	-584
வீ	-585
ுகள்	-586
▁ஆண்ட	-587
▁ஆர	-588
▁மூலம்	-589
▁போன்ற	-590
ிறார்கள்	-591
▁விசார	-592
▁பார்த்த	-593
ாள்	-594
▁6	-595
▁தெரிய	-596
▁பயன்ப	-597
▁பெய	-598
▁போட்ட	-599
▁வருகிறது	-600
▁அடி	-601
டம்	-602
▁நக	-603
ெல்ல	-604
▁தெரிவித்து	-605
▁தனது	-606
▁மொ	-607
▁தமிழக	-608
▁அல	-609
▁மன	-610
ம்ம	-611
ிகளை	-612
ீர்	-613
ராக	-614
▁ஸ்	-615
▁தொடர்ந்து	-616
▁வள	-617
ென	-618
க்கான	-619
▁மக்கள்	-620
ோடு	-621
▁வேண்ட	-622
▁மாநில	-623
▁ஒன்ற	-624
▁அமைச்ச	-625
தில்	-626
▁எல்ல	-627
வரும்	-628
ோக	-629
▁அறிவி	-630
ப்பை	-631
வுக்கு	-632
▁இல்லை	-633
▁ஆண்டு	-634
▁பரி	-635
▁புதிய	-636
▁தகவ	-637
▁நடிக	-638
▁தற்போது	-639
வச	-640
▁பழ	-641
▁அண	-642
றும்	-643
ிலிருந்து	-644
ல்ப	-645
ையே	-646
▁போது	-647
▁முக்கிய	-648
ாவின்	-649
ரின்	-650
▁மணி	-651
▁நேர	-652
▁முதல	-653
வன	-654
▁காரண	-655
▁வாய	-656
▁குறித்து	-657
at	-658
es	-659
▁7	-660
▁செல்ல	-661
▁வய	-662
▁எந்த	-663
▁பேச	-664
▁சென்ற	-665
▁வக	-666
வ்	-667
ட்ப	-668
▁வெளி	-669
▁வார	-670
▁எடுத்து	-671
ியது	-672
▁எப்ப	-673
க்கள்	-674
ட்டும்	-675
▁இந்	-676
▁அல்லது	-677
▁மருத்துவ	-678
▁கூட	-679
▁தர	-680
ற்கொ	-681
▁வைத்து	-682
டித்த	-683
மார்	-684
▁T	-685
்ப்பு	-686
▁என்றும்	-687
▁வேலை	-688
ளையும்	-689
ணைய	-690
▁என்	-691
ரீ	-692
ல்வ	-693
களில்	-694
▁நல்ல	-695
▁ராஜ	-696
▁எண்ண	-697
▁மட்டு	-698
வடிக்க	-699
வரை	-700
▁நீங்கள்	-701
▁நடவடிக்க	-702
▁கண்ட	-703
ர்க்க	-704
▁கீ	-705
ஸ்ப	-706
க்கூ	-707
ிற்க	-708
ங்கே	-709
▁அதிகார	-710
ப்பில்	-711
▁நிறுவன	-712
முறை	-713
க்காக	-714
டுப	-715
ையின்	-716
▁பட்ட	-717
விட	-718
▁சென்று	-719
▁தேதி	-720
▁பெரிய	-721
▁பெரு	-722
▁பாது	-723
▁அதை	-724
▁S	-725
▁நீதி	-726
▁நிலை	-727
க்த	-728
சிக	-729
நிலையில்	-730
▁திற	-731
▁மெ	-732
▁பால	-733
▁பள்ள	-734
போது	-735
ன்க	-736
▁நினை	-737
▁அவர	-738
▁பாதுகா	-739
▁நிலைய	-740
▁வச	-741
ள்க	-742
ித்த	-743
யம்	-744
▁ஆத	-745
ிருப்ப	-746
▁மீது	-747
சார்	-748
வேறு	-749
▁அதன்	-750
ாதார	-751
▁சென்னை	-752
ாகி	-753
▁குட	-754
▁அணி	-755
▁10	-756
றுக	-757
▁தேர்த	-758
▁நிகழ	-759
▁அம	-760
ராஜ	-761
he	-762
ேயே	-763
ியும்	-764
▁இன்ன	-765
▁இதில்	-766
▁ஸ்ட	-767
▁மத்திய	-768
▁நடத்த	-769
▁இதனால்	-770
ஜி	-771
▁ஷ	-772
▁லட்ச	-773
தற்க	-774
ைப்பட	-775
வெ	-776
▁இணை	-777
வம்	-778
▁நடவடிக்கை	-779
▁பல்	-780
ar	-781
ினி	-782
யா	-783
▁உள்ளிட்ட	-784
▁கட்டு	-785
▁திரும	-786
▁தன்	-787
ிற்	-788
▁இரண்டு	-789
▁குழந்தை	-790
ையாக	-791
▁8	-792
்தான்	-793
ச்சை	-794
▁விடு	-795
ஸ்க	-796
or	-797
▁இற	-798
ிகி	-799
▁மாற்ற	-800
▁தொடங்க	-801
▁அக	-802
▁தலைவர்	-803
▁அவரது	-804
▁மாத	-805
ச்சு	-806
தான	-807
ூக	-808
ளா	-809
▁பிறகு	-810
▁நிர்	-811
ெட்	-812
வற்ற	-813
ிறேன்	-814
டியாக	-815
ிருக்கும்	-816
▁பாட	-817
▁விட	-818
ன்றி	-819
மர்	-820
னித	-821
தற்கு	-822
▁தின	-823
▁காவ	-824
▁அனைத்து	-825
▁முக	-826
▁மேற்கொ	-827
ித்து	-828
▁பெரும்	-829
▁அடை	-830
ளுடன்	-831
னே	-832
en	-833
விட்டு	-834
த்தர	-835
▁முய	-836
▁நம்ப	-837
▁விரு	-838
it	-839
...	-840
▁பல்வேறு	-841
▁அருக	-842
ரோனா	-843
▁அழை	-844
▁செய்வ	-845
ழக	-846
▁நேற்று	-847
வரு	-848
▁இந்நிலையில்	-849
ழுவ	-850
ாளர்கள்	-851
தாகவும்	-852
al	-853
▁வீர	-854
▁அதே	-855
▁பெற்று	-856
க்கப்பட்ட	-857
சிர	-858
ப்பட்டுள்ள	-859
ர்களை	-860
ாறு	-861
▁நாம்	-862
▁விஜ	-863
▁கலந்து	-864
▁மிகவும்	-865
ியுள்ளது	-866
மது	-867
▁குடும்ப	-868
்து	-869
▁வைத்த	-870
▁போரா	-871
▁பின்னர்	-872
▁பயன்படுத்த	-873
▁இவ்வ	-874
டுப்ப	-875
▁போலீசார்	-876
ங்கை	-877
▁வழி	-878
▁அளி	-879
▁19	-880
ையு	-881
▁பார்க்க	-882
▁ஈடுப	-883
ou	-884
▁கடை	-885
▁தேவ	-886
ியர்	-887
▁முறை	-888
னுக்கு	-889
▁எம்	-890
▁நூ	-891
▁தனி	-892
▁என்பதை	-893
▁விட்ட	-894
ஸ்ட்	-895
▁அடுத்த	-896
ில்ல	-897
ா்	-898
கொ	-899
▁வருகின்றனர்	-900
▁குற்ற	-901
ேச	-902
ட்டம்	-903
▁நாட	-904
is	-905
▁சமூக	-906
▁,	-907
வான	-908
▁சங்க	-909
▁விசாரணை	-910
னும்	-911
படி	-912
ளுக்கும்	-913
ல்வி	-914
▁A	-915
வில	-916
▁முன்	-917
்ட்	-918
▁அப்போது	-919
ர்களுக்கு	-920
யில்	-921
▁பெண	-922
ும	-923
▁வழக்கு	-924
த்தம்	-925
ல்கள்	-926
ர்ம	-927
▁இருக்கிறது	-928
ையான	-929
▁9	-930
பதி	-931
▁அரு	-932
▁சோ	-933
▁இதை	-934
▁எடுக்க	-935
▁கட்ச	-936
வாத	-937
▁நிறை	-938
▁பிரி	-939
▁ஏற்படுத்த	-940
ிட்டு	-941
▁முன்ப	-942
▁பேர்	-943
▁முடியும்	-944
ார்ப	-945
▁உங்கள்	-946
ாவை	-947
பர	-948
▁எனவே	-949
▁உயிர	-950
▁நிய	-951
நக	-952
ளம்	-953
ந்தி	-954
▁மர	-955
▁அங்கு	-956
ப்படு	-957
விய	-958
▁!	-959
▁மீண்டும்	-960
il	-961
ர்கள	-962
▁அனும	-963
▁அலுவ	-964
▁விஷ	-965
ec	-966
▁புது	-967
▁மறு	-968
▁பற்றி	-969
▁முழு	-970
▁ஆர்	-971
ச்சி	-972
▁கொரோனா	-973
த்துடன்	-974
▁ஒன்று	-975
▁:	-976
▁ஆயிர	-977
▁தங்க	-978
▁வாங்க	-979
▁மது	-980
▁விட்டு	-981
பர்	-982
ாங்க	-983
ளவு	-984
ிகளில்	-985
ற்றிய	-986
▁நடைபெற்ற	-987
▁விழ	-988
மையான	-989
▁அதில்	-990
ாச	-991
▁தவ	-992
▁பொறு	-993
கி	-994
▁வாக	-995
▁பிரச்ச	-996
▁பகுதியில்	-997
▁துறை	-998
ில்லை	-999
▁மின்	-1000
▁உத்தர	-1001
ுக்கு	-1002
ினால்	-1003
▁வழக்க	-1004
▁சிவ	-1005
▁செயல	-1006
மார	-1007
▁காரணமாக	-1008
ஷ்ட	-1009
ிற்ச	-1010
▁உண்	-1011
▁201	-1012
றையில்	-1013
▁இவர்	-1014
▁ரசிக	-1015
ிலேயே	-1016
▁இயக்கு	-1017
ிற்ப	-1018
ர்ப்ப	-1019
ப்போ	-1020
▁ஆல	-1021
▁மனித	-1022
▁வெற்றி	-1023
▁மட்டுமே	-1024
▁செயல்ப	-1025
▁ஃ	-1026
▁படி	-1027
▁ரூப	-1028
▁டெ	-1029
am	-1030
வசாய	-1031
▁நிகழ்ச்ச	-1032
▁மதி	-1033
▁ஒவ்வ	-1034
ர்ச்சி	-1035
▁சுவ	-1036
ப்பெ	-1037
நீ	-1038
▁விவசாய	-1039
ஆம்	-1040
ின்றது	-1041
▁சிகி	-1042
▁வகையில்	-1043
ப்பாக	-1044
▁நான	-1045
▁வல	-1046
வரி	-1047
க்கா	-1048
▁அமைச்சர்	-1049
▁பணி	-1050
த்தையும்	-1051
தல	-1052
நிலை	-1053
▁பிரத	-1054
▁கிராம	-1055
ிறோம்	-1056
ார்த்த	-1057
▁உருவா	-1058
ண்ப	-1059
▁செலு	-1060
▁வேறு	-1061
யில	-1062
▁மல	-1063
▁ஆம்	-1064
கள	-1065
மெரிக்க	-1066
ய்வு	-1067
▁இருந்தது	-1068
ிருக்கிறது	-1069
▁நாள	-1070
▁s	-1071
ியுள்ளார்	-1072
க்கோ	-1073
▁எஸ்	-1074
20	-1075
▁போக	-1076
▁நம்	-1077
▁தொகு	-1078
ெல்லாம்	-1079
▁விளையா	-1080
▁முடிவு	-1081
▁படம்	-1082
▁தகவல்	-1083
▁சிறப்பு	-1084
▁கல்ல	-1085
▁அமெரிக்க	-1086
▁கைது	-1087
டுகள்	-1088
ப்புக	-1089
ர்களின்	-1090
▁N	-1091
▁மட்டும்	-1092
▁in	-1093
▁விலை	-1094
ாரம்	-1095
▁யா	-1096
ியன்	-1097
்டர்	-1098
▁தொழில்	-1099
ார்க	-1100
▁எதிர்ப	-1101
om	-1102
▁அரசியல்	-1103
▁பெற	-1104
▁வெளியே	-1105
le	-1106
மீ	-1107
▁தேசிய	-1108
▁உரி	-1109
▁a	-1110
▁அதிகரி	-1111
ன்னு	-1112
ரிச	-1113
▁வட	-1114
▁மி	-1115
த்தும்	-1116
▁ஆரம்ப	-1117
▁விற்ப	-1118
வர்களுக்கு	-1119
▁இயக்க	-1120
▁15	-1121
▁அதற்கு	-1122
▁அட	-1123
▁கன	-1124
தியை	-1125
▁முயற்	-1126
▁பதிவு	-1127
ிகளுக்கு	-1128
▁அம்	-1129
▁c	-1130
வின்	-1131
ப்பது	-1132
▁குறிப்பிட	-1133
▁மனை	-1134
▁ஏற்பட்ட	-1135
ாயக	-1136
▁கண்ண	-1137
ோச	-1138
▁எனக்கு	-1139
▁சொன்ன	-1140
ாகும்	-1141
▁the	-1142
▁நாள்	-1143
▁வைக்க	-1144
▁கருத்து	-1145
▁கொடுத்த	-1146
▁வெள்ள	-1147
▁கேட்ட	-1148
▁தயாரி	-1149
ேக	-1150
▁விரும்ப	-1151
▁கேள்	-1152
▁பாதி	-1153
▁சிகிச்சை	-1154
ிக்கை	-1155
▁சத	-1156
த்தது	-1157
▁நிர்வாக	-1158
▁முழுவ	-1159
▁உறுப்ப	-1160
▁தேர்வு	-1161
ாட்ட	-1162
▁D	-1163
▁M	-1164
ங்களின்	-1165
▁என்க	-1166
▁பிரப	-1167
ம்பு	-1168
▁அங்க	-1169
▁பேர	-1170
▁பார்த்து	-1171
▁ஒவ்வொரு	-1172
ண்டி	-1173
▁12	-1174
த்தால்	-1175
▁கோடி	-1176
னின்	-1177
த்தா	-1178
▁எப்படி	-1179
ிரி	-1180
லுக்கு	-1181
ப்ட	-1182
ுள்ள	-1183
▁திரும்ப	-1184
▁பெண்	-1185
▁இதன்	-1186
▁மூன்று	-1187
ையடுத்து	-1188
ினும்	-1189
▁கவ	-1190
மையில்	-1191
▁ஜெய	-1192
மையாக	-1193
▁தமிழ்நா	-1194
▁விரை	-1195
த்துறை	-1196
▁சிறு	-1197
▁இரண்ட	-1198
ைகள்	-1199
▁நிர	-1200
▁ஆன	-1201
நி	-1202
த்திற்க	-1203
டியோ	-1204
தியாக	-1205
த்தக்க	-1206
▁வாழ்க்க	-1207
▁நு	-1208
▁தவிர	-1209
▁மண	-1210
▁குழு	-1211
▁தெரிவிக்க	-1212
▁காங்க	-1213
▁உடல்	-1214
ியுள்ள	-1215
▁இந்தியா	-1216
ருக்க	-1217
▁மருத்துவம	-1218
▁அவரை	-1219
ion	-1220
▁தொழில	-1221
▁சாத	-1222
ஷ்ண	-1223
▁வாகன	-1224
ெக	-1225
▁கண்டு	-1226
▁பாதிக்க	-1227
ைக்	-1228
▁இன்னும்	-1229
ed	-1230
▁நீதிமன்ற	-1231
▁செல்	-1232
▁விமான	-1233
▁ஆசிர	-1234
வதற்கு	-1235
▁திரைப்பட	-1236
▁நிறு	-1237
▁பகுதிக	-1238
ண்ட்	-1239
▁கொடுக்க	-1240
▁பாதுகாப்பு	-1241
ட்டின்	-1242
▁இன்	-1243
ிக்கொ	-1244
▁படை	-1245
ew	-1246
ாட்டு	-1247
ியான	-1248
▁மேல்	-1249
வக	-1250
▁காய	-1251
த்தக	-1252
ங்கும்	-1253
▁P	-1254
▁நாட்க	-1255
▁பயண	-1256
▁கூறினார்	-1257
▁செய்யப்பட்ட	-1258
▁காலை	-1259
▁இணைய	-1260
▁வேண்டிய	-1261
▁அர	-1262
வதாக	-1263
),	-1264
▁உணவு	-1265
ீர	-1266
▁மாதம்	-1267
▁ஆண்டுக	-1268
ார்க்க	-1269
ிருந்தார்	-1270
▁காங்கிர	-1271
▁துணை	-1272
▁கலை	-1273
▁இறு	-1274
▁சார்ப	-1275
ஜ்	-1276
ங்களும்	-1277
களுக்கு	-1278
ர்த்து	-1279
ோதனை	-1280
▁பார்	-1281
▁அவ்வ	-1282
▁ஸ்ரீ	-1283
000	-1284
▁உற	-1285
▁ராம	-1286
▁உள்ளன	-1287
ிகள	-1288
கிறது	-1289
மொ	-1290
ழிய	-1291
▁பக்க	-1292
க்கை	-1293
ன்கள்	-1294
்த்து	-1295
டா	-1296
▁C	-1297
▁இப்போது	-1298
▁கட்சி	-1299
▁மைய	-1300
▁வடி	-1301
▁கல்வி	-1302
▁நடந்த	-1303
▁202	-1304
▁தீவிர	-1305
▁மூல	-1306
லின்	-1307
▁ஒரே	-1308
த்தனர்	-1309
▁அருகே	-1310
▁வைர	-1311
ாக்	-1312
▁செய்யும்	-1313
க்கல்	-1314
▁இனி	-1315
ஞ்	-1316
ve	-1317
▁அவன்	-1318
▁படத்தில்	-1319
ியம்	-1320
▁சர்	-1321
▁தேவை	-1322
பே	-1323
▁ஜன	-1324
▁இதனை	-1325
▁புற	-1326
▁கிட	-1327
ழுது	-1328
▁என்றார்	-1329
ிருந்தது	-1330
ிலே	-1331
▁ஏற்க	-1332
▁தலைமை	-1333
▁சுக	-1334
▁தேர்தல்	-1335
▁ஒருவர்	-1336
த்திலும்	-1337
மையை	-1338
டைந்த	-1339
▁தண்ண	-1340
▁வருகிறார்	-1341
ic	-1342
ஞான	-1343
▁பரிச	-1344
▁முடியாது	-1345
as	-1346
த்தான்	-1347
▁30	-1348
▁பொருள	-1349
ைக்கு	-1350
ஷன்	-1351
வாய	-1352
த்துக்	-1353
ானது	-1354
▁யார	-1355
ம்பெ	-1356
▁ஆய்வு	-1357
▁R	-1358
▁மேற்ப	-1359
▁o	-1360
ரன்	-1361
▁கேட்டு	-1362
▁முழுவதும்	-1363
ியார்	-1364
்களை	-1365
▁இழ	-1366
▁நிறுவனம்	-1367
ங்கா	-1368
ராட்சி	-1369
▁சரிய	-1370
▁செல	-1371
▁கெ	-1372
▁அறிமுக	-1373
▁சர	-1374
▁p	-1375
ாரா	-1376
▁காட்ட	-1377
மூ	-1378
திகள்	-1379
வதற்க	-1380
ங்கிய	-1381
▁மாவட்டம்	-1382
த்தின	-1383
▁நோய	-1384
▁இன்ற	-1385
▁இப்படி	-1386
▁சரி	-1387
▁கொள்க	-1388
மோ	-1389
ப்பிர	-1390
▁ஆதர	-1391
னில்	-1392
ைப்	-1393
▁நடிகர்	-1394
ள்ளி	-1395
▁சுற்று	-1396
▁அளிக்க	-1397
ிருக்கிறார்	-1398
▁அவருக்கு	-1399
▁பாத	-1400
▁11	-1401
ews	-1402
▁கூறிய	-1403
ing	-1404
ீடு	-1405
▁டிர	-1406
▁இடைய	-1407
ென்ற	-1408
▁தள	-1409
வேண்டும்	-1410
▁அலுவலக	-1411
ந்துள்ளது	-1412
▁பொதும	-1413
▁கல்லூ	-1414
▁வயது	-1415
சம்	-1416
▁I	-1417
களின்	-1418
▁ப்	-1419
▁கூறுக	-1420
▁சார்	-1421
▁ஒப்ப	-1422
▁ஸ	-1423
டியே	-1424
தற்காக	-1425
வோ	-1426
▁இள	-1427
▁இவ்வாறு	-1428
க்கில்	-1429
▁புல	-1430
பை	-1431
▁பக்த	-1432
▁w	-1433
தன்	-1434
தோ	-1435
ாண	-1436
▁சிக்க	-1437
▁வகு	-1438
டக	-1439
▁to	-1440
எஸ்	-1441
▁ஜி	-1442
▁குறித்த	-1443
▁விப	-1444
▁நடித்து	-1445
▁சக	-1446
▁என்றால்	-1447
▁உறுதி	-1448
▁தங்கள்	-1449
ிகு	-1450
▁வாக்கு	-1451
ீர்கள்	-1452
ிகளின்	-1453
▁தல	-1454
▁லட்சம்	-1455
க்கொண்ட	-1456
ங்கில	-1457
▁நாங்கள்	-1458
▁d	-1459
ிலான	-1460
▁உயர்	-1461
▁அடிப்பட	-1462
▁பிரதமர்	-1463
பால	-1464
செ	-1465
ந்தார்	-1466
▁கண்க	-1467
▁நீர்	-1468
▁கள	-1469
▁ஆட்ச	-1470
லும்	-1471
த்துள்ளது	-1472
▁இந்தப்	-1473
▁முன்னாள்	-1474
▁ரூபாய்	-1475
▁பிரபல	-1476
▁விற்பனை	-1477
▁இதற்கு	-1478
ப்ர	-1479
▁காங்கிரஸ்	-1480
▁திருப்ப	-1481
▁நடி	-1482
▁மறை	-1483
▁நடத்தி	-1484
▁சிறந்த	-1485
▁தொலை	-1486
▁மழை	-1487
▁தான	-1488
▁விழு	-1489
▁போக்கு	-1490
வின	-1491
ரிக்கை	-1492
கோ	-1493
▁நாடுக	-1494
▁தொடர்பாக	-1495
▁கொள்	-1496
ல்களை	-1497
▁h	-1498
▁அன்ப	-1499
▁பயிற்ச	-1500
னையில்	-1501
ும்போது	-1502
▁சம்பவ	-1503
ளே	-1504
▁கொடுத்து	-1505
க்குள்	-1506
▁காரணம்	-1507
சாமி	-1508
▁முன்பு	-1509
ந்த்	-1510
▁பள்ளி	-1511
ட்டத்தில்	-1512
▁நடந்து	-1513
▁வந்தது	-1514
▁துவ	-1515
▁விஷய	-1516
ொட	-1517
▁வீட்டில்	-1518
▁தெரிவித்தார்	-1519
வித	-1520
ாகு	-1521
our	-1522
ருக்கும்	-1523
▁r	-1524
▁ன	-1525
▁காவல	-1526
▁f	-1527
▁இங்கு	-1528
▁நேரம்	-1529
ையாள	-1530
▁தடை	-1531
▁அடைய	-1532
▁குடி	-1533
ரான	-1534
சன்	-1535
▁படத்தின்	-1536
▁சை	-1537
ாடு	-1538
▁கூறி	-1539
க்களை	-1540
).	-1541
▁பீ	-1542
▁விஜய்	-1543
▁உதவி	-1544
▁அதனை	-1545
▁நேரத்தில்	-1546
▁பாஜ	-1547
ிருஷ்ண	-1548
தலை	-1549
ருவ	-1550
▁இலங்கை	-1551
▁வீடியோ	-1552
▁அப	-1553
▁அற	-1554
▁முறைய	-1555
நாயக	-1556
▁மை	-1557
சே	-1558
▁இரவு	-1559
▁செய்க	-1560
▁அதிகாரிகள்	-1561
▁நண்ப	-1562
▁செயல்	-1563
களும்	-1564
▁வாய்ப்பு	-1565
ின்ன	-1566
ன்மை	-1567
▁தயார	-1568
க்கிறது	-1569
புரம்	-1570
ட்டர்	-1571
▁கிள	-1572
▁ரோ	-1573
▁அளவில்	-1574
ுடன்	-1575
ிகா	-1576
▁நல	-1577
ளுக்கான	-1578
▁போல்	-1579
ீப	-1580
▁இதற்க	-1581
றித்து	-1582
▁n	-1583
▁கடி	-1584
ent	-1585
▁குறிப்பிடத்தக்க	-1586
ுமா	-1587
▁உட்ப	-1588
▁ஜோ	-1589
▁நகர	-1590
ர்த்தி	-1591
▁வண	-1592
▁சார்பில்	-1593
▁வீட்டு	-1594
▁வேண்டு	-1595
நாத	-1596
ென்று	-1597
ay	-1598
▁கீழ	-1599
ப்பான	-1600
க்கே	-1601
▁உயிரிழ	-1602
ப்புகள்	-1603
▁ஆகியோர்	-1604
▁வேல	-1605
▁போட்டு	-1606
▁இடம்	-1607
▁18	-1608
மைச்ச	-1609
▁பண்ண	-1610
ிலோ	-1611
▁பேசிய	-1612
▁சுமார்	-1613
▁b	-1614
ம்பர்	-1615
▁0	-1616
த்தைப்	-1617
வார	-1618
▁அண்ண	-1619
▁சினி	-1620
றுத்த	-1621
ியே	-1622
நர்	-1623
▁கால்	-1624
வர்களை	-1625
செய	-1626
▁திமுக	-1627
▁அவற்ற	-1628
ாயம்	-1629
▁கார்	-1630
▁பங்கே	-1631
▁14	-1632
ol	-1633
▁இடங்களில்	-1634
▁இல்லாத	-1635
ுடைய	-1636
ாளு	-1637
▁ஆயிரம்	-1638
▁அச	-1639
▁முதல்வர்	-1640
▁இன	-1641
வதை	-1642
▁மேற்கொள்ள	-1643
▁உற்ப	-1644
▁இளை	-1645
ிகை	-1646
▁வேக	-1647
நு	-1648
▁உண்ட	-1649
▁எவ்வ	-1650
▁ஏன்	-1651
▁அனுப்ப	-1652
▁கத	-1653
▁வரலா	-1654
▁கதை	-1655
▁கேள்வி	-1656
▁எல்லாம்	-1657
▁கூடு	-1658
▁எது	-1659
▁எடுத்த	-1660
▁அதன்ப	-1661
▁கேட்க	-1662
▁வியா	-1663
ிலை	-1664
னைய	-1665
ணுவ	-1666
▁ற	-1667
▁கர	-1668
▁ஜூ	-1669
▁200	-1670
லர்	-1671
▁மாலை	-1672
▁வங்க	-1673
▁நிதி	-1674
ம்பி	-1675
ியோ	-1676
▁நடைபெற்றது	-1677
ப்பே	-1678
▁வரவே	-1679
▁கிடைக்கும்	-1680
க்கூடிய	-1681
ரிடம்	-1682
▁புரி	-1683
ரும	-1684
▁அறிவு	-1685
▁சென்ன	-1686
▁உடன	-1687
▁சொந்த	-1688
ig	-1689
▁அவை	-1690
தாவது	-1691
தள	-1692
ாளுமன்ற	-1693
▁இடை	-1694
▁சிர	-1695
ுத	-1696
ாளி	-1697
and	-1698
னாக	-1699
▁B	-1700
▁செல்வ	-1701
மிட	-1702
க்கொள்ள	-1703
▁பாஜக	-1704
ெய்	-1705
ாப	-1706
▁பெண்கள்	-1707
▁ஏற்று	-1708
▁மணிக்கு	-1709
▁வித	-1710
ராஜ்	-1711
விட்டது	-1712
ிற்று	-1713
▁இளைஞ	-1714
தேச	-1715
▁திட	-1716
ாலி	-1717
▁குறிப்பிட்ட	-1718
▁கீழ்	-1719
ூட	-1720
ய்ய	-1721
▁அழக	-1722
▁இதையடுத்து	-1723
▁மண்ட	-1724
ஞ்சி	-1725
▁m	-1726
மானது	-1727
▁நாக	-1728
▁E	-1729
▁சூழ	-1730
க்கிர	-1731
▁உறுப்பின	-1732
▁அச்ச	-1733
▁50	-1734
▁மனைவி	-1735
வர்களின்	-1736
ur	-1737
▁ஆன்	-1738
▁ஏற்பட்டு	-1739
வுடன்	-1740
வற்றை	-1741
▁பணிய	-1742
ந்துள்ள	-1743
▁F	-1744
ப்பின்	-1745
▁மகிழ	-1746
லாக	-1747
▁உள	-1748
▁பணம்	-1749
வராக	-1750
ிழமை	-1751
▁உப	-1752
▁மேற்பட்ட	-1753
நாள்	-1754
▁ஆட்ட	-1755
▁வெளியிட்டு	-1756
▁போன	-1757
▁ட்	-1758
ரிக	-1759
▁செய்தனர்	-1760
▁இவ	-1761
▁25	-1762
▁சதவீ	-1763
ங்குக	-1764
▁பகுதிகளில்	-1765
▁பிறந்த	-1766
▁சம்பவம்	-1767
▁சக்த	-1768
டுக்கும்	-1769
த்தைக்	-1770
▁போக்குவர	-1771
▁அமைக்க	-1772
▁மத	-1773
▁ஆகும்	-1774
ர்களும்	-1775
▁வாழ்	-1776
க்கெ	-1777
ந்திய	-1778
மல்ல	-1779
▁தடுப்ப	-1780
▁அனுமதி	-1781
▁நடிகை	-1782
▁என்னும்	-1783
ிடையே	-1784
▁ஈடுபட்ட	-1785
▁அளவு	-1786
▁உச்ச	-1787
▁அறிய	-1788
▁சுகாதார	-1789
▁அழ	-1790
▁அதனால்	-1791
ப்படி	-1792
▁எல்லா	-1793
▁தமிழகத்தில்	-1794
▁13	-1795
▁of	-1796
▁சேர்த்து	-1797
▁பெயர்	-1798
▁வகை	-1799
▁மாணவ	-1800
▁தமிழ்நாடு	-1801
▁அனுப	-1802
▁நப	-1803
▁இந்தியாவில்	-1804
▁மன்ன	-1805
▁உள்ளனர்	-1806
▁புகைப்பட	-1807
▁விளை	-1808
▁எதிராக	-1809
▁கேர	-1810
▁ரெ	-1811
▁விண்ண	-1812
▁தாக்கு	-1813
▁இதுவரை	-1814
▁கூடிய	-1815
▁கவன	-1816
▁வருட	-1817
▁கடு	-1818
▁திருமணம்	-1819
▁யு	-1820
▁தீர்	-1821
ட்டா	-1822
▁மாட	-1823
▁வெளியாக	-1824
ணா	-1825
▁சாலை	-1826
▁மாவட்டத்தில்	-1827
▁பெறு	-1828
▁சமீப	-1829
▁எனவும்	-1830
▁ஆணைய	-1831
▁முதலில்	-1832
ஸ்திர	-1833
▁ரசிகர்கள்	-1834
▁அரசாங்க	-1835
மக்கு	-1836
▁கோவில	-1837
▁மேம்ப	-1838
▁யார்	-1839
▁சேவை	-1840
▁காட்ச	-1841
▁தனியார்	-1842
ப்பர்	-1843
▁ரி	-1844
ங்களையும்	-1845
▁16	-1846
▁அதிகமாக	-1847
களையும்	-1848
▁வலை	-1849
▁ஒது	-1850
▁சொல்லி	-1851
்ச்சி	-1852
கே	-1853
ர்வ	-1854
▁கொலை	-1855
▁கோவில்	-1856
க்கார	-1857
▁செலுத்த	-1858
▁பதில	-1859
▁செல்லும்	-1860
ஷா	-1861
▁காலத்தில்	-1862
▁1.	-1863
ர்ட	-1864
▁u	-1865
ளுடைய	-1866
▁காவல்	-1867
▁அதிமுக	-1868
விழ	-1869
▁இதுகு	-1870
▁நடந்தது	-1871
▁குடிய	-1872
▁ரயில்	-1873
▁மனு	-1874
▁என்னை	-1875
ஸ்தான்	-1876
▁கிழ	-1877
போல்	-1878
▁நடிக்க	-1879
▁பெண்ண	-1880
▁நாளை	-1881
▁ஆவ	-1882
▁இப்பட	-1883
▁பை	-1884
ளிடம்	-1885
ிட்	-1886
▁y	-1887
▁ஸ்டால	-1888
ிகளும்	-1889
▁விழா	-1890
▁அவர்களுக்கு	-1891
சன	-1892
▁உண்டு	-1893
▁இல்லாமல்	-1894
▁இத்த	-1895
ாட	-1896
▁போலீஸ்	-1897
▁அவர்களை	-1898
ுங்கள்	-1899
▁செயலாளர்	-1900
▁உங்களுக்கு	-1901
▁அவர்களின்	-1902
▁மாதிர	-1903
ாலை	-1904
▁குர	-1905
ப்படை	-1906
▁பொருளாதார	-1907
▁பகுதி	-1908
▁பற்றிய	-1909
▁அன்று	-1910
▁நடித்த	-1911
▁கிடைக்க	-1912
ation	-1913
▁ஆப	-1914
▁எதிர்க	-1915
லே	-1916
▁இதே	-1917
நோ	-1918
▁விதி	-1919
ளிக்க	-1920
▁தண்ணீர்	-1921
ீஸ்	-1922
னவே	-1923
▁வாய்ப்ப	-1924
▁இவை	-1925
▁கழி	-1926
வார்கள்	-1927
ra	-1928
ற்றம்	-1929
▁வான	-1930
டுகிறது	-1931
▁கூறப்படுகிறது	-1932
▁டீ	-1933
▁தொற்று	-1934
▁அப்படி	-1935
ட்கள்	-1936
ட்டிய	-1937
▁மோடி	-1938
மாறு	-1939
க்குப்	-1940
▁அழு	-1941
ிலுள்ள	-1942
el	-1943
ப்பிட்டு	-1944
▁புகார்	-1945
▁வரி	-1946
▁வெளியிட	-1947
▁ஏற்படும்	-1948
ட்டார்	-1949
த்தல்	-1950
பார	-1951
▁திருமண	-1952
▁அதற்க	-1953
நீர்	-1954
▁இறை	-1955
▁ஆறு	-1956
▁இடம்பெ	-1957
▁ஆலோச	-1958
▁நீண்ட	-1959
▁யூ	-1960
▁உதவ	-1961
▁குறைந்த	-1962
ிர்	-1963
வரின்	-1964
▁இடத்தில்	-1965
▁குரு	-1966
க்கொண்டு	-1967
▁தொடங்கி	-1968
எல்	-1969
டியில்	-1970
குதி	-1971
▁பின்ன	-1972
▁ஸ்மார	-1973
▁அழைத்து	-1974
▁குண	-1975
ிறு	-1976
த்தைச்	-1977
▁அதிகம்	-1978
மண	-1979
▁நிறைவே	-1980
▁கொண்டிருந்த	-1981
▁வாச	-1982
▁டெல்ல	-1983
▁அடிப்படையில்	-1984
▁திருவ	-1985
ருடைய	-1986
▁அவள்	-1987
வுகள்	-1988
▁மோச	-1989
யூ	-1990
▁புர	-1991
▁உரிமை	-1992
ாஸ்	-1993
▁எங்கள்	-1994
க்கூட	-1995
▁பலர்	-1996
▁உர	-1997
▁ரீ	-1998
▁சால	-1999
▁பெண்க	-2000
▁போட்டியில்	-2001
▁காவல்து	-2002
▁எளி	-2003
▁தெளி	-2004
▁தாம	-2005
▁சேர்க்க	-2006
▁நான்கு	-2007
த்தே	-2008
▁கம	-2009
ாவும்	-2010
தையும்	-2011
▁இதுகுறித்து	-2012
ியுடன்	-2013
▁மாநக	-2014
,000	-2015
▁அவசிய	-2016
ளால்	-2017
▁பார்வ	-2018
▁மற	-2019
▁தண்ட	-2020
திர்	-2021
▁வெற்ற	-2022
▁நன்ற	-2023
▁காட்டு	-2024
▁அரசின்	-2025
▁பிள்ள	-2026
▁மதுரை	-2027
▁பதவி	-2028
ப்பதி	-2029
ய்வ	-2030
▁17	-2031
ூரில்	-2032
▁வலியு	-2033
வதால்	-2034
▁மூன்ற	-2035
▁வடிவ	-2036
▁ஊழிய	-2037
▁நாடு	-2038
▁விமர்	-2039
ப்த	-2040
ென்	-2041
▁உருவாக்க	-2042
▁எனது	-2043
▁சின்ன	-2044
▁அம்ப	-2045
▁அனைவரும்	-2046
▁மாணவர்கள்	-2047
▁கொஞ்ச	-2048
ையால்	-2049
▁இணைந்து	-2050
▁பொதுமக்கள்	-2051
▁பஞ்ச	-2052
ுவது	-2053
▁உருவாக	-2054
ரக	-2055
▁ஆட்சி	-2056
▁போட்டி	-2057
▁தாய	-2058
▁விஜய	-2059
▁சிறி	-2060
மைச்சர்	-2061
▁குறிப்பாக	-2062
▁நோக்கி	-2063
ேஷ்	-2064
க்ஷ	-2065
▁அடிக்க	-2066
▁கவி	-2067
▁கிரிக்க	-2068
▁மருத்துவமனை	-2069
▁ஏற்கனவே	-2070
▁விரி	-2071
ங்களிலும்	-2072
ter	-2073
சித்து	-2074
▁உடை	-2075
ப்பாளர்	-2076
டுகளை	-2077
ருடன்	-2078
க்கண	-2079
ோர	-2080
▁நமது	-2081
ce	-2082
▁செய்தி	-2083
▁போட்டிய	-2084
பிர	-2085
▁ரஜ	-2086
▁முறையில்	-2087
▁இருவரும்	-2088
ொண்ட	-2089
நாட்டு	-2090
▁சொல்	-2091
▁போய்	-2092
ங்களாக	-2093
▁100	-2094
வருக்கும்	-2095
ப்பட்டுள்ளன	-2096
▁வந்தார்	-2097
▁போராட்ட	-2098
▁ஆற்ற	-2099
▁முன்னே	-2100
▁பரபர	-2101
▁அடுத்து	-2102
▁அனுமதிக்க	-2103
▁எல்	-2104
▁மாற	-2105
▁பல்க	-2106
▁பத்திர	-2107
▁கர்	-2108
சில	-2109
த்தியில்	-2110
போல	-2111
▁அக்க	-2112
▁அம்ம	-2113
▁பொருட்க	-2114
▁கதா	-2115
▁போக்குவரத்து	-2116
▁சந்தி	-2117
▁கூடாது	-2118
▁கோரிக்கை	-2119
▁வீட்ட	-2120
▁வெளியிட்ட	-2121
▁திட்டம்	-2122
▁செய்யப்பட்டு	-2123
▁e	-2124
▁தவற	-2125
ச்சே	-2126
▁தீர்மான	-2127
▁ஒளி	-2128
▁மான	-2129
▁அதாவது	-2130
▁தோன்ற	-2131
▁சோதனை	-2132
▁மகன்	-2133
▁கிலோ	-2134
▁வாழ்வ	-2135
▁வழியாக	-2136
▁வருகின்றன	-2137
லாம	-2138
▁பூஜ	-2139
▁படத்தை	-2140
▁நிகழ்	-2141
▁ஸ்ப	-2142
▁எரி	-2143
ாமி	-2144
நே	-2145
▁பரவ	-2146
▁உடனடியாக	-2147
வார்	-2148
▁அறிவிக்க	-2149
▁இருந்தால்	-2150
ந்தர	-2151
ad	-2152
த்தன	-2153
▁வீடு	-2154
▁பொருள்	-2155
தற்கான	-2156
▁ஆளு	-2157
▁தந்த	-2158
▁கட்டுப்பா	-2159
▁ஏற்ற	-2160
மைப்பு	-2161
▁மக்களின்	-2162
▁கூறியுள்ளார்	-2163
▁உள்ளார்	-2164
▁எச்ச	-2165
ற்ச	-2166
▁வட்ட	-2167
▁முடியாத	-2168
▁தடுப்பூ	-2169
தார	-2170
▁விரைவில்	-2171
ப்படுத்து	-2172
▁ரே	-2173
▁டாக	-2174
ாலே	-2175
▁சீன	-2176
னாதி	-2177
hi	-2178
▁இஸ்	-2179
▁அடைந்த	-2180
ங்கம்	-2181
▁பேரு	-2182
▁கண்கா	-2183
ப்படுகின்றன	-2184
ண்மை	-2185
▁ஆசிரிய	-2186
▁நடைபெற்று	-2187
▁அம்மா	-2188
▁இசை	-2189
▁தேவையான	-2190
ள்ளதாக	-2191
ஹ்	-2192
▁பாக	-2193
ூர	-2194
▁இயற்க	-2195
லைக்க	-2196
▁தன்னை	-2197
ணய	-2198
▁பக	-2199
▁சென்னையில்	-2200
▁அனுப்பி	-2201
▁இந்து	-2202
மாய	-2203
▁முருக	-2204
ராள	-2205
விடும்	-2206
ூர்வ	-2207
▁*	-2208
ாளைய	-2209
▁இருந்தாலும்	-2210
ாண்ட	-2211
▁நாட்டு	-2212
▁நியூ	-2213
ங்களது	-2214
▁ஸ்டாலின்	-2215
▁அடையாள	-2216
▁ஆண	-2217
▁கண்டுபி	-2218
வரது	-2219
▁and	-2220
▁வார்த்த	-2221
▁ஏன	-2222
வதேச	-2223
▁அதிர	-2224
▁பணியா	-2225
ளுக்காக	-2226
▁வளர்ச்சி	-2227
ut	-2228
▁24	-2229
▁இருக்கு	-2230
▁கைய	-2231
▁தொடர்பான	-2232
மான்	-2233
▁நாய	-2234
▁கிருஷ்ண	-2235
nd	-2236
▁கன்ன	-2237
நுட்ப	-2238
▁கூட்டம்	-2239
▁என்கிற	-2240
▁L	-2241
த்தகைய	-2242
▁பதில்	-2243
▁இறுதி	-2244
▁சுத	-2245
▁எதிர்பார்க்க	-2246
▁சிந்த	-2247
▁விருது	-2248
▁அமைப்பு	-2249
....	-2250
▁திக	-2251
▁என்பதால்	-2252
▁மொழி	-2253
மாகும்	-2254
▁எண்ணிக்கை	-2255
மதி	-2256
டுப்பு	-2257
▁செய்தார்	-2258
கொண்ட	-2259
்களில்	-2260
▁காலம்	-2261
▁சர்வதேச	-2262
▁டை	-2263
▁சிலர்	-2264
▁பங்கு	-2265
▁இதன	-2266
ப்பம்	-2267
தில்லை	-2268
ுகளை	-2269
ver	-2270
ச்சுவ	-2271
▁வன	-2272
ிடும்	-2273
▁பார்ப்ப	-2274
பாடு	-2275
▁மொழ	-2276
▁நடு	-2277
▁பற	-2278
▁கவு	-2279
ாப்	-2280
▁வேண்டாம்	-2281
ள்ளன	-2282
▁ஸ்க	-2283
▁பற்ற	-2284
▁இருப்பது	-2285
ெக்டர்	-2286
▁ஞான	-2287
▁சிறிய	-2288
▁வாழ்க்கை	-2289
▁பால்	-2290
▁பிரச்சினை	-2291
வாய்	-2292
st	-2293
த்ய	-2294
▁இடையே	-2295
▁மருந்து	-2296
▁தன்ன	-2297
▁மாட்ட	-2298
▁விவர	-2299
▁மாக	-2300
வய	-2301
த்துள்ளார்	-2302
▁உண்மை	-2303
▁ஜனாதி	-2304
ட்ரோ	-2305
▁நடைபெறும்	-2306
ோதும்	-2307
▁பழனி	-2308
ொழுது	-2309
ரத்தில்	-2310
ஸ்தான	-2311
▁நிச்ச	-2312
▁மக்களுக்கு	-2313
▁பயிற்சி	-2314
▁பொலி	-2315
க்குழு	-2316
ோன்	-2317
▁முயற்சி	-2318
et	-2319
்டு	-2320
ளவில்	-2321
▁கும்ப	-2322
▁மருத்து	-2323
▁தெரிவித்த	-2324
▁எழுதிய	-2325
▁சமய	-2326
▁யான	-2327
வியல்	-2328
றவு	-2329
டியும்	-2330
▁இவர்கள்	-2331
▁விவக	-2332
▁உரிய	-2333
▁தரு	-2334
விடு	-2335
▁கவர்	-2336
ண்டை	-2337
▁நிற்க	-2338
தியான	-2339
▁டே	-2340
▁நாட்கள்	-2341
▁நிறுத்த	-2342
▁பிரதி	-2343
▁ஜெ	-2344
ற்றும்	-2345
ிறான்	-2346
▁ஆராய	-2347
▁வலி	-2348
▁வேட்ப	-2349
பம்	-2350
த்திலிருந்து	-2351
ஃப்	-2352
▁மலை	-2353
வந்த	-2354
▁சூழ்	-2355
▁சந்திர	-2356
▁தேர்தலில்	-2357
▁பிடித்து	-2358
ழிப்பு	-2359
ஷி	-2360
▁பணிகள்	-2361
▁தட	-2362
ot	-2363
▁அபி	-2364
!!	-2365
▁நோய்	-2366
▁ஓர்	-2367
▁இவ்	-2368
▁கற்ப	-2369
முதல்	-2370
▁கூறு	-2371
▁(1	-2372
ஞர்	-2373
றையினர்	-2374
▁தொழில்நுட்ப	-2375
▁News	-2376
விக்க	-2377
ரியில்	-2378
▁சேர்ந்தவர்	-2379
▁?	-2380
▁உற்பத்தி	-2381
▁பாகி	-2382
amil	-2383
▁போய	-2384
லூர்	-2385
▁தேடி	-2386
▁வேத	-2387
▁கோவை	-2388
ன்ஸ்	-2389
▁இந்தியாவின்	-2390
▁இச	-2391
▁சம்பந்த	-2392
▁இன்றைய	-2393
▁வாய்	-2394
த்திரம்	-2395
▁அறிக்க	-2396
▁வாங்கி	-2397
▁காத்த	-2398
ஞ்சு	-2399
▁பிரிவு	-2400
▁அந்தப்	-2401
▁தலைமையில்	-2402
▁இரா	-2403
▁பாதிப்பு	-2404
▁கல்லூரி	-2405
▁பாதிக்கப்பட்ட	-2406
ோட	-2407
▁பட்டிய	-2408
லிய	-2409
ப்பும்	-2410
▁பகுதியை	-2411
▁சேர்ந்து	-2412
▁சிறப்பாக	-2413
▁குழந்தைகள்	-2414
ுகிறது	-2415
▁ஈடுபட்டு	-2416
▁தாய்	-2417
▁நின்று	-2418
ளது	-2419
▁சுய	-2420
▁அலை	-2421
-1	-2422
நிதி	-2423
▁குள	-2424
னார்	-2425
og	-2426
ஜா	-2427
வாள	-2428
▁ஏற்பட்டது	-2429
சுவ	-2430
ஹி	-2431
றையை	-2432
ெழு	-2433
மிக்க	-2434
▁இங்கே	-2435
ப்படவில்லை	-2436
▁மொத்த	-2437
▁ரன்கள்	-2438
ன்த	-2439
▁பாவ	-2440
▁கிரிக்கெட்	-2441
▁H	-2442
ெடுக்க	-2443
ண்ணி	-2444
▁தெரிவித்துள்ளது	-2445
டிப்பு	-2446
▁பரிசோதனை	-2447
▁அரி	-2448
▁நாம	-2449
▁இயக்குனர்	-2450
விட்டார்	-2451
ண்டிய	-2452
▁முற்ற	-2453
▁21	-2454
பட்ட	-2455
▁மத்தியில்	-2456
ப்பட்டன	-2457
ஷ்ய	-2458
▁ஆய்வ	-2459
re	-2460
ந்தா	-2461
▁மிகு	-2462
▁கட்சியின்	-2463
மம்	-2464
ப்புற	-2465
ைத்	-2466
▁ஒப்பந்த	-2467
▁இந்தக்	-2468
▁யோ	-2469
▁தம்	-2470
ந்தே	-2471
னோ	-2472
மலை	-2473
▁முதலிய	-2474
▁நாட்டின்	-2475
▁ஸ்மார்ட	-2476
சர	-2477
▁ஐந்து	-2478
க்ஸ்	-2479
▁கடவு	-2480
▁தக்க	-2481
மணி	-2482
▁எதிர்ப்பு	-2483
▁இருப்பதாக	-2484
ப்பதிவு	-2485
▁ஏராள	-2486
க்கர	-2487
பட்ச	-2488
▁ஆரோ	-2489
▁முக்கியமான	-2490
▁சமீபத்தில்	-2491
▁விடுதலை	-2492
ாடி	-2493
▁th	-2494
▁எனும்	-2495
்த்	-2496
குதியில்	-2497
ment	-2498
▁புரிந்து	-2499
▁G	-2500
▁அந்	-2501
யர்	-2502
▁தொடர்பு	-2503
go	-2504
ாந்து	-2505
▁மய	-2506
▁அரசிய	-2507
தீ	-2508
வினர்	-2509
▁கடன்	-2510
▁லி	-2511
ழல்	-2512
▁தன்னு	-2513
▁தள்ள	-2514
ாட்	-2515
▁இரண்டாவது	-2516
▁அரை	-2517
மடைந்த	-2518
▁படிக்க	-2519
ரசு	-2520
▁பெரும்ப	-2521
▁அறு	-2522
▁செய்திகள்	-2523
▁மருத்துவமனையில்	-2524
▁செய்வது	-2525
▁நிகழ்ச்சி	-2526
▁நாடாளுமன்ற	-2527
▁ஆலோசனை	-2528
▁பிரதேச	-2529
▁விய	-2530
▁நடத்திய	-2531
▁கிற	-2532
▁முஸ்	-2533
▁உங்க	-2534
▁பிடி	-2535
▁கைப்ப	-2536
▁சிறுவ	-2537
id	-2538
ரூ	-2539
▁பக்தர்கள்	-2540
▁எட	-2541
▁விவசாயிகள்	-2542
ளிலும்	-2543
▁அருகில்	-2544
▁உடனே	-2545
த்தைத்	-2546
ையிலும்	-2547
▁நிறைய	-2548
▁விளையாட்டு	-2549
▁உட்பட	-2550
▁நின்ற	-2551
▁ரொ	-2552
▁வெங்க	-2553
▁ஊடக	-2554
▁வைரஸ்	-2555
▁நமக்கு	-2556
▁பறி	-2557
வருக்கு	-2558
▁பந்து	-2559
▁கல்வ	-2560
▁2023	-2561
த்திற்கும்	-2562
ங்கர	-2563
▁பழைய	-2564
ம்தான்	-2565
ானி	-2566
ஸி	-2567
ியுள்ளனர்	-2568
ாக்க	-2569
ஸ்வர	-2570
▁நாட்டில்	-2571
முத	-2572
▁கூட்டு	-2573
▁கல்	-2574
▁முயற்ச	-2575
▁நகை	-2576
▁கம்ப	-2577
▁தலைமைய	-2578
▁வாடிக்க	-2579
▁க்	-2580
ணன்	-2581
ணமாக	-2582
னையை	-2583
▁மிர	-2584
ெனில்	-2585
▁பலரும்	-2586
த்தொ	-2587
▁வெளியான	-2588
▁கேம	-2589
▁பிடித்த	-2590
▁விளக்க	-2591
▁40	-2592
▁ஒன்றை	-2593
▁மும்ப	-2594
ையுடன்	-2595
▁தெரியவ	-2596
▁கொண்டனர்	-2597
ந்தில்	-2598
▁ஒப்பு	-2599
▁உள்	-2600
▁அளித்த	-2601
▁மாறி	-2602
▁பின்ப	-2603
கால	-2604
▁எழுத	-2605
▁திடீர	-2606
த்தனை	-2607
மல	-2608
ess	-2609
▁ஆகியோ	-2610
▁தொடர்	-2611
▁காந்தி	-2612
▁முட	-2613
▁நடக்க	-2614
விரு	-2615
▁திட்டமி	-2616
▁பொருட்கள்	-2617
▁தக	-2618
▁பல்கலைக்க	-2619
▁கடும்	-2620
மாய்	-2621
▁ரு	-2622
▁ஆழ	-2623
நகர்	-2624
▁ஜீ	-2625
ப்புகளை	-2626
எம்	-2627
▁சுற்ற	-2628
▁எங்க	-2629
▁நன்றாக	-2630
▁சார்ந்த	-2631
▁அணை	-2632
▁ஓட்ட	-2633
▁போட	-2634
மின்றி	-2635
▁தாக்கல்	-2636
▁இருக்கிறார்	-2637
▁சுதந்திர	-2638
சூ	-2639
▁தகவல்கள்	-2640
▁பவு	-2641
ளிர்	-2642
▁28	-2643
▁நெரு	-2644
ொள்ள	-2645
டங்கு	-2646
▁வருமான	-2647
▁வழக்கில்	-2648
மில்லை	-2649
▁முதலமைச்சர்	-2650
▁சூரிய	-2651
ak	-2652
மன்	-2653
▁இலக்கிய	-2654
ணு	-2655
▁நிலையத்தில்	-2656
▁எழுதி	-2657
▁கோயில	-2658
ங்கல்	-2659
▁சாப்ப	-2660
▁ஒதுக்க	-2661
▁ஆரோக்கிய	-2662
▁பங்க	-2663
▁கர்நா	-2664
▁எதிரான	-2665
▁முடிந்த	-2666
ப்பாடி	-2667
ன்களை	-2668
வோம்	-2669
▁ஆசிரியர்	-2670
▁வரவேற்ப	-2671
கன்	-2672
▁அழி	-2673
ென்ன	-2674
uc	-2675
டைந்து	-2676
▁நெருக்க	-2677
▁மற்றொரு	-2678
ையோ	-2679
▁ராகு	-2680
ஸ்திரே	-2681
சல்	-2682
ன்கு	-2683
▁இங்கில	-2684
வதில்லை	-2685
▁22	-2686
ஆர்	-2687
▁இவரது	-2688
▁ராணுவ	-2689
ங்களைப்	-2690
நீதி	-2691
est	-2692
க்கால	-2693
ப்பாள	-2694
▁குறிப்பிட்டு	-2695
▁இயக்குநர்	-2696
த்தினர்	-2697
▁சந்தித்து	-2698
ம்மா	-2699
▁ஃப	-2700
▁கார்த்த	-2701
▁சப	-2702
▁கண்காணி	-2703
▁ஏற்பட	-2704
▁கூடுதல்	-2705
▁அறிந்த	-2706
▁எதிர்பார	-2707
ீட்டு	-2708
▁பிரச்சனை	-2709
்க்கு	-2710
▁இருந்தார்	-2711
க்கூடாது	-2712
தியின்	-2713
ive	-2714
லால்	-2715
▁தடுக்க	-2716
▁your	-2717
▁பகி	-2718
▁வங்கி	-2719
ow	-2720
ர்களிடம்	-2721
▁அதிகரித்து	-2722
▁தெலு	-2723
ற்கொலை	-2724
▁தேர்	-2725
▁வசூ	-2726
த்தான	-2727
▁நம்பிக்கை	-2728
ட்ஸ்	-2729
▁உறுப்பினர்	-2730
ிருந்தனர்	-2731
ினம்	-2732
▁யாரும்	-2733
▁உலகம்	-2734
▁விக்	-2735
ிருப்பது	-2736
▁அளவுக்கு	-2737
▁மேற்கொண்டு	-2738
த்தில	-2739
ப்பிய	-2740
வையில்	-2741
▁வித்திய	-2742
▁உட்க	-2743
▁ஞ	-2744
▁ஆங்கில	-2745
▁ஜனாதிபதி	-2746
▁வெளியாகி	-2747
▁23	-2748
▁நுழை	-2749
▁காதல்	-2750
▁அதன்படி	-2751
வேன்	-2752
ந்தர்	-2753
ir	-2754
▁சுற்றுலா	-2755
டியை	-2756
▁நவ	-2757
விற்கு	-2758
▁இலங்க	-2759
முறைய	-2760
▁ஏராளமான	-2761
▁கொஞ்சம்	-2762
▁மதிப்ப	-2763
▁பிரே	-2764
▁வல்ல	-2765
▁கண்	-2766
▁தெரிந்து	-2767
▁மாதிரி	-2768
ia	-2769
ச்செய	-2770
ம்பர	-2771
▁சந்தேக	-2772
▁அவருடைய	-2773
▁வீரர்கள்	-2774
ந்திரன்	-2775
▁சரியான	-2776
▁பயன	-2777
▁V	-2778
▁வகுப்பு	-2779
▁தந்தை	-2780
▁ஆண்டில்	-2781
ப்படுத்தி	-2782
▁எனக்	-2783
ெல்	-2784
னுடைய	-2785
▁ஒழு	-2786
▁நிறுவனங்கள்	-2787
த்துப்	-2788
▁வண்ண	-2789
▁தமது	-2790
▁கேரள	-2791
▁நோக்க	-2792
▁சினிம	-2793
▁அன்ன	-2794
▁புதி	-2795
▁வருகிறார்கள்	-2796
▁அன	-2797
▁இயக்கத்தில்	-2798
▁மிகப்பெ	-2799
டல்	-2800
சரி	-2801
▁நிறைவேற்ற	-2802
▁குறைக்க	-2803
▁பன்ன	-2804
டர்	-2805
ீக	-2806
ைகளை	-2807
▁அன்ற	-2808
▁மந்திர	-2809
ருமான	-2810
▁ரெய	-2811
▁போதும்	-2812
▁விண்ணப்ப	-2813
▁ஹீ	-2814
▁சகோத	-2815
▁ஊர	-2816
▁தெரிக	-2817
்க்	-2818
ொருள்	-2819
▁கூட்டத்தில்	-2820
▁சிங்க	-2821
▁மேற்கொண்ட	-2822
▁பக்கத்தில்	-2823
மொழி	-2824
்	-2825
▁	-2826
க	-2827
த	-2828
ு	-2829
ி	-2830
ப	-2831
ர	-2832
ம	-2833
ட	-2834
ா	-2835
வ	-2836
ல	-2837
ன	-2838
ய	-2839
ை	-2840
ற	-2841
ள	-2842
ச	-2843
ந	-2844
.	-2845
அ	-2846
ே	-2847
ண	-2848
ெ	-2849
இ	-2850
ோ	-2851
,	-2852
எ	-2853
ங	-2854
ொ	-2855
ழ	-2856
ீ	-2857
ூ	-2858
உ	-2859
ஆ	-2860
ஸ	-2861
ஒ	-2862
ஜ	-2863
e	-2864
-	-2865
0	-2866
1	-2867
2	-2868
a	-2869
i	-2870
ஏ	-2871
ஷ	-2872
o	-2873
n	-2874
t	-2875
"	-2876
r	-2877
'	-2878
s	-2879
ஞ	-2880
!	-2881
)	-2882
(	-2883
3	-2884
5	-2885
l	-2886
ஹ	-2887
ஃ	-2888
4	-2889
h	-2890
?	-2891
u	-2892
9	-2893
c	-2894
d	-2895
6	-2896
7	-2897
8	-2898
m	-2899
ஓ	-2900
ஊ	-2901
y	-2902
ஐ	-2903
g	-2904
p	-2905
ஈ	-2906
:	-2907
T	-2908
;	-2909
S	-2910
A	-2911
w	-2912
v	-2913
b	-2914
f	-2915
k	-2916
C	-2917
I	-2918
N	-2919
M	-2920
R	-2921
P	-2922
D	-2923
E	-2924
L	-2925
B	-2926
/	-2927
H	-2928
O	-2929
F	-2930
G	-2931
ௌ	-2932
V	-2933
x	-2934
K	-2935
*	-2936
U	-2937
\	-2938
्	-2939
]	-2940
W	-2941
[	-2942
`	-2943
z	-2944
%	-2945
ा	-2946
j	-2947
Y	-2948
|	-2949
त	-2950
=	-2951
र	-2952
J	-2953
#	-2954
ا	-2955
ि	-2956
न	-2957
ل	-2958
+	-2959
य	-2960
ు	-2961
म	-2962
व	-2963
്	-2964
X	-2965
े	-2966
स	-2967
क	-2968
&	-2969
్	-2970
న	-2971
ి	-2972
प	-2973
ı	-2974
q	-2975
द	-2976
ं	-2977
ن	-2978
ా	-2979
و	-2980
Z	-2981
ي	-2982
م	-2983
ु	-2984
ర	-2985
ന	-2986
ो	-2987
ു	-2988
ನ	-2989
ह	-2990
್	-2991
@	-2992
మ	-2993
ه	-2994
ɨ	-2995
త	-2996
Q	-2997
ು	-2998
ി	-2999
ी	-3000
ಿ	-3001
>	-3002
•	-3003
ü	-3004
వ	-3005
_	-3006
ക	-3007
య	-3008
ر	-3009
క	-3010
න	-3011
්	-3012
श	-3013
$	-3014
ದ	-3015
ల	-3016
।	-3017
ल	-3018
ب	-3019
ప	-3020
ş	-3021
ت	-3022
ರ	-3023
च	-3024
ع	-3025
ం	-3026
ద	-3027
ग	-3028
ത	-3029
ज	-3030
ष	-3031
भ	-3032
İ	-3033
ः	-3034
ാ	-3035
َ	-3036
ര	-3037
യ	-3038
ಾ	-3039
స	-3040
చ	-3041
ğ	-3042
ි	-3043
ವ	-3044
ක	-3045
ೆ	-3046
ే	-3047
ف	-3048
വ	-3049
©	-3050
ك	-3051
ಗ	-3052
ण	-3053
ध	-3054
െ	-3055
⁄	-3056
ق	-3057
ම	-3058
د	-3059
ട	-3060
ब	-3061
ಲ	-3062
ಕ	-3063
ç	-3064
ව	-3065
ஶ	-3066
►	-3067
ತ	-3068
ය	-3069
പ	-3070
س	-3071
ා	-3072
ല	-3073
డ	-3074
ö	-3075
గ	-3076
ം	-3077
ో	-3078
»	-3079
ె	-3080
ै	-3081
Ş	-3082
ू	-3083
थ	-3084
أ	-3085
↑	-3086
ಯ	-3087
‍	-3088
॥	-3089
°	-3090
മ	-3091
ृ	-3092
·	-3093
‛	-3094
ಮ	-3095
ట	-3096
ీ	-3097
ත	-3098
}	-3099
ح	-3100
ā	-3101
ර	-3102
Ç	-3103
ಂ	-3104
ṭ	-3105
ē	-3106
अ	-3107
ḍ	-3108
ಸ	-3109
ಳ	-3110
ද	-3111
ള	-3112
௦	-3113
ച	-3114
അ	-3115
ෙ	-3116
ة	-3117
ල	-3118
ු	-3119
శ	-3120
ේ	-3121
ஔ	-3122
ോ	-3123
ْ	-3124
റ	-3125
ṇ	-3126
Ü	-3127
{	-3128
ō	-3129
ج	-3130
ى	-3131
ِ	-3132
उ	-3133
<	-3134
ಅ	-3135
ذ	-3136
ट	-3137
ಡ	-3138
ೇ	-3139
හ	-3140
ಬ	-3141
ಹ	-3142
హ	-3143
అ	-3144
ങ	-3145
Ö	-3146
௩	-3147
ష	-3148
ए	-3149
ට	-3150
േ	-3151
ස	-3152
బ	-3153
ُ	-3154
ص	-3155
జ	-3156
إ	-3157
ප	-3158
സ	-3159
ೂ	-3160
ख	-3161
औ	-3162
ش	-3163
ග	-3164
خ	-3165
ऽ	-3166
ొ	-3167
ಪ	-3168
ూ	-3169
ണ	-3170
ड	-3171
इ	-3172
₹	-3173
ැ	-3174
ధ	-3175
आ	-3176
ञ	-3177
ై	-3178
ಟ	-3179
~	-3180
ʌ	-3181
భ	-3182
ّ	-3183
é	-3184
ೊ	-3185
«	-3186
ೋ	-3187
ദ	-3188
ො	-3189
×	-3190
ణ	-3191
എ	-3192
ꞌ	-3193
ഞ	-3194
ض	-3195
ौ	-3196
ô	-3197
ث	-3198
එ	-3199
අ	-3200
ఆ	-3201
¢	-3202
බ	-3203
ಆ	-3204
ശ	-3205
،	-3206
′	-3207
£	-3208
ä	-3209
ز	-3210
௧	-3211
ठ	-3212
छ	-3213
ഹ	-3214
ః	-3215
ط	-3216
ീ	-3217
௨	-3218
ೀ	-3219
→	-3220
÷	-3221
น	-3222
ङ	-3223
ඔ	-3224
ಇ	-3225
़	-3226
า	-3227
ء	-3228
®	-3229
ñ	-3230
ŋ	-3231
ௗ	-3232
ృ	-3233
१	-3234
غ	-3235
อ	-3236
घ	-3237
ൊ	-3238
õ	-3239
ൂ	-3240
่	-3241
¡	-3242
̄	-3243
फ	-3244
ఇ	-3245
เ	-3246
‪	-3247
ഷ	-3248
া	-3249
ई	-3250
థ	-3251
ی	-3252
о	-3253
ಶ	-3254
̈	-3255
ആ	-3256
ಷ	-3257
ී	-3258
௫	-3259
ą	-3260
ಣ	-3261
ئ	-3262
௪	-3263
←	-3264
॑	-3265
ಎ	-3266
ඩ	-3267
ಜ	-3268
ജ	-3269
е	-3270
ഗ	-3271
§	-3272
ý	-3273
●	-3274
२	-3275
ബ	-3276
ಧ	-3277
į	-3278
ඒ	-3279
ഇ	-3280
ร	-3281
้	-3282
ʉ	-3283
ඉ	-3284
ک	-3285
॒	-3286
ม	-3287
ก	-3288
ധ	-3289
ಚ	-3290
ั	-3291
ෝ	-3292
ഴ	-3293
и	-3294
а	-3295
ū	-3296
ඇ	-3297
३	-3298
€	-3299
️	-3300
û	-3301
ظ	-3302
ഭ	-3303
ง	-3304
¤	-3305
̧	-3306
á	-3307
ḷ	-3308
ళ	-3309
௭	-3310
ఉ	-3311
т	-3312
ഒ	-3313
ย	-3314
н	-3315
ෑ	-3316
උ	-3317
ढ	-3318
−	-3319
௬	-3320
ـ	-3321
ؤ	-3322
ණ	-3323
४	-3324
ļ	-3325
ไ	-3326
í	-3327
آ	-3328
ओ	-3329
ี	-3330
ว	-3331
с	-3332
ഉ	-3333
ఎ	-3334
ë	-3335
^	-3336
†	-3337
Å	-3338
झ	-3339
★	-3340
р	-3341
ಒ	-3342
ด	-3343
௯	-3344
ఏ	-3345
५	-3346
ī	-3347
ó	-3348
à	-3349
ล	-3350
ા	-3351
Â	-3352
ï	-3353
Ø	-3354
ú	-3355
६	-3356
ً	-3357
ළ	-3358
ಭ	-3359
ජ	-3360
â	-3361
ņ	-3362
ఞ	-3363
ø	-3364
ห	-3365
в	-3366
௮	-3367
ච	-3368
ะ	-3369
७	-3370
ൈ	-3371
ર	-3372
ఖ	-3373
♦	-3374
ං	-3375
ٰ	-3376
å	-3377
ી	-3378
ค	-3379
०	-3380
л	-3381
è	-3382
À	-3383
¥	-3384
ආ	-3385
ġ	-3386
ł	-3387
ત	-3388
ఈ	-3389
🔴	-3390
ɛ	-3391
ਾ	-3392
८	-3393
ఒ	-3394
บ	-3395
ੀ	-3396
μ	-3397
Õ	-3398
ౌ	-3399
ə	-3400
±	-3401
ṉ	-3402
ল	-3403
ऊ	-3404
ශ	-3405
ท	-3406
แ	-3407
য	-3408
ൃ	-3409
ব	-3410
ඕ	-3411
९	-3412
ম	-3413
к	-3414
ુ	-3415
ต	-3416
જ	-3417
😍	-3418
◆	-3419
স	-3420
ఫ	-3421
ส	-3422
়	-3423
ী	-3424
จ	-3425
м	-3426
≤	-3427
ಥ	-3428
ੰ	-3429
ิ	-3430
ગ	-3431
ṅ	-3432
ਜ	-3433
É	-3434
🔥	-3435
ೈ	-3436
¬	-3437
ਪ	-3438
ൻ	-3439
ൽ	-3440
ǝ	-3441
🙂	-3442
ং	-3443
ਬ	-3444
д	-3445
অ	-3446
♥	-3447
ɔ	-3448
ಉ	-3449
ି	-3450
ಈ	-3451
ଡ	-3452
ଆ	-3453
ଓ	-3454
଼	-3455
ฉ	-3456
❤	-3457
п	-3458
ഥ	-3459
ہ	-3460
Á	-3461
ఱ	-3462
ఠ	-3463
▪	-3464
ক	-3465
ป	-3466
ٍ	-3467
ٌ	-3468
Ã	-3469
؟	-3470
ෂ	-3471
у	-3472
Ô	-3473
■	-3474
ഫ	-3475
ู	-3476
ಫ	-3477
ඳ	-3478
ใ	-3479
ì	-3480
ఘ	-3481
–	-3482
æ	-3483
ँ	-3484
ã	-3485
ർ	-3486
я	-3487
ы	-3488
ූ	-3489
Ā	-3490
ഏ	-3491
¦	-3492
ධ	-3493
≥	-3494
ț	-3495
🌸	-3496
¿	-3497
Ä	-3498
🙏	-3499
ข	-3500
ṟ	-3501
	-3502
พ	-3503
ื	-3504
็	-3505
ഖ	-3506
‐	-3507
ఛ	-3508
Š	-3509
گ	-3510
👉	-3511
ऐ	-3512
∞	-3513
ೃ	-3514
α	-3515
ি	-3516
🛕	-3517
ช	-3518
ò	-3519
ɹ	-3520
ĩ	-3521
র	-3522
🔮	-3523
ń	-3524
’	-3525
ś	-3526
ಏ	-3527
پ	-3528
🤣	-3529
ь	-3530
ે	-3531
Ð	-3532
È	-3533
̃	-3534
ഈ	-3535
ऋ	-3536
‡	-3537
з	-3538
✓	-3539
─	-3540
ے	-3541
š	-3542
ṛ	-3543
ุ	-3544
ţ	-3545
›	-3546
þ	-3547
ธ	-3548
ۗ	-3549
্	-3550
б	-3551
г	-3552
Ğ	-3553
ಞ	-3554
โ	-3555
ൾ	-3556
ন	-3557
ে	-3558
ඹ	-3559
ˈ	-3560
ஂ	-3561
й	-3562
ð	-3563
ṣ	-3564
ഔ	-3565
😂	-3566
ํ	-3567
ೌ	-3568
̱	-3569
ಐ	-3570
ê	-3571
ă	-3572
ч	-3573
ḥ	-3574
ఓ	-3575
ಖ	-3576
ο	-3577
х	-3578
ෆ	-3579
ù	-3580
▼	-3581
ॉ	-3582
î	-3583
∙	-3584
Ú	-3585
ો	-3586
ક	-3587
ഡ	-3588
ß	-3589
ൌ	-3590
ఐ	-3591
ळ	-3592
Ó	-3593
Î	-3594
٢	-3595
ত	-3596
١	-3597
Ê	-3598
મ	-3599
્	-3600
⃣	-3601
ં	-3602
ഠ	-3603
ς	-3604
Ì	-3605
ṁ	-3606
چ	-3607
ں	-3608
ન	-3609
ถ	-3610
Æ	-3611
λ	-3612
ž	-3613
প	-3614
ථ	-3615
ಓ	-3616
ਕ	-3617
ু	-3618
ĭ	-3619
➤	-3620
π	-3621
✅	-3622
භ	-3623
ซ	-3624
ඟ	-3625
۱	-3626
ː	-3627
ඌ	-3628
ھ	-3629
ਰ	-3630
ж	-3631
‬	-3632
і	-3633
ఙ	-3634
Ɨ	-3635
ν	-3636
٤	-3637
β	-3638
👍	-3639
	-3640
۲	-3641
ਹ	-3642
์	-3643
ਂ	-3644
”	-3645
ಠ	-3646
ɗ	-3647
વ	-3648
ఁ	-3649
➡	-3650
ю	-3651
ę	-3652
ι	-3653
🏻	-3654
ε	-3655
τ	-3656
ň	-3657
ਸ	-3658
≈	-3659
ρ	-3660
ǫ	-3661
ఊ	-3662
	-3663
Ś	-3664
📌	-3665
ų	-3666
‹	-3667
௲	-3668
ۚ	-3669
౯	-3670
č	-3671
ě	-3672
લ	-3673
Ñ	-3674
ੇ	-3675
Í	-3676
😉	-3677
ผ	-3678
⦁	-3679
Δ	-3680
౧	-3681
ഘ	-3682
橋	-3683
ʾ	-3684
ۤ	-3685
ଗ	-3686
✍	-3687
સ	-3688
ௐ	-3689
🎀	-3690
Û	-3691
ય	-3692
ٗ	-3693
Ò	-3694
💥	-3695
⭐	-3696
ึ	-3697
ڈ	-3698
ц	-3699
―	-3700
પ	-3701
➧	-3702
ਦ	-3703
σ	-3704
ট	-3705
、	-3706
‘	-3707
ఢ	-3708
ഛ	-3709
👏	-3710
ਨ	-3711
ෘ	-3712
Ÿ	-3713
ć	-3714
٥	-3715
٦	-3716
٣	-3717
জ	-3718
❖	-3719
ɪ	-3720
γ	-3721
ੋ	-3722
ш	-3723
ٓ	-3724
‰	-3725
Ą	-3726
♠	-3727
Þ	-3728
“	-3729
√	-3730
Ù	-3731
দ	-3732
κ	-3733
ਤ	-3734
꞉	-3735
છ	-3736
ƒ	-3737
ඊ	-3738
હ	-3739
￼	-3740
😡	-3741
Œ	-3742
✔	-3743
ḻ	-3744
̆	-3745
٨	-3746
ಊ	-3747
౨	-3748
	-3749
̊	-3750
ਲ	-3751
😎	-3752
😱	-3753
щ	-3754
😊	-3755
ŏ	-3756
ๆ	-3757
ਿ	-3758
י	-3759
😘	-3760
۳	-3761
▸	-3762
đ	-3763
٧	-3764
ŧ	-3765
▬	-3766
ٖ	-3767
✨	-3768
😭	-3769
	-3770
́	-3771
🤔	-3772
এ	-3773
¶	-3774
ੁ	-3775
٩	-3776
ੱ	-3777
ʿ	-3778
θ	-3779
э	-3780
👌	-3781
ฮ	-3782
ⱪ	-3783
ಘ	-3784
δ	-3785
☞	-3786
⚠	-3787
િ	-3788
ณ	-3789
➢	-3790
⚫	-3791
С	-3792
⭕	-3793
ũ	-3794
ί	-3795
ഊ	-3796
♂	-3797
ટ	-3798
௰	-3799
ω	-3800
🏽	-3801
ф	-3802
ਮ	-3803
🏼	-3804
۷	-3805
ŭ	-3806
ʼ	-3807
🛡	-3808
η	-3809
٠	-3810
ญ	-3811
↓	-3812
আ	-3813
۸	-3814
౦	-3815
😀	-3816
ડ	-3817
Ī	-3818
】	-3819
🇷	-3820
🛑	-3821
ਉ	-3822
બ	-3823
🌟	-3824
🇳	-3825
ણ	-3826
஢	-3827
ۙ	-3828
௱	-3829
ੈ	-3830
શ	-3831
ఋ	-3832
ו	-3833
গ	-3834
ਆ	-3835
☀	-3836
̰	-3837
🌹	-3838
ό	-3839
🇮	-3840
ো	-3841
ฟ	-3842
Ņ	-3843
ɓ	-3844
φ	-3845
ൺ	-3846
💫	-3847
【	-3848
😨	-3849
થ	-3850
♣	-3851
😢	-3852
̀	-3853
̣	-3854
؛	-3855
ά	-3856
⇒	-3857
︎	-3858
📰	-3859
Ē	-3860
Ž	-3861
Č	-3862
ǎ	-3863
♔	-3864
🇫	-3865
💪	-3866
ધ	-3867
ɑ	-3868
υ	-3869
ר	-3870
▲	-3871
▶	-3872
◯	-3873
ה	-3874
ਗ	-3875
・	-3876
💐	-3877
۰	-3878
ǒ	-3879
⚡	-3880
🤗	-3881
ॐ	-3882
🔹	-3883
😁	-3884
۔	-3885
⮞	-3886
🥰	-3887
🥺	-3888
😳	-3889
œ	-3890
Ï	-3891
Ū	-3892
౬	-3893
ۢ	-3894
☺	-3895
ॄ	-3896
ỹ	-3897
	-3898
🌼	-3899
ই	-3900
🌷	-3901
מ	-3902
આ	-3903
஠	-3904
ʊ	-3905
	-3906
শ	-3907
ۖ	-3908
✠	-3909
ਵ	-3910
ʻ	-3911
ା	-3912
Ë	-3913
К	-3914
চ	-3915
	-3916
۹	-3917
௴	-3918
௹	-3919
	-3920
🔸	-3921
ૂ	-3922
☘	-3923
	-3924
🔷	-3925
ư	-3926
🌈	-3927
έ	-3928
ָ	-3929
א	-3930
અ	-3931
М	-3932
ඥ	-3933
○	-3934
ё	-3935
๋	-3936
☆	-3937
😅	-3938
😲	-3939
ٹ	-3940
਼	-3941
💠	-3942
📍	-3943
ב	-3944
Ļ	-3945
Ə	-3946
А	-3947
হ	-3948
ഓ	-3949
😇	-3950
🙁	-3951
෴	-3952
ษ	-3953
ƣ	-3954
દ	-3955
ର	-3956
🌻	-3957
ř	-3958
ǐ	-3959
ύ	-3960
ש	-3961
♀	-3962
ל	-3963
ת	-3964
খ	-3965
ಃ	-3966
ൗ	-3967
ṃ	-3968
﷽	-3969
🇰	-3970
🍁	-3971
👇	-3972
ખ	-3973
Ꞌ	-3974
🍃	-3975
Ʌ	-3976
💔	-3977
💕	-3978
📚	-3979
ਟ	-3980
ศ	-3981
🚨	-3982
Б	-3983
ছ	-3984
	-3985
Ε	-3986
ė	-3987
Φ	-3988
ภ	-3989
Σ	-3990
ࣖ	-3991
В	-3992
Ḥ	-3993
😮	-3994
	-3995
ή	-3996
Т	-3997
એ	-3998
୍	-3999
□	-4000
🏾	-4001
🤩	-4002
ɐ	-4003
ɡ	-4004
ভ	-4005
౪	-4006
ⱨ	-4007
	-4008
😄	-4009
௵	-4010
౭	-4011
ế	-4012
✆	-4013
🍀	-4014
ਣ	-4015
ෛ	-4016
│	-4017
🌿	-4018
💁	-4019
😜	-4020
😦	-4021
ۡ	-4022
௳	-4023
	-4024
ੂ	-4025
౮	-4026
ạ	-4027
◾	-4028
☐	-4029
🇱	-4030
🌺	-4031
😞	-4032
ů	-4033
◦	-4034
♈	-4035
🚩	-4036
Р	-4037
ਇ	-4038
ચ	-4039
	-4040
Ō	-4041
஡	-4042
౫	-4043
➦	-4044
中	-4045
ඈ	-4046
ˌ	-4047
χ	-4048
஥	-4049
✡	-4050
✸	-4051
ș	-4052
Н	-4053
থ	-4054
🍒	-4055
ʃ	-4056
ড	-4057
ඡ	-4058
🥲	-4059
Ω	-4060
ਚ	-4061
ળ	-4062
ọ	-4063
ְ	-4064
ע	-4065
ઈ	-4066
大	-4067
ʁ	-4068
ּ	-4069
۴	-4070
ਡ	-4071
✌	-4072
⮜	-4073
	-4074
Đ	-4075
ਅ	-4076
ഃ	-4077
‟	-4078
ɾ	-4079
ٕ	-4080
♏	-4081
➠	-4082
П	-4083
	-4084
ַ	-4085
ও	-4086
﴾	-4087
ʒ	-4088
ਖ	-4089
ស	-4090
の	-4091
	-4092
💖	-4093
🔵	-4094
Π	-4095
ח	-4096
נ	-4097
௸	-4098
◌	-4099
本	-4100
😃	-4101
	-4102
Д	-4103
ફ	-4104
ಢ	-4105
ṽ	-4106
ẽ	-4107
☛	-4108
✝	-4109
日	-4110
👆	-4111
💛	-4112
📃	-4113
̲	-4114
☑	-4115
山	-4116
🌍	-4117
👑	-4118
Ț	-4119
̶	-4120
ѕ	-4121
ա	-4122
ד	-4123
ବ	-4124
Ṭ	-4125
﴿	-4126
📕	-4127
Ł	-4128
ɒ	-4129
౩	-4130
ប	-4131
ệ	-4132
♫	-4133
一	-4134
	-4135
👣	-4136
💞	-4137
💢	-4138
📘	-4139
Ĩ	-4140
Μ	-4141
Х	-4142
ấ	-4143
🏿	-4144
∆	-4145
✪	-4146
🏆	-4147
💰	-4148
🔯	-4149
🙄	-4150
ඝ	-4151
ᴀ	-4152
Ṣ	-4153
⛑	-4154
文	-4155
💯	-4156
ˆ	-4157
̇	-4158
ఔ	-4159
◊	-4160
⚜	-4161
🔶	-4162
	-4163
Α	-4164
ধ	-4165
人	-4166
子	-4167
😆	-4168
😔	-4169
ż	-4170
ї	-4171
ষ	-4172
ౄ	-4173
	-4174
😥	-4175
ɵ	-4176
۵	-4177
ભ	-4178
୭	-4179
ඛ	-4180
ំ	-4181
ộ	-4182
₺	-4183
🟢	-4184
ħ	-4185
ִ	-4186
ן	-4187
ژ	-4188
କ	-4189
೧	-4190
ា	-4191
	-4192
📡	-4193
Τ	-4194
ॆ	-4195
ਝ	-4196
❌	-4197
。	-4198
	-4199
🌞	-4200
🎉	-4201
📽	-4202
ÿ	-4203
Į	-4204
Λ	-4205
ֹ	-4206
ঁ	-4207
ୀ	-4208
∴	-4209
ー	-4210
	-4211
😈	-4212
🤪	-4213
Ý	-4214
Κ	-4215
ফ	-4216
↔	-4217
☼	-4218
	-4219
🇦	-4220
🎤	-4221
И	-4222
٬	-4223
်	-4224
ả	-4225
∕	-4226
⛔	-4227
❗	-4228
➞	-4229
	-4230
🅰	-4231
🐝	-4232
💙	-4233
ő	-4234
О	-4235
۞	-4236
⛱	-4237
✶	-4238
➨	-4239
米	-4240
	-4241
🇺	-4242
🌳	-4243
💃	-4244
Χ	-4245
ξ	-4246
ώ	-4247
۶	-4248
ฝ	-4249
ợ	-4250
✤	-4251
🔆	-4252
ĕ	-4253
ऑ	-4254
ઠ	-4255
೦	-4256
ඬ	-4257
ố	-4258
❣	-4259
》	-4260
	-4261
🌧	-4262
😯	-4263
	-4264
ơ	-4265
ם	-4266
ە	-4267
ਈ	-4268
ઓ	-4269
国	-4270
	-4271
	-4272
Ι	-4273
І	-4274
Ф	-4275
ॊ	-4276
ഐ	-4277
ន	-4278
រ	-4279
ḁ	-4280
♪	-4281
❓	-4282
天	-4283
	-4284
🍂	-4285
Ɔ	-4286
Ϟ	-4287
ۃ	-4288
૨	-4289
✈	-4290
✒	-4291
✳	-4292
	-4293
	-4294
🌾	-4295
🍊	-4296
🏏	-4297
🦋	-4298
Ν	-4299
ζ	-4300
ಛ	-4301
ෞ	-4302
☯	-4303
つ	-4304
	-4305
😛	-4306
ׁ	-4307
੍	-4308
ੜ	-4309
ତ	-4310
ủ	-4311
⸴	-4312
元	-4313
	-4314
💼	-4315
📣	-4316
	-4317
ť	-4318
Г	-4319
Л	-4320
ъ	-4321
ֵ	-4322
ڑ	-4323
ઇ	-4324
ẏ	-4325
∗	-4326
🇹	-4327
🍇	-4328
🎯	-4329
😋	-4330
	-4331
ס	-4332
ਫ	-4333
๊	-4334
က	-4335
ờ	-4336
ở	-4337
✏	-4338
《	-4339
家	-4340
국	-4341
👩	-4342
🔔	-4343
😏	-4344
ǔ	-4345
У	-4346
▢	-4347
ん	-4348
ン	-4349
三	-4350
🌛	-4351
💓	-4352
💲	-4353
🤘	-4354
ƴ	-4355
ֶ	-4356
כ	-4357
ק	-4358
ٔ	-4359
ٱ	-4360
ଦ	-4361
ଭ	-4362
ඨ	-4363
「	-4364
語	-4365
한	-4366
👤	-4367
🔖	-4368
	-4369
Θ	-4370
Ο	-4371
ג	-4372
ଶ	-4373
ớ	-4374
ἀ	-4375
ἐ	-4376
∑	-4377
◄	-4378
ま	-4379
市	-4380
東	-4381
🖤	-4382
🙌	-4383
🤯	-4384
	-4385
	-4386
Ũ	-4387
ॅ	-4388
ঙ	-4389
ণ	-4390
ਭ	-4391
೨	-4392
་	-4393
ῦ	-4394
会	-4395
年	-4396
生	-4397
어	-4398
🅷	-4399
📻	-4400
ʀ	-4401
ʜ	-4402
З	-4403
ঠ	-4404
ល	-4405
∶	-4406
≠	-4407
◇	-4408
➜	-4409
し	-4410
に	-4411
🤦	-4412
Γ	-4413
ಔ	-4414
ඤ	-4415
ᴇ	-4416
∠	-4417
≡	-4418
⍟	-4419
木	-4420
🅼	-4421
🍯	-4422
🎥	-4423
🎬	-4424
🏵	-4425
💚	-4426
💡	-4427
🔰	-4428
🔱	-4429
🙈	-4430
ৃ	-4431
ਥ	-4432
ପ	-4433
ୟ	-4434
ഢ	-4435
ိ	-4436
ត	-4437
្	-4438
ị	-4439
Ἰ	-4440
△	-4441
◼	-4442
☎	-4443
⦿	-4444
	-4445
🐉	-4446
👊	-4447
Ŋ	-4448
Η	-4449
ې	-4450
ਓ	-4451
အ	-4452
ာ	-4453
ა	-4454
ទ	-4455
ὐ	-4456
☝	-4457
✰	-4458
➽	-4459
い	-4460
体	-4461
痴	-4462
神	-4463
長	-4464
	-4465
	-4466
🇧	-4467
🇵	-4468
🎙	-4469
🏠	-4470
🏯	-4471
👬	-4472
🥒	-4473
ɥ	-4474
ɴ	-4475
գ	-4476
פ	-4477
ؕ	-4478
ਧ	-4479
ନ	-4480
န	-4481
ḳ	-4482
Ạ	-4483
Ọ	-4484
ῖ	-4485
☹	-4486
⛰	-4487
✯	-4488
り	-4489
イ	-4490
ト	-4491
京	-4492
月	-4493
茶	-4494
	-4495
	-4496
📱	-4497
🦁	-4498
🦚	-4499
🧿	-4500
Ţ	-4501
̥	-4502
ե	-4503
উ	-4504
ઉ	-4505
ᴏ	-4506
ầ	-4507
ữ	-4508
⊳	-4509
南	-4510
王	-4511
風	-4512
🐃	-4513
🐣	-4514
💧	-4515
📲	-4516
🕺	-4517
😬	-4518
🛵	-4519
🤝	-4520
Ă	-4521
Ė	-4522
ľ	-4523
ʇ	-4524
ψ	-4525
є	-4526
ւ	-4527
ი	-4528
យ	-4529
ẕ	-4530
ề	-4531
ῆ	-4532
⏳	-4533
♋	-4534
♌	-4535
♜	-4536
⚔	-4537
か	-4538
法	-4539
阿	-4540
	-4541
	-4542
🇬	-4543
🎼	-4544
🐦	-4545
👨	-4546
🗣	-4547
😩	-4548
🧚	-4549
	-4550
ʔ	-4551
̯	-4552
Β	-4553
Ψ	-4554
ն	-4555
ઝ	-4556
௶	-4557
ฐ	-4558
ច	-4559
ḫ	-4560
ễ	-4561
Ố	-4562
Ἀ	-4563
⌘	-4564
⏩	-4565
☕	-4566
⚽	-4567
✻	-4568
❂	-4569
行	-4570
道	-4571
	-4572
	-4573
	-4574
🍵	-4575
🎈	-4576
💜	-4577
📖	-4578
🤭	-4579
🥁	-4580
	-4581
˴	-4582
Е	-4583
Я	-4584
ਘ	-4585
ૈ	-4586
ရ	-4587
ု	-4588
ေ	-4589
Ṛ	-4590
‒	-4591
※	-4592
⚘	-4593
✱	-4594
⬤	-4595
女	-4596
🍎	-4597
🍏	-4598
🍕	-4599
🎂	-4600
🐄	-4601
💝	-4602
😑	-4603
	-4604
Ń	-4605
ړ	-4606
ਏ	-4607
ଳ	-4608
ୁ	-4609
တ	-4610
ុ	-4611
ᴅ	-4612
ể	-4613
⁃	-4614
⁣	-4615
◎	-4616
♍	-4617
✊	-4618
」	-4619
こ	-4620
島	-4621
新	-4622
松	-4623
田	-4624
의	-4625
	-4626
🌰	-4627
🐍	-4628
🐐	-4629
👀	-4630
👂	-4631
👺	-4632
💉	-4633
💳	-4634
😕	-4635
🤞	-4636
🩸	-4637
Ķ	-4638
Ň	-4639
ɯ	-4640
Υ	-4641
Ш	-4642
ү	-4643
յ	-4644
ऴ	-4645
ॠ	-4646
ৰ	-4647
ੌ	-4648
ମ	-4649
୩	-4650
း	-4651
ក	-4652
ម	-4653
ᴛ	-4654
ụ	-4655
ῶ	-4656
⇣	-4657
☔	-4658
♡	-4659
⚓	-4660
❎	-4661
は	-4662
北	-4663
民	-4664
河	-4665
百	-4666
的	-4667
社	-4668
简	-4669
	-4670
	-4671
🇸	-4672
🎠	-4673
🔼	-4674
😝	-4675
🚗	-4676
🤍	-4677
ű	-4678
ʎ	-4679
ʟ	-4680
қ	-4681
Ԕ	-4682
ځ	-4683
ۘ	-4684
ଚ	-4685
ଟ	-4686
େ	-4687
င	-4688
់	-4689
ẓ	-4690
ὁ	-4691
↳	-4692
☤	-4693
♑	-4694
❀	-4695
❇	-4696
⟩	-4697
⬇	-4698
す	-4699
な	-4700
ら	-4701
世	-4702
國	-4703
圓	-4704
明	-4705
書	-4706
江	-4707
	-4708
	-4709
𓃵	-4710
🌐	-4711
🌱	-4712
📸	-4713
😵	-4714
🙅	-4715
🚀	-4716
🡪	-4717
🥦	-4718
🦇	-4719
	-4720
Ĭ	-4721
Ɓ	-4722
Ʉ	-4723
ʋ	-4724
պ	-4725
ז	-4726
ঘ	-4727
ਐ	-4728
ਯ	-4729
௾	-4730
္	-4731
ឃ	-4732
៦	-4733
Ộ	-4734
—	-4735
♭	-4736
✋	-4737
✷	-4738
➥	-4739
け	-4740
和	-4741
式	-4742
教	-4743
水	-4744
清	-4745
西	-4746
	-4747
	-4748
	-4749
🅸	-4750
🆂	-4751
🎶	-4752
👮	-4753
💘	-4754
💬	-4755
📢	-4756
📷	-4757
🔲	-4758
🖍	-4759
😓	-4760
😟	-4761
🚫	-4762
🤓	-4763
🥳	-4764
🫐	-4765
ź	-4766
Ș	-4767
̪	-4768
Ρ	-4769
Ц	-4770
Ч	-4771
ګ	-4772
ܐ	-4773
ऱ	-4774
ঝ	-4775
ঞ	-4776
ଜ	-4777
ଧ	-4778
ୂ	-4779
೪	-4780
൱	-4781
ှ	-4782
ლ	-4783
ს	-4784
គ	-4785
ញ	-4786
វ	-4787
ẹ	-4788
ử	-4789
ἰ	-4790
♎	-4791
❥	-4792
『	-4793
え	-4794
も	-4795
る	-4796
ル	-4797
八	-4798
口	-4799
地	-4800
宗	-4801
寺	-4802
待	-4803
甘	-4804
青	-4805
장	-4806
지	-4807
	-4808
	-4809
	-4810
𐎢	-4811
🅺	-4812
🅻	-4813
🇨	-4814
🌕	-4815
🌴	-4816
🍅	-4817
🍚	-4818
🎵	-4819
🏃	-4820
🐂	-4821
👈	-4822
👋	-4823
👸	-4824
🔘	-4825
🔦	-4826
🕔	-4827
🖥	-4828
	-4829
	-4830
ķ	-4831
ɕ	-4832
ɜ	-4833
Э	-4834
ի	-4835
ր	-4836
ט	-4837
צ	-4838
ۂ	-4839
ऩ	-4840
॓	-4841
॰	-4842
ৌ	-4843
ਛ	-4844
ઘ	-4845
ષ	-4846
ଛ	-4847
ଷ	-4848
஑	-4849
ఝ	-4850
೫	-4851
မ	-4852
ီ	-4853
Ꭷ	-4854
ព	-4855
ḏ	-4856
ồ	-4857
ứ	-4858
⌖	-4859
✎	-4860
❉	-4861
で	-4862
わ	-4863
シ	-4864
ジ	-4865
公	-4866
合	-4867
嵐	-4868
白	-4869
皇	-4870
首	-4871
ꢵ	-4872
사	-4873
출	-4874
	-4875
	-4876
	-4877
	-4878
	-4879
	-4880
	-4881
	-4882
	-4883
🇪	-4884
🍋	-4885
🍾	-4886
💻	-4887
🔊	-4888
😷	-4889
🤷	-4890
🪘	-4891
	-4892
Ů	-4893
Ż	-4894
ө	-4895
ՙ	-4896
՚	-4897
ս	-4898
ټ	-4899
ۛ	-4900
۠	-4901
ଅ	-4902
ଲ	-4903
ୋ	-4904
೭	-4905
ე	-4906
რ	-4907
ខ	-4908
ធ	-4909
ᴘ	-4910
Ṇ	-4911
⁕	-4912
⁦	-4913
∂	-4914
▷	-4915
☠	-4916
☸	-4917
♕	-4918
♖	-4919
♗	-4920
♘	-4921
♙	-4922
⚖	-4923
❆	-4924
⠀	-4925
く	-4926
た	-4927
ス	-4928
ラ	-4929
不	-4930
十	-4931
原	-4932
好	-4933
帝	-4934
心	-4935
快	-4936
成	-4937
戦	-4938
朝	-4939
海	-4940
第	-4941
老	-4942
部	-4943
金	-4944
高	-4945
	-4946
	-4947
￰	-4948
🍆	-4949
🍱	-4950
🏦	-4951
🐀	-4952
🐠	-4953
👧	-4954
😌	-4955
😒	-4956
😰	-4957
🙆	-4958
🚂	-4959
ĝ	-4960
Ġ	-4961
Ĵ	-4962
Ř	-4963
Ű	-4964
ɣ	-4965
ʕ	-4966
ˇ	-4967
̵	-4968
ͦ	-4969
Ж	-4970
ј	-4971
ԑ	-4972
Ա	-4973
ո	-4974
ښ	-4975
ۍ	-4976
২	-4977
ઙ	-4978
૭	-4979
ଣ	-4980
ଥ	-4981
ହ	-4982
೩	-4983
೮	-4984
൰	-4985
ฎ	-4986
စ	-4987
ျ	-4988
ហ	-4989
Ḏ	-4990
ḗ	-4991
ắ	-4992
ặ	-4993
Ớ	-4994
Ở	-4995
ự	-4996
⇎	-4997
♨	-4998
♬	-4999
⛪	-5000
✦	-5001
✿	-5002
➕	-5003
じ	-5004
と	-5005
み	-5006
ッ	-5007
ャ	-5008
东	-5009
仁	-5010
你	-5011
別	-5012
字	-5013
平	-5014
广	-5015
株	-5016
玉	-5017
私	-5018
空	-5019
	-5020
	-5021
	-5022
🇲	-5023
🌙	-5024
🍐	-5025
🐕	-5026
💗	-5027
💦	-5028
📗	-5029
📝	-5030
🔅	-5031
😤	-5032
😪	-5033
🙃	-5034
🟣	-5035
🤑	-5036
🥵	-5037
🧸	-5038
Ť	-5039
Ŭ	-5040
ŷ	-5041
ɲ	-5042
ʏ	-5043
ʹ	-5044
̅	-5045
̓	-5046
մ	-5047
ֲ	-5048
ۇ	-5049
ܪ	-5050
ଁ	-5051
ಝ	-5052
ඖ	-5053
๑	-5054
ོ	-5055
ပ	-5056
သ	-5057
ြ	-5058
Ꭲ	-5059
ថ	-5060
ិ	-5061
៩	-5062
ᴜ	-5063
ᴠ	-5064
ậ	-5065
ἄ	-5066
ὶ	-5067
⇾	-5068
∼	-5069
⋅	-5070
⏱	-5071
┌	-5072
▾	-5073
❁	-5074
き	-5075
ぎ	-5076
さ	-5077
て	-5078
れ	-5079
ド	-5080
リ	-5081
上	-5082
二	-5083
佛	-5084
値	-5085
劳	-5086
卍	-5087
印	-5088
发	-5089
史	-5090
太	-5091
学	-5092
安	-5093
小	-5094
展	-5095
師	-5096
度	-5097
彩	-5098
手	-5099
报	-5100
拉	-5101
業	-5102
樂	-5103
武	-5104
漢	-5105
界	-5106
經	-5107
羅	-5108
美	-5109
荒	-5110
蘭	-5111
野	-5112
銀	-5113
門	-5114
꣄	-5115
카	-5116
	-5117
	-5118
	-5119
	-5120
	-5121
～	-5122
𒊹	-5123
🇾	-5124
🇿	-5125
🌑	-5126
🍌	-5127
🍑	-5128
🍓	-5129
🎓	-5130
💸	-5131
📂	-5132
🕉	-5133
🗡	-5134
😠	-5135
😴	-5136
😶	-5137
🚻	-5138
🛣	-5139
🛫	-5140
🤙	-5141
🤟	-5142
🥀	-5143
🪄	-5144
ģ	-5145
Ľ	-5146
ŝ	-5147
Ų	-5148
ǣ	-5149
ɟ	-5150
ʽ	-5151
̡	-5152
ΰ	-5153
Ю	-5154
կ	-5155
ڪ	-5156
ۓ	-5157
ऌ	-5158
ূ	-5159
ਠ	-5160
ସ	-5161
஦	-5162
஧	-5163
೬	-5164
೯	-5165
ག	-5166
ခ	-5167
ბ	-5168
ო	-5169
ღ	-5170
ដ	-5171
ឌ	-5172
ᠠ	-5173
ᴄ	-5174
Ả	-5175
Ế	-5176
ỏ	-5177
ừ	-5178
ὀ	-5179
ῃ	-5180
₦	-5181
⇉	-5182
⇓	-5183
⇔	-5184
⇛	-5185
⏰	-5186
◈	-5187
♐	-5188
⚝	-5189
⛏	-5190
✴	-5191
➖	-5192
⟹	-5193
う	-5194
ち	-5195
ょ	-5196
を	-5197
ア	-5198
ク	-5199
ポ	-5200
两	-5201
九	-5202
代	-5203
分	-5204
利	-5205
四	-5206
城	-5207
夫	-5208
孔	-5209
州	-5210
春	-5211
池	-5212
治	-5213
湖	-5214
特	-5215
省	-5216
知	-5217
章	-5218
类	-5219
紀	-5220
育	-5221
花	-5222
華	-5223
语	-5224
都	-5225
里	-5226
音	-5227
香	-5228
體	-5229
龍	-5230
ꜱ	-5231
ꦠ	-5232
니	-5233
성	-5234
일	-5235
전	-5236
정	-5237
	-5238
	-5239
🆚	-5240
🇭	-5241
🌲	-5242
🍄	-5243
🍠	-5244
🎁	-5245
🎊	-5246
🎧	-5247
🏂	-5248
🐟	-5249
🐺	-5250
👰	-5251
👽	-5252
📮	-5253
🙋	-5254
🚁	-5255
🞸	-5256
🤥	-5257
🤨	-5258
🥶	-5259
	-5260
Ĉ	-5261
ċ	-5262
Ď	-5263
Ę	-5264
Ě	-5265
ŗ	-5266
Ư	-5267
ɫ	-5268
ɳ	-5269
ʍ	-5270
̷	-5271
͡	-5272
ў	-5273
ә	-5274
Լ	-5275
Հ	-5276
Ս	-5277
լ	-5278
ռ	-5279
ց	-5280
ׂ	-5281
ڠ	-5282
ۋ	-5283
ۨ	-5284
ܝ	-5285
ऎ	-5286
ऒ	-5287
ঃ	-5288
৫	-5289
ଇ	-5290
ଙ	-5291
ୃ	-5292
௺	-5293
൭	-5294
ฤ	-5295
๕	-5296
လ	-5297
၆	-5298
თ	-5299
უ	-5300
ង	-5301
ភ	-5302
៉	-5303
ᴍ	-5304
ẫ	-5305
Ị	-5306
ỗ	-5307
Ủ	-5308
ἱ	-5309
ἶ	-5310
ῷ	-5311
⁡	-5312
⁩	-5313
↵	-5314
⇌	-5315
⇡	-5316
∈	-5317
∫	-5318
≧	-5319
⍗	-5320
┘	-5321
▣	-5322
▫	-5323
◕	-5324
☄	-5325
♊	-5326
♯	-5327
✵	-5328
❃	-5329
➻	-5330
⬆	-5331
ⲓ	-5332
ⲛ	-5333
あ	-5334
カ	-5335
コ	-5336
五	-5337
井	-5338
光	-5339
六	-5340
到	-5341
卐	-5342
台	-5343
司	-5344
吉	-5345
告	-5346
喜	-5347
土	-5348
在	-5349
外	-5350
姨	-5351
孝	-5352
宣	-5353
宮	-5354
察	-5355
尚	-5356
川	-5357
形	-5358
斯	-5359
方	-5360
時	-5361
服	-5362
期	-5363
林	-5364
歌	-5365
漫	-5366
然	-5367
爱	-5368
町	-5369
相	-5370
石	-5371
祖	-5372
究	-5373
窟	-5374
立	-5375
网	-5376
者	-5377
自	-5378
警	-5379
阳	-5380
雅	-5381
교	-5382
마	-5383
시	-5384
안	-5385
	-5386
	-5387
	-5388
	-5389
	-5390
	-5391
	-5392
	-5393
	-5394
	-5395
	-5396
	-5397
	-5398
	-5399
	-5400
	-5401
	-5402
	-5403
𐎤	-5404
𐎽	-5405
𐏁	-5406
🆕	-5407
🇩	-5408
🌘	-5409
🍈	-5410
🍜	-5411
🍥	-5412
🍿	-5413
🎄	-5414
🐋	-5415
🐒	-5416
🐢	-5417
🐶	-5418
👗	-5419
👙	-5420
💂	-5421
💋	-5422
💍	-5423
💮	-5424
📒	-5425
📞	-5426
🔺	-5427
🔻	-5428
🗨	-5429
😐	-5430
🤤	-5431
🤫	-5432
🥊	-5433
🧐	-5434
🧥	-5435
🧨	-5436
	-5437
	-5438
Ŷ	-5439
Ɗ	-5440
Ǣ	-5441
ǧ	-5442
ɽ	-5443
ˉ	-5444
˖	-5445
̂	-5446
̩	-5447
͠	-5448
Ζ	-5449
ϊ	-5450
Є	-5451
Щ	-5452
Ь	-5453
Ե	-5454
Մ	-5455
Ո	-5456
ך	-5457
ٮ	-5458
ڤ	-5459
ڭ	-5460
۟	-5461
ܒ	-5462
ܘ	-5463
ܟ	-5464
ܡ	-5465
০	-5466
ૉ	-5467
ଉ	-5468
ଖ	-5469
୧	-5470
୪	-5471
ഋ	-5472
൫	-5473
ඵ	-5474
ມ	-5475
ລ	-5476
བ	-5477
ნ	-5478
ქ	-5479
ም	-5480
ជ	-5481
ី	-5482
។	-5483
១	-5484
ᴋ	-5485
ḿ	-5486
ṯ	-5487
ằ	-5488
Ệ	-5489
ổ	-5490
Ἐ	-5491
ἵ	-5492
Ἱ	-5493
ὰ	-5494
ῳ	-5495
‣	-5496
₱	-5497
↗	-5498
⇨	-5499
∝	-5500
⋯	-5501
⎯	-5502
⏺	-5503
┐	-5504
✉	-5505
✽	-5506
❋	-5507
❷	-5508
➔	-5509
➸	-5510
Ⱨ	-5511
お	-5512
が	-5513
め	-5514
よ	-5515
ィ	-5516
エ	-5517
チ	-5518
ナ	-5519
ニ	-5520
ノ	-5521
メ	-5522
个	-5523
全	-5524
出	-5525
加	-5526
动	-5527
化	-5528
千	-5529
华	-5530
参	-5531
名	-5532
味	-5533
回	-5534
士	-5535
多	-5536
學	-5537
害	-5538
少	-5539
左	-5540
巴	-5541
德	-5542
悟	-5543
愛	-5544
我	-5545
拳	-5546
族	-5547
普	-5548
智	-5549
楼	-5550
死	-5551
汗	-5552
浜	-5553
港	-5554
澗	-5555
煎	-5556
版	-5557
理	-5558
用	-5559
砂	-5560
研	-5561
福	-5562
秋	-5563
竞	-5564
粉	-5565
総	-5566
繁	-5567
聖	-5568
能	-5569
航	-5570
莫	-5571
見	-5572
親	-5573
観	-5574
諡	-5575
谢	-5576
谷	-5577
貞	-5578
身	-5579
辽	-5580
陽	-5581
露	-5582
麻	-5583
龙	-5584
ꢒ	-5585
ꢬ	-5586
ꦶ	-5587
기	-5588
나	-5589
노	-5590
다	-5591
무	-5592
주	-5593
하	-5594
	-5595
	-5596
	-5597
	-5598
	-5599
	-5600
	-5601
	-5602
	-5603
	-5604
	-5605
	-5606
￶	-5607
🃏	-5608
🇯	-5609
🍍	-5610
🍙	-5611
🍧	-5612
🎒	-5613
🎖	-5614
🎞	-5615
🎣	-5616
🎻	-5617
🏁	-5618
🏴	-5619
🐁	-5620
🐘	-5621
🐤	-5622
🐬	-5623
🐯	-5624
👎	-5625
👦	-5626
💄	-5627
📅	-5628
📺	-5629
🔳	-5630
🖊	-5631
🖋	-5632
🤡	-5633
🤬	-5634
🤲	-5635
🩴	-5636
🪑	-5637
	-5638
	-5639
	-5640
Ć	-5641
ď	-5642
Ĝ	-5643
Ħ	-5644
Ŏ	-5645
Ơ	-5646
ɘ	-5647
ɢ	-5648
ɰ	-5649
ʈ	-5650
ʠ	-5651
̫	-5652
̳	-5653
͑	-5654
͝	-5655
Ϡ	-5656
ғ	-5657
һ	-5658
Ө	-5659
ԁ	-5660
Ԑ	-5661
Կ	-5662
Ր	-5663
ՠ	-5664
ծ	-5665
ֻ	-5666
٫	-5667
٭	-5668
ډ	-5669
ڌ	-5670
ڻ	-5671
ܙ	-5672
ܚ	-5673
ߠ	-5674
ৈ	-5675
৩	-5676
৷	-5677
ଯ	-5678
ୌ	-5679
୫	-5680
൪	-5681
൯	-5682
ฏ	-5683
ฒ	-5684
པ	-5685
མ	-5686
ལ	-5687
ི	-5688
ུ	-5689
ེ	-5690
ဒ	-5691
ဝ	-5692
ါ	-5693
ვ	-5694
მ	-5695
Ꮥ	-5696
ណ	-5697
ᠬ	-5698
ᵻ	-5699
ḵ	-5700
ẞ	-5701
Ấ	-5702
ẻ	-5703
ỉ	-5704
Ờ	-5705
Ử	-5706
ἁ	-5707
Ἑ	-5708
ἡ	-5709
Ἡ	-5710
ὅ	-5711
ὑ	-5712
ὴ	-5713
‿	-5714
₡	-5715
⇠	-5716
⇢	-5717
∏	-5718
∧	-5719
∩	-5720
⏹	-5721
┇	-5722
║	-5723
▽	-5724
☉	-5725
☪	-5726
☻	-5727
♉	-5728
♚	-5729
♻	-5730
⚈	-5731
⛈	-5732
⛩	-5733
✜	-5734
✩	-5735
✭	-5736
❏	-5737
❶	-5738
⟨	-5739
⧭	-5740
ⲁ	-5741
ⲏ	-5742
ⲙ	-5743
』	-5744
ば	-5745
へ	-5746
ゑ	-5747
ウ	-5748
ェ	-5749
オ	-5750
ズ	-5751
ツ	-5752
ネ	-5753
ム	-5754
レ	-5755
ヶ	-5756
下	-5757
丨	-5758
乐	-5759
书	-5760
他	-5761
仙	-5762
伯	-5763
作	-5764
党	-5765
入	-5766
兵	-5767
典	-5768
内	-5769
冬	-5770
功	-5771
勾	-5772
区	-5773
可	-5774
右	-5775
哈	-5776
因	-5777
団	-5778
困	-5779
塔	-5780
妈	-5781
宝	-5782
客	-5783
尾	-5784
屋	-5785
工	-5786
幸	-5787
康	-5788
弥	-5789
当	-5790
忍	-5791
情	-5792
拼	-5793
政	-5794
救	-5795
晉	-5796
最	-5797
有	-5798
朱	-5799
李	-5800
来	-5801
格	-5802
正	-5803
母	-5804
毛	-5805
氏	-5806
泉	-5807
波	-5808
洛	-5809
津	-5810
洲	-5811
浄	-5812
火	-5813
物	-5814
獄	-5815
甲	-5816
男	-5817
病	-5818
直	-5819
禅	-5820
稚	-5821
稲	-5822
粥	-5823
紅	-5824
統	-5825
血	-5826
要	-5827
計	-5828
諸	-5829
话	-5830
赤	-5831
越	-5832
軍	-5833
迪	-5834
通	-5835
過	-5836
間	-5837
间	-5838
阴	-5839
陰	-5840
零	-5841
電	-5842
非	-5843
面	-5844
食	-5845
饑	-5846
馬	-5847
马	-5848
鲁	-5849
鳥	-5850
ꢭ	-5851
ꢰ	-5852
ꢱ	-5853
꣑	-5854
ꦏ	-5855
ꦔ	-5856
ꦤ	-5857
ꦴ	-5858
ꦺ	-5859
ꦿ	-5860
꧀	-5861
가	-5862
김	-5863
년	-5864
리	-5865
몮	-5866
삼	-5867
샵	-5868
선	-5869
세	-5870
왕	-5871
우	-5872
위	-5873
천	-5874
트	-5875
	-5876
	-5877
	-5878
	-5879
	-5880
	-5881
	-5882
	-5883
	-5884
	-5885
	-5886
𐎠	-5887
🅐	-5888
🅡	-5889
🌊	-5890
🌠	-5891
🌤	-5892
🌽	-5893
🍟	-5894
🍺	-5895
🎎	-5896
🎭	-5897
🐎	-5898
🐓	-5899
🐥	-5900
🐱	-5901
👁	-5902
👃	-5903
👻	-5904
💟	-5905
💴	-5906
💷	-5907
📧	-5908
🔡	-5909
🖌	-5910
😖	-5911
🙊	-5912
🙴	-5913
🚲	-5914
🛬	-5915
🟥	-5916
🤜	-5917
🤧	-5918
🤴	-5919
🥇	-5920
🥥	-5921
🥴	-5922
🧍	-5923
🪴	-5924
	-5925
ĉ	-5926
Ŗ	-5927
Ŝ	-5928
ƃ	-5929
Ɛ	-5930
Ƒ	-5931
Ƴ	-5932
ǃ	-5933
ǚ	-5934
Ƞ	-5935
ȣ	-5936
Ȳ	-5937
ɝ	-5938
ɦ	-5939
ɻ	-5940
ʙ	-5941
ˮ	-5942
̋	-5943
̐	-5944
̔	-5945
̠	-5946
̤	-5947
̬	-5948
̭	-5949
̾	-5950
͂	-5951
͍	-5952
͕	-5953
Ѕ	-5954
Ї	-5955
ћ	-5956
ѝ	-5957
ѣ	-5958
Қ	-5959
ң	-5960
Խ	-5961
Տ	-5962
Ք	-5963
Ֆ	-5964
զ	-5965
հ	-5966
տ	-5967
ք	-5968
ֱ	-5969
ף	-5970
ٽ	-5971
ڏ	-5972
ۆ	-5973
܀	-5974
ܗ	-5975
ܠ	-5976
ܢ	-5977
ܦ	-5978
ݢ	-5979
ވ	-5980
ॱ	-5981
ঐ	-5982
৬	-5983
ਔ	-5984
੯	-5985
ઊ	-5986
ૃ	-5987
૧	-5988
૯	-5989
ଂ	-5990
୬	-5991
୮	-5992
஖	-5993
஗	-5994
஛	-5995
஼	-5996
ಋ	-5997
൨	-5998
൬	-5999
ฃ	-6000
ฆ	-6001
ฌ	-6002
ฑ	-6003
ฬ	-6004
฿	-6005
ພ	-6006
ໍ	-6007
ང	-6008
ད	-6009
ར	-6010
ས	-6011
ဆ	-6012
ဘ	-6013
၁	-6014
၂	-6015
၄	-6016
၅	-6017
၇	-6018
၈	-6019
დ	-6020
ც	-6021
ᅲ	-6022
በ	-6023
Ꭳ	-6024
Ꮄ	-6025
Ꮑ	-6026
Ꮧ	-6027
ᒪ	-6028
ឲ	-6029
ូ	-6030
េ	-6031
ោ	-6032
ៅ	-6033
៍	-6034
៣	-6035
ᠨ	-6036
Ḍ	-6037
ṓ	-6038
Ẓ	-6039
Ề	-6040
Ỉ	-6041
Ự	-6042
Ỳ	-6043
ỳ	-6044
Ἁ	-6045
ἔ	-6046
Ἠ	-6047
ὄ	-6048
ὔ	-6049
‭	-6050
₢	-6051
₥	-6052
℗	-6053
⇜	-6054
⇧	-6055
∨	-6056
⌛	-6057
⏫	-6058
░	-6059
☮	-6060
♒	-6061
♩	-6062
♮	-6063
⚙	-6064
❄	-6065
❸	-6066
⧪	-6067
ⱥ	-6068
ⲉ	-6069
ⲣ	-6070
ⲥ	-6071
ⲱ	-6072
せ	-6073
ど	-6074
ね	-6075
び	-6076
や	-6077
ゅ	-6078
グ	-6079
バ	-6080
パ	-6081
ビ	-6082
ボ	-6083
丝	-6084
丹	-6085
主	-6086
久	-6087
么	-6088
也	-6089
了	-6090
事	-6091
云	-6092
亞	-6093
什	-6094
今	-6095
伊	-6096
传	-6097
伽	-6098
何	-6099
倶	-6100
傳	-6101
儒	-6102
共	-6103
円	-6104
再	-6105
军	-6106
剛	-6107
務	-6108
勝	-6109
勞	-6110
勢	-6111
半	-6112
卜	-6113
占	-6114
古	-6115
吗	-6116
吴	-6117
呆	-6118
周	-6119
品	-6120
哲	-6121
嘉	-6122
场	-6123
坐	-6124
块	-6125
境	-6126
夏	-6127
夜	-6128
始	-6129
姜	-6130
孫	-6131
宇	-6132
宙	-6133
実	-6134
實	-6135
射	-6136
岐	-6137
幡	-6138
府	-6139
廣	-6140
弓	-6141
張	-6142
得	-6143
御	-6144
徳	-6145
徽	-6146
志	-6147
想	-6148
戰	-6149
戸	-6150
改	-6151
攻	-6152
数	-6153
时	-6154
易	-6155
星	-6156
晴	-6157
曼	-6158
會	-6159
村	-6160
校	-6161
楽	-6162
歓	-6163
比	-6164
気	-6165
汉	-6166
沙	-6167
沱	-6168
泰	-6169
浦	-6170
深	-6171
源	-6172
滝	-6173
满	-6174
爆	-6175
独	-6176
現	-6177
琵	-6178
琶	-6179
瑠	-6180
璃	-6181
由	-6182
画	-6183
登	-6184
盆	-6185
科	-6186
称	-6187
竜	-6188
童	-6189
紫	-6190
編	-6191
经	-6192
罗	-6193
義	-6194
联	-6195
至	-6196
興	-6197
芥	-6198
落	-6199
葛	-6200
蔵	-6201
薬	-6202
藏	-6203
虛	-6204
術	-6205
角	-6206
言	-6207
豆	-6208
豊	-6209
踊	-6210
轟	-6211
车	-6212
速	-6213
逢	-6214
運	-6215
酥	-6216
重	-6217
鋳	-6218
錦	-6219
雌	-6220
雲	-6221
霊	-6222
飾	-6223
饼	-6224
黄	-6225
鼎	-6226
ꣁ	-6227
ꦒ	-6228
광	-6229
단	-6230
대	-6231
를	-6232
민	-6233
바	-6234
부	-6235
서	-6236
소	-6237
속	-6238
역	-6239
요	-6240
원	-6241
유	-6242
이	-6243
재	-6244
츢	-6245
포	-6246
학	-6247
해	-6248
	-6249
	-6250
	-6251
	-6252
	-6253
	-6254
	-6255
	-6256
	-6257
	-6258
	-6259
	-6260
	-6261
	-6262
	-6263
	-6264
𐎼	-6265
🇴	-6266
🇻	-6267
🌎	-6268
🌶	-6269
🍛	-6270
🍷	-6271
🎅	-6272
🎆	-6273
🎩	-6274
🏅	-6275
🏣	-6276
🏳	-6277
🏹	-6278
🐈	-6279
🐊	-6280
🐡	-6281
👫	-6282
👳	-6283
💊	-6284
💎	-6285
💣	-6286
💵	-6287
📈	-6288
📎	-6289
📴	-6290
🔍	-6291
🔗	-6292
🗞	-6293
😻	-6294
🚖	-6295
🚭	-6296
🛐	-6297
🛰	-6298
🤐	-6299
🤛	-6300
🤮	-6301
🤳	-6302
🤵	-6303
🤸	-6304
🤼	-6305
🥱	-6306
🦀	-6307
🦉	-6308
🦐	-6309
🦺	-6310
🧜	-6311
🧡	-6312
	-6313
	-6314
	-6315
­	-6316
Ģ	-6317
Ĺ	-6318
ĺ	-6319
Ő	-6320
ŕ	-6321
Ŵ	-6322
ŵ	-6323
Ǝ	-6324
Ɵ	-6325
Ʒ	-6326
Ƹ	-6327
ȁ	-6328
ɭ	-6329
ɶ	-6330
ɸ	-6331
ˀ	-6332
˂	-6333
˄	-6334
̍	-6335
̑	-6336
̕	-6337
̞	-6338
̨	-6339
̸	-6340
̺	-6341
͌	-6342
͗	-6343
ΐ	-6344
Ξ	-6345
Ϊ	-6346
ϛ	-6347
Й	-6348
Ъ	-6349
ќ	-6350
ѡ	-6351
ҷ	-6352
ӏ	-6353
Ӝ	-6354
ӣ	-6355
ӧ	-6356
ӵ	-6357
Գ	-6358
Դ	-6359
Ժ	-6360
Ռ	-6361
դ	-6362
թ	-6363
ղ	-6364
ճ	-6365
ջ	-6366
վ	-6367
օ	-6368
״	-6369
څ	-6370
ڇ	-6371
ڊ	-6372
ڙ	-6373
ۈ	-6374
ۉ	-6375
ێ	-6376
۩	-6377
ަ	-6378
ި	-6379
ߵ	-6380
ऍ	-6381
ঢ	-6382
ঽ	-6383
ৎ	-6384
৭	-6385
ৱ	-6386
ਊ	-6387
੧	-6388
ઁ	-6389
ઢ	-6390
ૐ	-6391
૪	-6392
ଏ	-6393
ଞ	-6394
ଠ	-6395
୨	-6396
௷	-6397
ౠ	-6398
൧	-6399
൩	-6400
൮	-6401
ඃ	-6402
ඓ	-6403
ඞ	-6404
ෟ	-6405
ෲ	-6406
ฯ	-6407
່	-6408
།	-6409
ཏ	-6410
ཙ	-6411
འ	-6412
ཡ	-6413
࿐	-6414
ထ	-6415
ဓ	-6416
ံ	-6417
့	-6418
ွ	-6419
၍	-6420
ზ	-6421
ფ	-6422
ᄀ	-6423
ᄂ	-6424
ᄃ	-6425
ᄅ	-6426
ᄆ	-6427
ᄇ	-6428
ᄉ	-6429
ᄋ	-6430
ᄌ	-6431
ᄎ	-6432
ᄏ	-6433
ᄐ	-6434
ᄑ	-6435
ᄒ	-6436
ᅡ	-6437
ᅣ	-6438
ᅥ	-6439
ᅧ	-6440
ᅩ	-6441
ᅭ	-6442
ᅮ	-6443
ᅳ	-6444
ᅵ	-6445
ᆞ	-6446
ሀ	-6447
ላ	-6448
ር	-6449
ታ	-6450
ን	-6451
ዩ	-6452
ዲ	-6453
ፍ	-6454
፲	-6455
Ꭵ	-6456
Ꭶ	-6457
Ꭺ	-6458
Ꭻ	-6459
Ꮗ	-6460
Ꮛ	-6461
Ꮜ	-6462
Ꮝ	-6463
Ꮢ	-6464
Ꮭ	-6465
Ꮶ	-6466
Ꮷ	-6467
Ꮽ	-6468
ᑕ	-6469
ᕤ	-6470
ᗩ	-6471
ᚼ	-6472
ឆ	-6473
ឋ	-6474
ផ	-6475
អ	-6476
ឺ	-6477
ួ	-6478
ើ	-6479
័	-6480
៨	-6481
ᠣ	-6482
ᠤ	-6483
ᠭ	-6484
ᠮ	-6485
ᠷ	-6486
ᢷ	-6487
ᤠ	-6488
ᥙ	-6489
ᱷ	-6490
ᴊ	-6491
ᴡ	-6492
Ḟ	-6493
Ḡ	-6494
Ḫ	-6495
ṋ	-6496
Ṱ	-6497
ẩ	-6498
Ắ	-6499
Ẹ	-6500
Ể	-6501
Ổ	-6502
Ỗ	-6503
Ợ	-6504
Ụ	-6505
Ἄ	-6506
Ἅ	-6507
ἕ	-6508
ἧ	-6509
ἴ	-6510
ὸ	-6511
ᾱ	-6512
ᾶ	-6513
ῥ	-6514
‖	-6515
₤	-6516
₩	-6517
↨	-6518
↩	-6519
⇀	-6520
⇍	-6521
⇝	-6522
∀	-6523
∅	-6524
∎	-6525
≦	-6526
⊙	-6527
⊞	-6528
⊥	-6529
⍐	-6530
█	-6531
▌	-6532
◀	-6533
◔	-6534
☩	-6535
☰	-6536
♓	-6537
⛅	-6538
⛓	-6539
⛳	-6540
⛷	-6541
✂	-6542
✖	-6543
✹	-6544
❕	-6545
❯	-6546
❹	-6547
❺	-6548
⤵	-6549
⧼	-6550
⧽	-6551
⬅	-6552
⮚	-6553
ⲟ	-6554
Ⲣ	-6555
ⲧ	-6556
ⲭ	-6557
ⴰ	-6558
ⴷ	-6559
ⴻ	-6560
ⵔ	-6561
ⵢ	-6562
ⵣ	-6563
〈	-6564
ず	-6565
そ	-6566
だ	-6567
っ	-6568
ふ	-6569
べ	-6570
ほ	-6571
ガ	-6572
キ	-6573
ギ	-6574
サ	-6575
セ	-6576
ダ	-6577
テ	-6578
デ	-6579
ヌ	-6580
ハ	-6581
フ	-6582
ベ	-6583
ホ	-6584
ミ	-6585
ュ	-6586
ロ	-6587
ヴ	-6588
七	-6589
业	-6590
丞	-6591
丸	-6592
丽	-6593
之	-6594
乌	-6595
乗	-6596
乘	-6597
乚	-6598
乱	-6599
亚	-6600
亨	-6601
企	-6602
伦	-6603
供	-6604
信	-6605
修	-6606
俵	-6607
倍	-6608
健	-6609
僕	-6610
克	-6611
兰	-6612
关	-6613
兴	-6614
列	-6615
初	-6616
創	-6617
务	-6618
労	-6619
勇	-6620
動	-6621
匁	-6622
包	-6623
单	-6624
博	-6625
双	-6626
受	-6627
只	-6628
号	-6629
吃	-6630
吟	-6631
吾	-6632
命	-6633
咒	-6634
器	-6635
图	-6636
圆	-6637
坡	-6638
基	-6639
埼	-6640
堂	-6641
報	-6642
壇	-6643
妃	-6644
姓	-6645
孩	-6646
宋	-6647
宪	-6648
宫	-6649
寄	-6650
寇	-6651
寒	-6652
寧	-6653
寿	-6654
尔	-6655
岑	-6656
岡	-6657
岩	-6658
峇	-6659
崎	-6660
嶺	-6661
巡	-6662
巻	-6663
布	-6664
廖	-6665
征	-6666
忠	-6667
急	-6668
您	-6669
惠	-6670
房	-6671
抹	-6672
揭	-6673
損	-6674
摩	-6675
敢	-6676
敬	-6677
斎	-6678
施	-6679
旗	-6680
旨	-6681
昭	-6682
是	-6683
暁	-6684
术	-6685
权	-6686
杉	-6687
杨	-6688
杰	-6689
柔	-6690
查	-6691
根	-6692
栽	-6693
梨	-6694
棋	-6695
森	-6696
極	-6697
様	-6698
権	-6699
欣	-6700
歩	-6701
殊	-6702
污	-6703
油	-6704
泽	-6705
洋	-6706
洞	-6707
洪	-6708
流	-6709
淳	-6710
済	-6711
温	-6712
游	-6713
湾	-6714
滚	-6715
滿	-6716
澤	-6717
瀬	-6718
灰	-6719
災	-6720
灾	-6721
為	-6722
無	-6723
牌	-6724
牛	-6725
狐	-6726
玄	-6727
珠	-6728
球	-6729
琉	-6730
甑	-6731
甕	-6732
産	-6733
电	-6734
疆	-6735
痛	-6736
発	-6737
目	-6738
県	-6739
破	-6740
碁	-6741
祓	-6742
禄	-6743
禊	-6744
禪	-6745
秀	-6746
秦	-6747
移	-6748
穢	-6749
端	-6750
笑	-6751
筑	-6752
粟	-6753
粤	-6754
精	-6755
純	-6756
索	-6757
給	-6758
緑	-6759
線	-6760
红	-6761
线	-6762
统	-6763
维	-6764
羊	-6765
肃	-6766
肥	-6767
脫	-6768
臣	-6769
臼	-6770
與	-6771
艾	-6772
芳	-6773
英	-6774
莞	-6775
菅	-6776
菩	-6777
蓓	-6778
蕾	-6779
薩	-6780
藤	-6781
虎	-6782
虔	-6783
處	-6784
蛇	-6785
蠶	-6786
衛	-6787
表	-6788
被	-6789
装	-6790
见	-6791
视	-6792
解	-6793
話	-6794
计	-6795
记	-6796
说	-6797
请	-6798
豉	-6799
贛	-6800
贵	-6801
跑	-6802
蹴	-6803
転	-6804
轮	-6805
辞	-6806
过	-6807
运	-6808
进	-6809
连	-6810
迦	-6811
造	-6812
達	-6813
遠	-6814
邑	-6815
郎	-6816
郑	-6817
郡	-6818
酱	-6819
鋸	-6820
錬	-6821
鐘	-6822
门	-6823
阜	-6824
阪	-6825
际	-6826
陇	-6827
陈	-6828
降	-6829
限	-6830
隆	-6831
隈	-6832
隊	-6833
难	-6834
雄	-6835
集	-6836
難	-6837
鞠	-6838
頭	-6839
顏	-6840
願	-6841
館	-6842
饥	-6843
馆	-6844
駱	-6845
鬼	-6846
鳩	-6847
鴨	-6848
黃	-6849
齊	-6850
齐	-6851
ꓕ	-6852
ꜜ	-6853
ꠤ	-6854
ꢜ	-6855
ꢩ	-6856
ꢯ	-6857
ꣃ	-6858
꣐	-6859
꣒	-6860
ꦂ	-6861
ꦗ	-6862
ꦢ	-6863
ꦪ	-6864
ꦮ	-6865
ꦲ	-6866
ꦾ	-6867
강	-6868
게	-6869
고	-6870
구	-6871
귀	-6872
그	-6873
남	-6874
는	-6875
닝	-6876
당	-6877
라	-6878
룹	-6879
르	-6880
막	-6881
메	-6882
몰	-6883
박	-6884
방	-6885
산	-6886
석	-6887
쉽	-6888
아	-6889
악	-6890
에	-6891
예	-6892
자	-6893
적	-6894
제	-6895
조	-6896
탄	-6897
합	-6898
행	-6899
형	-6900
호	-6901
홍	-6902
	-6903
	-6904
	-6905
	-6906
	-6907
	-6908
	-6909
	-6910
	-6911
	-6912
	-6913
	-6914
	-6915
	-6916
	-6917
	-6918
	-6919
	-6920
	-6921
	-6922
	-6923
	-6924
	-6925
	-6926
	-6927
	-6928
	-6929
	-6930
	-6931
𐌹	-6932
𐎱	-6933
𐎿	-6934
𑂦	-6935
𑂰	-6936
𑚊	-6937
𑚔	-6938
𑚤	-6939
𑚭	-6940
𑚯	-6941
𒀀	-6942
𒅗	-6943
𒌣	-6944
🂓	-6945
🅔	-6946
🅗	-6947
🅙	-6948
🅝	-6949
🅢	-6950
🅾	-6951
🆙	-6952
🇼	-6953
🌄	-6954
🌔	-6955
🌖	-6956
🌚	-6957
🌝	-6958
🍞	-6959
🍨	-6960
🍪	-6961
🍲	-6962
🍴	-6963
🍶	-6964
🍻	-6965
🍽	-6966
🎏	-6967
🎨	-6968
🎱	-6969
🎹	-6970
🎺	-6971
🏇	-6972
🏋	-6973
🏍	-6974
🏝	-6975
🏟	-6976
🏡	-6977
🏷	-6978
🐅	-6979
🐆	-6980
🐇	-6981
🐜	-6982
🐮	-6983
👪	-6984
👭	-6985
👶	-6986
👼	-6987
👿	-6988
💤	-6989
💶	-6990
📆	-6991
📊	-6992
📔	-6993
📜	-6994
🔈	-6995
🔎	-6996
🔞	-6997
🔟	-6998
🔧	-6999
🔨	-7000
🔭	-7001
🕊	-7002
🕗	-7003
🕶	-7004
🖐	-7005
😣	-7006
😫	-7007
🙀	-7008
🚆	-7009
🚎	-7010
🚢	-7011
🚤	-7012
🚴	-7013
🚶	-7014
🟪	-7015
🤎	-7016
🤕	-7017
🤚	-7018
🥂	-7019
🥈	-7020
🥉	-7021
🥕	-7022
🥘	-7023
🥤	-7024
🥸	-7025
🦆	-7026
🦈	-7027
🦊	-7028
🦑	-7029
🦱	-7030
🦴	-7031
🦷	-7032
🦾	-7033
🧔	-7034
🧕	-7035
🩱	-7036
🩲	-7037
🩹	-7038
󠁧	-7039
Ĥ	-7040
ĥ	-7041
Ŕ	-7042
Ŧ	-7043
Ź	-7044
Ƅ	-7045
ƞ	-7046
Ǎ	-7047
Ǒ	-7048
Ǡ	-7049
Ǧ	-7050
ǯ	-7051
Ƿ	-7052
ǹ	-7053
ǽ	-7054
ȡ	-7055
Ȣ	-7056
ȧ	-7057
Ȩ	-7058
ȳ	-7059
Ⱥ	-7060
Ƀ	-7061
ɍ	-7062
ɖ	-7063
ɠ	-7064
ɤ	-7065
ɷ	-7066
ʂ	-7067
ʄ	-7068
ʐ	-7069
ʝ	-7070
ʤ	-7071
ʦ	-7072
ʮ	-7073
ˁ	-7074
˃	-7075
˲	-7076
̌	-7077
̒	-7078
̜	-7079
̹	-7080
̻	-7081
ͅ	-7082
͇	-7083
͐	-7084
͓	-7085
͘	-7086
͙	-7087
͜	-7088
Ά	-7089
Έ	-7090
Ή	-7091
Ό	-7092
Ύ	-7093
Ϫ	-7094
Ё	-7095
Ј	-7096
Ы	-7097
ѐ	-7098
ђ	-7099
љ	-7100
њ	-7101
Ѡ	-7102
Җ	-7103
җ	-7104
Ҝ	-7105
ҡ	-7106
ұ	-7107
Һ	-7108
Ӏ	-7109
Ә	-7110
ӟ	-7111
Ӧ	-7112
ӯ	-7113
Ӹ	-7114
Ԁ	-7115
Բ	-7116
Զ	-7117
Յ	-7118
Ն	-7119
Շ	-7120
Վ	-7121
Ց	-7122
Ւ	-7123
Օ	-7124
բ	-7125
է	-7126
ը	-7127
ժ	-7128
ձ	-7129
շ	-7130
չ	-7131
։	-7132
֫	-7133
־	-7134
װ	-7135
ײ	-7136
؈	-7137
ؔ	-7138
٪	-7139
ٺ	-7140
ٻ	-7141
ڕ	-7142
ڣ	-7143
ۜ	-7144
۫	-7145
۬	-7146
ۭ	-7147
܊	-7148
ܕ	-7149
ܛ	-7150
ܣ	-7151
ܧ	-7152
ܳ	-7153
ܼ	-7154
ހ	-7155
ށ	-7156
އ	-7157
މ	-7158
ތ	-7159
ސ	-7160
ޑ	-7161
ޭ	-7162
ް	-7163
࠮	-7164
ॡ	-7165
ॢ	-7166
ॲ	-7167
ঊ	-7168
ঋ	-7169
ঔ	-7170
১	-7171
৪	-7172
৹	-7173
੭	-7174
੮	-7175
ੲ	-7176
ઃ	-7177
ઐ	-7178
ૌ	-7179
૦	-7180
ଃ	-7181
ଈ	-7182
ଊ	-7183
ଘ	-7184
ଝ	-7185
ଫ	-7186
ୈ	-7187
ୱ	-7188
஝	-7189
௃	-7190
௉	-7191
௏	-7192
௠	-7193
௼	-7194
ಙ	-7195
ಱ	-7196
ഝ	-7197
ඪ	-7198
๖	-7199
ຄ	-7200
ດ	-7201
ບ	-7202
ສ	-7203
ັ	-7204
ົ	-7205
ເ	-7206
ແ	-7207
༄	-7208
༆	-7209
༠	-7210
ཇ	-7211
ཎ	-7212
ན	-7213
ཚ	-7214
ཞ	-7215
ཧ	-7216
ཨ	-7217
ཱ	-7218
ཾ	-7219
ྃ	-7220
ྗ	-7221
ྨ	-7222
ྭ	-7223
ྱ	-7224
ྲ	-7225
ླ	-7226
ဇ	-7227
ည	-7228
ဗ	-7229
ဤ	-7230
၀	-7231
၃	-7232
၊	-7233
။	-7234
၌	-7235
၏	-7236
ၐ	-7237
გ	-7238
კ	-7239
ტ	-7240
ყ	-7241
შ	-7242
ძ	-7243
წ	-7244
ჯ	-7245
ᄊ	-7246
ᇟ	-7247
ለ	-7248
ሊ	-7249
ሐ	-7250
መ	-7251
ሙ	-7252
ሥ	-7253
ረ	-7254
ሩ	-7255
ራ	-7256
ሮ	-7257
ሰ	-7258
ሴ	-7259
ሻ	-7260
ቇ	-7261
ቡ	-7262
ባ	-7263
ቤ	-7264
ቦ	-7265
ት	-7266
ቻ	-7267
ኃ	-7268
ኒ	-7269
ኘ	-7270
ኢ	-7271
ኣ	-7272
ካ	-7273
ኽ	-7274
ዋ	-7275
ዎ	-7276
የ	-7277
ያ	-7278
ይ	-7279
ደ	-7280
ጋ	-7281
ጡ	-7282
ጫ	-7283
ጭ	-7284
ፊ	-7285
ፏ	-7286
ፓ	-7287
፡	-7288
፱	-7289
፳	-7290
፴	-7291
፵	-7292
፹	-7293
፻	-7294
Ꭰ	-7295
Ꭴ	-7296
Ꭼ	-7297
Ꮒ	-7298
Ꮘ	-7299
Ꮙ	-7300
Ꮠ	-7301
Ꮣ	-7302
Ꮪ	-7303
Ꮫ	-7304
Ꮮ	-7305
Ꮯ	-7306
Ꮳ	-7307
Ꮿ	-7308
ᐅ	-7309
ᑊ	-7310
ᑘ	-7311
ᑵ	-7312
ᒃ	-7313
ᒥ	-7314
ᕡ	-7315
ᕫ	-7316
ᖕ	-7317
ᖱ	-7318
ᖴ	-7319
ᗃ	-7320
ᙈ	-7321
ᙔ	-7322
ᙜ	-7323
ᙝ	-7324
ᙧ	-7325
᙭	-7326
ᙰ	-7327
ᙱ	-7328
ᛒ	-7329
ឈ	-7330
ឞ	-7331
ឡ	-7332
ឬ	-7333
ឭ	-7334
ឯ	-7335
ឱ	-7336
ឹ	-7337
ែ	-7338
៊	-7339
៌	-7340
៑	-7341
០	-7342
២	-7343
៧	-7344
ᠲ	-7345
ᠳ	-7346
ᢶ	-7347
ᢺ	-7348
ᢻ	-7349
ᣐ	-7350
ᣯ	-7351
ᣲ	-7352
ᤌ	-7353
ᤐ	-7354
ᤕ	-7355
ᤢ	-7356
ᤣ	-7357
ᤰ	-7358
ᤱ	-7359
ᥱ	-7360
ᱚ	-7361
ᱟ	-7362
ᱠ	-7363
ᱡ	-7364
ᱨ	-7365
ᱰ	-7366
ᱸ	-7367
᳚	-7368
ᴉ	-7369
ḅ	-7370
Ḑ	-7371
Ḓ	-7372
ḕ	-7373
Ḗ	-7374
ḛ	-7375
ḱ	-7376
Ḳ	-7377
ẖ	-7378
Ẩ	-7379
ẳ	-7380
Ẵ	-7381
ẵ	-7382
Ặ	-7383
Ẻ	-7384
Ẽ	-7385
Ỏ	-7386
Ồ	-7387
ỡ	-7388
Ứ	-7389
Ữ	-7390
Ỷ	-7391
ỷ	-7392
Ỹ	-7393
ἅ	-7394
ἑ	-7395
Ἔ	-7396
ἦ	-7397
Ἥ	-7398
ἷ	-7399
ὃ	-7400
Ὀ	-7401
ὖ	-7402
Ὑ	-7403
ὡ	-7404
ὣ	-7405
ὥ	-7406
Ὠ	-7407
Ὦ	-7408
ὲ	-7409
ὺ	-7410
ᾀ	-7411
ᾅ	-7412
ᾎ	-7413
ᾳ	-7414
ῇ	-7415
ῴ	-7416
‱	-7417
‸	-7418
₪	-7419
₳	-7420
ↀ	-7421
Ↄ	-7422
↙	-7423
↠	-7424
↦	-7425
↪	-7426
⇆	-7427
∪	-7428
∽	-7429
≃	-7430
≮	-7431
⊂	-7432
⊃	-7433
⊕	-7434
⋮	-7435
⌃	-7436
⌕	-7437
⌥	-7438
⍺	-7439
⎛	-7440
⎝	-7441
⎞	-7442
⎠	-7443
⓶	-7444
┴	-7445
┼	-7446
╓	-7447
◉	-7448
☁	-7449
☂	-7450
☃	-7451
☏	-7452
☒	-7453
☥	-7454
☦	-7455
☾	-7456
♞	-7457
♧	-7458
♾	-7459
⚒	-7460
⚕	-7461
⚛	-7462
⚪	-7463
⛄	-7464
⛆	-7465
⛴	-7466
⛹	-7467
✗	-7468
✘	-7469
✞	-7470
❞	-7471
❧	-7472
❮	-7473
❰	-7474
❻	-7475
❼	-7476
➀	-7477
➁	-7478
➂	-7479
➼	-7480
⟶	-7481
⠃	-7482
⥀	-7483
⫶	-7484
Ᵽ	-7485
Ⲙ	-7486
ⲩ	-7487
ⲫ	-7488
Ⲭ	-7489
〉	-7490
〜	-7491
〰	-7492
ご	-7493
ざ	-7494
ぢ	-7495
づ	-7496
ひ	-7497
ぶ	-7498
ぼ	-7499
む	-7500
ァ	-7501
ケ	-7502
ゲ	-7503
ゴ	-7504
ゼ	-7505
ソ	-7506
タ	-7507
プ	-7508
マ	-7509
モ	-7510
ユ	-7511
ョ	-7512
ㄖ	-7513
ㄩ	-7514
䮅	-7515
䮚	-7516
丁	-7517
与	-7518
並	-7519
临	-7520
义	-7521
买	-7522
争	-7523
互	-7524
交	-7525
仏	-7526
仔	-7527
仕	-7528
付	-7529
令	-7530
以	-7531
任	-7532
份	-7533
伏	-7534
休	-7535
众	-7536
伝	-7537
伸	-7538
位	-7539
來	-7540
侍	-7541
侯	-7542
保	-7543
俳	-7544
倉	-7545
們	-7546
倭	-7547
先	-7548
兒	-7549
內	-7550
兩	-7551
其	-7552
养	-7553
冠	-7554
冤	-7555
冰	-7556
冲	-7557
决	-7558
况	-7559
凌	-7560
几	-7561
凢	-7562
凤	-7563
凸	-7564
函	-7565
刀	-7566
切	-7567
刈	-7568
刊	-7569
判	-7570
刨	-7571
别	-7572
制	-7573
刷	-7574
刺	-7575
削	-7576
剌	-7577
劑	-7578
力	-7579
助	-7580
努	-7581
势	-7582
勒	-7583
午	-7584
卖	-7585
卯	-7586
危	-7587
卿	-7588
厄	-7589
厘	-7590
厦	-7591
厳	-7592
去	-7593
县	-7594
叀	-7595
又	-7596
友	-7597
变	-7598
同	-7599
后	-7600
吐	-7601
吕	-7602
吧	-7603
含	-7604
吳	-7605
员	-7606
咨	-7607
咯	-7608
响	-7609
員	-7610
哪	-7611
唯	-7612
唵	-7613
商	-7614
啓	-7615
喂	-7616
嗣	-7617
囲	-7618
围	-7619
圍	-7620
園	-7621
圖	-7622
圜	-7623
圳	-7624
坂	-7625
坊	-7626
埃	-7627
埠	-7628
培	-7629
堯	-7630
場	-7631
塊	-7632
塚	-7633
塞	-7634
塾	-7635
墨	-7636
处	-7637
夔	-7638
失	-7639
头	-7640
奎	-7641
奖	-7642
奘	-7643
奢	-7644
奥	-7645
如	-7646
妙	-7647
妻	-7648
威	-7649
娜	-7650
婆	-7651
婦	-7652
媒	-7653
媽	-7654
嬴	-7655
孙	-7656
季	-7657
宁	-7658
守	-7659
官	-7660
定	-7661
宜	-7662
实	-7663
宿	-7664
富	-7665
寛	-7666
对	-7667
将	-7668
尊	-7669
就	-7670
尺	-7671
尻	-7672
尼	-7673
尿	-7674
局	-7675
居	-7676
届	-7677
岔	-7678
岗	-7679
岬	-7680
峡	-7681
峰	-7682
崔	-7683
嵩	-7684
巌	-7685
巣	-7686
巨	-7687
巫	-7688
己	-7689
巳	-7690
币	-7691
帕	-7692
帮	-7693
常	-7694
幕	-7695
干	-7696
庄	-7697
庇	-7698
床	-7699
应	-7700
底	-7701
店	-7702
庚	-7703
庞	-7704
座	-7705
廓	-7706
弁	-7707
弘	-7708
弛	-7709
弟	-7710
张	-7711
录	-7712
彭	-7713
影	-7714
往	-7715
很	-7716
從	-7717
復	-7718
必	-7719
忙	-7720
応	-7721
思	-7722
怡	-7723
性	-7724
总	-7725
恋	-7726
恤	-7727
恵	-7728
悪	-7729
感	-7730
慜	-7731
慶	-7732
憲	-7733
應	-7734
懷	-7735
战	-7736
所	-7737
扇	-7738
才	-7739
扎	-7740
技	-7741
折	-7742
抛	-7743
担	-7744
拐	-7745
括	-7746
拭	-7747
拿	-7748
挺	-7749
挿	-7750
据	-7751
授	-7752
掌	-7753
排	-7754
掛	-7755
換	-7756
撃	-7757
撲	-7758
據	-7759
擧	-7760
支	-7761
故	-7762
敎	-7763
敗	-7764
數	-7765
斂	-7766
斉	-7767
料	-7768
旅	-7769
无	-7770
昔	-7771
晋	-7772
晓	-7773
晩	-7774
景	-7775
暗	-7776
曉	-7777
曲	-7778
曹	-7779
替	-7780
未	-7781
末	-7782
朴	-7783
杜	-7784
杵	-7785
板	-7786
果	-7787
枝	-7788
枯	-7789
査	-7790
栄	-7791
栗	-7792
桂	-7793
案	-7794
桌	-7795
桓	-7796
桶	-7797
條	-7798
梦	-7799
椅	-7800
検	-7801
楊	-7802
楠	-7803
楯	-7804
楷	-7805
榜	-7806
標	-7807
樹	-7808
橘	-7809
機	-7810
檀	-7811
檗	-7812
次	-7813
欧	-7814
欲	-7815
止	-7816
歪	-7817
歷	-7818
毫	-7819
气	-7820
氣	-7821
永	-7822
氹	-7823
汁	-7824
求	-7825
汝	-7826
決	-7827
汽	-7828
沈	-7829
沖	-7830
沟	-7831
没	-7832
沢	-7833
洗	-7834
洢	-7835
洱	-7836
活	-7837
派	-7838
济	-7839
浒	-7840
浪	-7841
涙	-7842
涯	-7843
淑	-7844
湘	-7845
湧	-7846
満	-7847
準	-7848
演	-7849
潘	-7850
潮	-7851
澱	-7852
濃	-7853
瀛	-7854
灢	-7855
灸	-7856
炒	-7857
炳	-7858
炸	-7859
点	-7860
炽	-7861
烏	-7862
热	-7863
焙	-7864
照	-7865
熔	-7866
熱	-7867
燃	-7868
燈	-7869
燊	-7870
燕	-7871
營	-7872
爭	-7873
父	-7874
爾	-7875
牙	-7876
牟	-7877
犬	-7878
狭	-7879
狼	-7880
獨	-7881
獻	-7882
玖	-7883
现	-7884
玲	-7885
珍	-7886
珮	-7887
瑞	-7888
瑟	-7889
璠	-7890
瓜	-7891
甫	-7892
申	-7893
番	-7894
畫	-7895
疎	-7896
疏	-7897
瘍	-7898
皀	-7899
益	-7900
盛	-7901
盟	-7902
眞	-7903
真	-7904
着	-7905
短	-7906
硏	-7907
磨	-7908
祥	-7909
祭	-7910
禍	-7911
禮	-7912
秘	-7913
租	-7914
秧	-7915
程	-7916
種	-7917
突	-7918
窯	-7919
站	-7920
竹	-7921
竺	-7922
笠	-7923
筆	-7924
等	-7925
筒	-7926
答	-7927
筷	-7928
管	-7929
箱	-7930
節	-7931
篠	-7932
篳	-7933
簧	-7934
粘	-7935
粲	-7936
粵	-7937
紋	-7938
級	-7939
紡	-7940
組	-7941
綜	-7942
網	-7943
縁	-7944
總	-7945
績	-7946
織	-7947
繰	-7948
约	-7949
纪	-7950
纯	-7951
综	-7952
缺	-7953
罢	-7954
罵	-7955
群	-7956
羨	-7957
羲	-7958
羽	-7959
翅	-7960
習	-7961
翼	-7962
耆	-7963
耕	-7964
聞	-7965
聯	-7966
聴	-7967
肅	-7968
肖	-7969
胎	-7970
胜	-7971
胡	-7972
脳	-7973
腾	-7974
舍	-7975
舖	-7976
色	-7977
芭	-7978
芸	-7979
芽	-7980
茎	-7981
荘	-7982
药	-7983
荷	-7984
荼	-7985
莎	-7986
莢	-7987
莪	-7988
莱	-7989
菊	-7990
菜	-7991
菹	-7992
萃	-7993
葉	-7994
葦	-7995
